{
  "version": "1.0",
  "truncation": null,
  "padding": null,
  "added_tokens": [
    {
      "id": 0,
      "content": "<|begin_of_text|>",
      "single_word": false,
      "lstrip": false,
      "rstrip": false,
      "normalized": false,
      "special": true
    },
    {
      "id": 1,
      "content": "<|eot_id|>",
      "single_word": false,
      "lstrip": false,
      "rstrip": false,
      "normalized": false,
      "special": true
    },
    {
      "id": 2,
      "content": "<|start_header_id|>",
      "single_word": false,
      "lstrip": false,
      "rstrip": false,
      "normalized": false,
      "special": true
    },
    {
      "id": 3,
      "content": "<|end_header_id|>",
      "single_word": false,
      "lstrip": false,
      "rstrip": false,
      "normalized": false,
      "special": true
    },
    {
      "id": 4,
      "content": "system",
      "single_word": false,
      "lstrip": false,
      "rstrip": false,
      "normalized": false,
      "special": true
    },
    {
      "id": 5,
      "content": "user",
      "single_word": false,
      "lstrip": false,
      "rstrip": false,
      "normalized": false,
      "special": true
    },
    {
      "id": 6,
      "content": "assistant",
      "single_word": false,
      "lstrip": false,
      "rstrip": false,
      "normalized": false,
      "special": true
    },
    {
      "id": 7,
      "content": "<unk>",
      "single_word": false,
      "lstrip": false,
      "rstrip": false,
      "normalized": false,
      "special": true
    },
    {
      "id": 8,
      "content": "<pad>",
      "single_word": false,
      "lstrip": false,
      "rstrip": false,
      "normalized": false,
      "special": true
    },
    {
      "id": 9,
      "content": "<mask>",
      "single_word": false,
      "lstrip": false,
      "rstrip": false,
      "normalized": false,
      "special": true
    }
  ],
  "normalizer": {
    "type": "NFKC"
  },
  "pre_tokenizer": {
    "type": "Metaspace",
    "replacement": "▁",
    "prepend_scheme": "always",
    "split": true
  },
  "post_processor": {
    "type": "TemplateProcessing",
    "single": [
      {
        "SpecialToken": {
          "id": "<|begin_of_text|>",
          "type_id": 0
        }
      },
      {
        "Sequence": {
          "id": "A",
          "type_id": 0
        }
      }
    ],
    "pair": [
      {
        "SpecialToken": {
          "id": "<|begin_of_text|>",
          "type_id": 0
        }
      },
      {
        "Sequence": {
          "id": "A",
          "type_id": 0
        }
      },
      {
        "SpecialToken": {
          "id": "<|begin_of_text|>",
          "type_id": 1
        }
      },
      {
        "Sequence": {
          "id": "B",
          "type_id": 1
        }
      }
    ],
    "special_tokens": {
      "<|begin_of_text|>": {
        "id": "<|begin_of_text|>",
        "ids": [
          0
        ],
        "tokens": [
          "<|begin_of_text|>"
        ]
      }
    }
  },
  "decoder": {
    "type": "Metaspace",
    "replacement": "▁",
    "prepend_scheme": "always",
    "split": true
  },
  "model": {
    "type": "BPE",
    "dropout": null,
    "unk_token": "<unk>",
    "continuing_subword_prefix": null,
    "end_of_word_suffix": null,
    "fuse_unk": false,
    "byte_fallback": false,
    "ignore_merges": false,
    "vocab": {
      "<|begin_of_text|>": 0,
      "<|eot_id|>": 1,
      "<|start_header_id|>": 2,
      "<|end_header_id|>": 3,
      "system": 4,
      "user": 5,
      "assistant": 6,
      "<unk>": 7,
      "<pad>": 8,
      "<mask>": 9,
      "\u0001": 10,
      "\u0002": 11,
      "\u0007": 12,
      "\t": 13,
      "\n": 14,
      "\u0010": 15,
      "\u001e": 16,
      "!": 17,
      "\"": 18,
      "#": 19,
      "$": 20,
      "%": 21,
      "&": 22,
      "'": 23,
      "(": 24,
      ")": 25,
      "*": 26,
      "+": 27,
      ",": 28,
      "-": 29,
      ".": 30,
      "/": 31,
      "0": 32,
      "1": 33,
      "2": 34,
      "3": 35,
      "4": 36,
      "5": 37,
      "6": 38,
      "7": 39,
      "8": 40,
      "9": 41,
      ":": 42,
      ";": 43,
      "<": 44,
      "=": 45,
      ">": 46,
      "?": 47,
      "@": 48,
      "A": 49,
      "B": 50,
      "C": 51,
      "D": 52,
      "E": 53,
      "F": 54,
      "G": 55,
      "H": 56,
      "I": 57,
      "J": 58,
      "K": 59,
      "L": 60,
      "M": 61,
      "N": 62,
      "O": 63,
      "P": 64,
      "Q": 65,
      "R": 66,
      "S": 67,
      "T": 68,
      "U": 69,
      "V": 70,
      "W": 71,
      "X": 72,
      "Y": 73,
      "Z": 74,
      "[": 75,
      "\\": 76,
      "]": 77,
      "^": 78,
      "_": 79,
      "`": 80,
      "a": 81,
      "b": 82,
      "c": 83,
      "d": 84,
      "e": 85,
      "f": 86,
      "g": 87,
      "h": 88,
      "i": 89,
      "j": 90,
      "k": 91,
      "l": 92,
      "m": 93,
      "n": 94,
      "o": 95,
      "p": 96,
      "q": 97,
      "r": 98,
      "s": 99,
      "t": 100,
      "u": 101,
      "v": 102,
      "w": 103,
      "x": 104,
      "y": 105,
      "z": 106,
      "{": 107,
      "}": 108,
      "~": 109,
      "¢": 110,
      "£": 111,
      "¤": 112,
      "¥": 113,
      "¦": 114,
      "§": 115,
      "©": 116,
      "«": 117,
      "­": 118,
      "®": 119,
      "°": 120,
      "±": 121,
      "¶": 122,
      "·": 123,
      "»": 124,
      "×": 125,
      "÷": 126,
      "Œ": 127,
      "œ": 128,
      "ˆ": 129,
      "́": 130,
      "̄": 131,
      "̈": 132,
      "̧": 133,
      "μ": 134,
      "،": 135,
      "؍": 136,
      "؎": 137,
      "ؑ": 138,
      "ؓ": 139,
      "؛": 140,
      "؟": 141,
      "ء": 142,
      "آ": 143,
      "أ": 144,
      "ؤ": 145,
      "إ": 146,
      "ئ": 147,
      "ا": 148,
      "ب": 149,
      "ة": 150,
      "ت": 151,
      "ث": 152,
      "ج": 153,
      "ح": 154,
      "خ": 155,
      "د": 156,
      "ذ": 157,
      "ر": 158,
      "ز": 159,
      "س": 160,
      "ش": 161,
      "ص": 162,
      "ض": 163,
      "ط": 164,
      "ظ": 165,
      "ع": 166,
      "غ": 167,
      "ـ": 168,
      "ف": 169,
      "ق": 170,
      "ك": 171,
      "ل": 172,
      "م": 173,
      "ن": 174,
      "ه": 175,
      "و": 176,
      "ى": 177,
      "ي": 178,
      "ً": 179,
      "ٌ": 180,
      "ٍ": 181,
      "َ": 182,
      "ُ": 183,
      "ِ": 184,
      "ّ": 185,
      "ْ": 186,
      "٠": 187,
      "١": 188,
      "٢": 189,
      "٣": 190,
      "٤": 191,
      "٥": 192,
      "٦": 193,
      "٧": 194,
      "٨": 195,
      "٩": 196,
      "ٰ": 197,
      "ٹ": 198,
      "پ": 199,
      "چ": 200,
      "ڈ": 201,
      "ڑ": 202,
      "ژ": 203,
      "ک": 204,
      "گ": 205,
      "ں": 206,
      "ھ": 207,
      "ہ": 208,
      "ۂ": 209,
      "ۃ": 210,
      "ی": 211,
      "ے": 212,
      "۔": 213,
      "۱": 214,
      "۲": 215,
      "۳": 216,
      "۴": 217,
      "​": 218,
      "‌": 219,
      "‍": 220,
      "‏": 221,
      "—": 222,
      "‘": 223,
      "’": 224,
      "‚": 225,
      "“": 226,
      "”": 227,
      "„": 228,
      "†": 229,
      "‡": 230,
      "•": 231,
      "‰": 232,
      "‹": 233,
      "›": 234,
      "⁄": 235,
      "€": 236,
      "←": 237,
      "∞": 238,
      "∣": 239,
      "∴": 240,
      "≥": 241,
      "⊂": 242,
      "⌖": 243,
      "▁": 244,
      "□": 245,
      "⟨": 246,
      "⦗": 247,
      "⦘": 248,
      "⮙": 249,
      "﷜": 250,
      "﷤": 251,
      "ال": 252,
      "▁ال": 253,
      "▁و": 254,
      "▁م": 255,
      "▁أ": 256,
      "▁ب": 257,
      "▁ف": 258,
      "▁ع": 259,
      "َا": 260,
      "َّ": 261,
      "▁ل": 262,
      "▁ي": 263,
      "▁\n": 264,
      "ِي": 265,
      "َل": 266,
      "▁ق": 267,
      "▁إ": 268,
      "ان": 269,
      "▁في": 270,
      "▁وَ": 271,
      "َن": 272,
      "▁ت": 273,
      "له": 274,
      "▁الْ": 275,
      "▁ك": 276,
      "هُ": 277,
      "▁من": 278,
      "▁ح": 279,
      "لا": 280,
      "اب": 281,
      "ما": 282,
      "لى": 283,
      "َي": 284,
      "ُو": 285,
      "▁الم": 286,
      "ين": 287,
      "ها": 288,
      "هِ": 289,
      "لي": 290,
      "▁ر": 291,
      "نَ": 292,
      "▁(": 293,
      "▁وال": 294,
      "َة": 295,
      "▁س": 296,
      "َيْ": 297,
      "▁.": 298,
      "َر": 299,
      "▁بن": 300,
      "َم": 301,
      "نا": 302,
      "ِن": 303,
      "▁ه": 304,
      "▁الله": 305,
      "وا": 306,
      "َال": 307,
      "▁ص": 308,
      "َب": 309,
      "▁عن": 310,
      "َو": 311,
      "ير": 312,
      "ار": 313,
      "▁-": 314,
      "▁أن": 315,
      "َع": 316,
      "هم": 317,
      "لم": 318,
      "َد": 319,
      "بي": 320,
      "▁ج": 321,
      "▁الأ": 322,
      "ِّ": 323,
      "ذا": 324,
      "ْت": 325,
      "ون": 326,
      "▁،": 327,
      "ول": 328,
      "َى": 329,
      "▁على": 330,
      "َنْ": 331,
      "▁\nو": 332,
      "▁بِ": 333,
      "ية": 334,
      "▁ش": 335,
      "▁ن": 336,
      "ْن": 337,
      "را": 338,
      "▁فِي": 339,
      "َق": 340,
      "ْر": 341,
      "ْل": 342,
      "ًا": 343,
      "لَّ": 344,
      "▁ذ": 345,
      "▁ا": 346,
      "▁علي": 347,
      "ِنْ": 348,
      "ُّ": 349,
      "▁الن": 350,
      "▁الح": 351,
      "▁عَل": 352,
      "▁\"": 353,
      "ْم": 354,
      "▁قال": 355,
      "لك": 356,
      "َت": 357,
      "ــ": 358,
      "▁ث": 359,
      "▁الت": 360,
      "ري": 361,
      "▁خ": 362,
      "▁\n(": 363,
      "دي": 364,
      "ِل": 365,
      "▁الع": 366,
      "▁١": 367,
      "▁لا": 368,
      "▁اب": 369,
      "قال": 370,
      "هَا": 371,
      "حم": 372,
      "▁ما": 373,
      "َك": 374,
      "▁الس": 375,
      "▁د": 376,
      "ام": 377,
      "اء": 378,
      "▁بال": 379,
      "▁الْم": 380,
      "َهُ": 381,
      "▁[": 382,
      "مْ": 383,
      "▁الق": 384,
      "▁وأ": 385,
      "▁اللَّ": 386,
      "ات": 387,
      "▁عليه": 388,
      "▁الر": 389,
      "َس": 390,
      "َالَ": 391,
      "▁الش": 392,
      "من": 393,
      "مر": 394,
      "ِهِ": 395,
      "ست": 396,
      "▁:": 397,
      "قد": 398,
      "كر": 399,
      "ور": 400,
      "َح": 401,
      "▁غ": 402,
      "بد": 403,
      "سلم": 404,
      "في": 405,
      "ته": 406,
      "اد": 407,
      "▁الص": 408,
      "▁ابن": 409,
      "إن": 410,
      "▁٢": 411,
      "▁مِنْ": 412,
      "أن": 413,
      "▁إلى": 414,
      "ائ": 415,
      "ة،": 416,
      "▁وه": 417,
      "َةِ": 418,
      "ْد": 419,
      "َوْ": 420,
      "خر": 421,
      "َلَّ": 422,
      "▁أو": 423,
      "َذ": 424,
      "▁ط": 425,
      "بو": 426,
      "▁بْن": 427,
      "مع": 428,
      "ِك": 429,
      "▁مُ": 430,
      "عد": 431,
      "َف": 432,
      "▁{": 433,
      "ه،": 434,
      "يد": 435,
      "▁وَال": 436,
      "▁كان": 437,
      "َج": 438,
      "▁الد": 439,
      "َنَّ": 440,
      "▁الب": 441,
      "▁مع": 442,
      "مَا": 443,
      "ُل": 444,
      "َّا": 445,
      "حمد": 446,
      "ْب": 447,
      "يل": 448,
      "▁يُ": 449,
      "ني": 450,
      "َيْهِ": 451,
      "َأ": 452,
      "▁الج": 453,
      "وله": 454,
      "▁أي": 455,
      "▁الك": 456,
      "اً": 457,
      "▁عَنْ": 458,
      "حد": 459,
      "▁الإ": 460,
      "يم": 461,
      "كم": 462,
      "وم": 463,
      "ُهُ": 464,
      "بر": 465,
      "▁أبي": 466,
      "▁قَالَ": 467,
      "▁ز": 468,
      "▁إِ": 469,
      "▁«": 470,
      "▁عبد": 471,
      "ــــ": 472,
      "ُم": 473,
      "▁٣": 474,
      "َّة": 475,
      "ود": 476,
      "▁وَل": 477,
      "َاء": 478,
      "فر": 479,
      "ِر": 480,
      "▁الذ": 481,
      "▁لل": 482,
      "ِم": 483,
      "▁إن": 484,
      "فع": 485,
      "ِ،": 486,
      "َاب": 487,
      "▁عَلَى": 488,
      "▁ذلك": 489,
      "▁عَلَيْهِ": 490,
      "لام": 491,
      "َانَ": 492,
      "ديث": 493,
      "▁آ": 494,
      "ُر": 495,
      "▁تع": 496,
      "َار": 497,
      "با": 498,
      "١)": 499,
      "▁هذا": 500,
      "▁أَب": 501,
      "ْع": 502,
      "▁به": 503,
      "َه": 504,
      "رب": 505,
      "َص": 506,
      "َان": 507,
      "▁لم": 508,
      "ُوا": 509,
      "ُول": 510,
      "ِع": 511,
      "▁وسلم": 512,
      "▁الخ": 513,
      "ِب": 514,
      "▁له": 515,
      "▁قال:": 516,
      "شر": 517,
      "حي": 518,
      "▁..": 519,
      "لف": 520,
      "▁أبو": 521,
      "▁وك": 522,
      "▁ولا": 523,
      "َام": 524,
      "لة": 525,
      "اه": 526,
      "جه": 527,
      "ذه": 528,
      "َةَ": 529,
      "▁وع": 530,
      "▁صلى": 531,
      "▁\nال": 532,
      "اع": 533,
      "▁وي": 534,
      "▁/": 535,
      "▁الْح": 536,
      "▁وق": 537,
      "وَ": 538,
      "َمْ": 539,
      "َخ": 540,
      "▁وت": 541,
      "سن": 542,
      "قي": 543,
      "ُونَ": 544,
      "▁الف": 545,
      "كون": 546,
      "▁الْمُ": 547,
      "▁مَا": 548,
      "▁وهو": 549,
      "٢)": 550,
      "▁٤": 551,
      "▁لِ": 552,
      "▁...": 553,
      "ِنَّ": 554,
      "▁الط": 555,
      "رف": 556,
      "ِد": 557,
      "لت": 558,
      "▁الث": 559,
      "اني": 560,
      "▁وا": 561,
      "مَ": 562,
      "▁ثم": 563,
      "فس": 564,
      "الى": 565,
      "ِينَ": 566,
      "يب": 567,
      "َةُ": 568,
      "َنَا": 569,
      "▁أَنَّ": 570,
      "سم": 571,
      "▁هو": 572,
      "▁نَ": 573,
      "رو": 574,
      "عة": 575,
      "▁يق": 576,
      "▁اللَّهُ": 577,
      "َرْ": 578,
      "▁ان": 579,
      "▁الز": 580,
      "ِكَ": 581,
      "▁يع": 582,
      "▁لأن": 583,
      "اف": 584,
      "لق": 585,
      "▁بِال": 586,
      "َض": 587,
      "جل": 588,
      "▁وم": 589,
      "اق": 590,
      "صل": 591,
      "▁الْع": 592,
      "▁تعالى": 593,
      "ٍ،": 594,
      "▁محمد": 595,
      "▁إِل": 596,
      "َدَّ": 597,
      "َوْل": 598,
      "رة": 599,
      "َاد": 600,
      "ْف": 601,
      "ْح": 602,
      "ُمْ": 603,
      "▁وَس": 604,
      "ضي": 605,
      "▁بع": 606,
      "لو": 607,
      "▁الآ": 608,
      "هما": 609,
      "▁اللَّهِ": 610,
      "نة": 611,
      "نى": 612,
      "سول": 613,
      "رج": 614,
      "تاب": 615,
      "▁بْنُ": 616,
      "إِ": 617,
      "▁إذا": 618,
      "▁مِ": 619,
      "▁الْأ": 620,
      "▁أَنْ": 621,
      "بل": 622,
      "▁غير": 623,
      "َيْر": 624,
      "▁الو": 625,
      "َط": 626,
      "بة": 627,
      "َذَا": 628,
      "▁لي": 629,
      "▁قد": 630,
      "▁وَق": 631,
      "▁فيه": 632,
      "▁ض": 633,
      "▁وَأ": 634,
      "ْي": 635,
      "َش": 636,
      "▁أَوْ": 637,
      "▁بعد": 638,
      "٣)": 639,
      "▁قَالَ:": 640,
      "مة": 641,
      "▁فإن": 642,
      "▁أنه": 643,
      "ْو": 644,
      "▁الْق": 645,
      "▁إلا": 646,
      "▁كَانَ": 647,
      "ْق": 648,
      "▁فقال": 649,
      "▁لَا": 650,
      "▁بين": 651,
      "َلَّى": 652,
      "َلِكَ": 653,
      "رك": 654,
      "خت": 655,
      "▁عمر": 656,
      "ذلك": 657,
      "هُوَ": 658,
      "ْس": 659,
      "صر": 660,
      "▁لَهُ": 661,
      "▁النَّ": 662,
      "ه.": 663,
      "وي": 664,
      "َات": 665,
      "ِيل": 666,
      "نِ": 667,
      "وس": 668,
      "▁٥": 669,
      "مي": 670,
      "كن": 671,
      "▁}": 672,
      "اري": 673,
      "اج": 674,
      "هل": 675,
      "▁الذي": 676,
      "ْك": 677,
      "▁بْنِ": 678,
      "▁عَن": 679,
      "ُن": 680,
      "رض": 681,
      "تى": 682,
      "لب": 683,
      "▁قوله": 684,
      "▁كما": 685,
      "ِير": 686,
      "▁صَلَّى": 687,
      "ظر": 688,
      "▁رسول": 689,
      "▁وقال": 690,
      "ــــــــ": 691,
      "عم": 692,
      "▁\n(١)": 693,
      "اح": 694,
      "ابن": 695,
      "هر": 696,
      "تح": 697,
      "▁وج": 698,
      "ِيُّ": 699,
      "▁وب": 700,
      "َتْ": 701,
      "ذَا": 702,
      "▁وَسَلَّ": 703,
      "▁حد": 704,
      "▁والم": 705,
      "قة": 706,
      "▁عَب": 707,
      "غير": 708,
      "تب": 709,
      "▁وفي": 710,
      "دة": 711,
      "َرَ": 712,
      "َائ": 713,
      "▁عند": 714,
      "▁\"ال": 715,
      "َز": 716,
      "▁وَسَلَّمَ": 717,
      "َّل": 718,
      "َّد": 719,
      "▁(١": 720,
      "▁إلي": 721,
      "▁فَق": 722,
      "▁عنه": 723,
      "▁النا": 724,
      "سْت": 725,
      "▁وس": 726,
      "وج": 727,
      "عل": 728,
      "▁\nف": 729,
      "▁كل": 730,
      "▁لأ": 731,
      "وف": 732,
      "▁\nأ": 733,
      "▁وإن": 734,
      "ِّي": 735,
      "▁هذه": 736,
      "▁أخ": 737,
      "وع": 738,
      "▁فأ": 739,
      "▁إِلَى": 740,
      "▁المع": 741,
      "تم": 742,
      "▁فَ": 743,
      "▁\nق": 744,
      "ْرِ": 745,
      "▁أم": 746,
      "▁ذكر": 747,
      "ِيَّة": 748,
      "▁ول": 749,
      "وب": 750,
      "▁الَّ": 751,
      "ِيَ": 752,
      "▁وقد": 753,
      "▁مِنَ": 754,
      "ها،": 755,
      "▁الا": 756,
      "▁فَل": 757,
      "ثنا": 758,
      "يا": 759,
      "٤)": 760,
      "جر": 761,
      "▁حديث": 762,
      "َّر": 763,
      "َدَّث": 764,
      "ة.": 765,
      "مُ": 766,
      "صح": 767,
      "▁\n١": 768,
      "َهَا": 769,
      "ُب": 770,
      "َدْ": 771,
      "ُك": 772,
      "َاف": 773,
      "▁وإ": 774,
      "مان": 775,
      "َعْ": 776,
      "َاع": 777,
      "▁أَبِي": 778,
      "ضع": 779,
      "راء": 780,
      "▁ظ": 781,
      "▁يكون": 782,
      "▁شي": 783,
      "ده": 784,
      "وق": 785,
      "▁يج": 786,
      "سب": 787,
      "▁ابْن": 788,
      "▁يت": 789,
      "▁بِهِ": 790,
      "▁ين": 791,
      "▁بعض": 792,
      "لّ": 793,
      "ذكر": 794,
      "▁أع": 795,
      "َاح": 796,
      "ماء": 797,
      "فة": 798,
      "بت": 799,
      "▁ومن": 800,
      "َسُول": 801,
      "▁الْب": 802,
      "ِيد": 803,
      "ُ:": 804,
      "▁٦": 805,
      "يت": 806,
      "ورة": 807,
      "▁ور": 808,
      "مس": 809,
      "▁أَح": 810,
      "▁اللَّه": 811,
      "▁عَبْد": 812,
      "وى": 813,
      "ِيِّ": 814,
      "▁أحمد": 815,
      "▁\n(٢)": 816,
      "▁لِل": 817,
      "▁[١": 818,
      "▁حَدَّث": 819,
      "إِنْ": 820,
      "قول": 821,
      "ُق": 822,
      "حا": 823,
      "▁وَي": 824,
      "▁است": 825,
      "▁الغ": 826,
      "َ،": 827,
      "به": 828,
      "حيح": 829,
      "▁ون": 830,
      "َةٌ": 831,
      "ُ،": 832,
      "▁حتى": 833,
      "َث": 834,
      "َةً": 835,
      "▁ذَلِكَ": 836,
      "هد": 837,
      "▁التي": 838,
      "وز": 839,
      "ِق": 840,
      "تي": 841,
      "▁رَسُول": 842,
      "▁الْج": 843,
      "حَم": 844,
      "ُمَّ": 845,
      "ّا": 846,
      "▁)": 847,
      "▁الرَّ": 848,
      "هُمْ": 849,
      "َاق": 850,
      "▁أَبُو": 851,
      "يف": 852,
      "▁مَع": 853,
      "در": 854,
      "▁الْو": 855,
      "كان": 856,
      "▁التَّ": 857,
      "بع": 858,
      "قر": 859,
      "ْج": 860,
      "ين،": 861,
      "ًا،": 862,
      "▁النبي": 863,
      "سان": 864,
      "ُد": 865,
      "▁الَّذ": 866,
      "▁وما": 867,
      "ُس": 868,
      "▁الْف": 869,
      "إِنَّ": 870,
      "حت": 871,
      "▁لَمْ": 872,
      "▁الحديث": 873,
      "قت": 874,
      "حر": 875,
      "٥)": 876,
      "▁بل": 877,
      "▁أحد": 878,
      "▁\n[": 879,
      "مل": 880,
      "▁فى": 881,
      "قم": 882,
      "▁إس": 883,
      "▁القر": 884,
      "ْتُ": 885,
      "ْط": 886,
      "▁وكان": 887,
      "▁أَن": 888,
      "ثر": 889,
      "▁أخر": 890,
      "وت": 891,
      "ِهَا": 892,
      "ِف": 893,
      "هو": 894,
      "▁نا": 895,
      "َوْم": 896,
      "▁\nقال": 897,
      "▁روا": 898,
      "▁مَنْ": 899,
      "مام": 900,
      "راد": 901,
      "▁والت": 902,
      "▁تَع": 903,
      "حَمَّد": 904,
      "سر": 905,
      "الك": 906,
      "الم": 907,
      "خل": 908,
      "▁الْك": 909,
      "أَنَّ": 910,
      "▁أهل": 911,
      "ليل": 912,
      "ثير": 913,
      "قط": 914,
      "▁مث": 915,
      "▁سنة": 916,
      "حو": 917,
      "▁مت": 918,
      "َغ": 919,
      "اص": 920,
      "شي": 921,
      "َمَا": 922,
      "لاث": 923,
      "ريق": 924,
      "▁كتاب": 925,
      "▁٧": 926,
      "▁(٢": 927,
      "▁وَك": 928,
      "ِح": 929,
      "َةٍ": 930,
      "▁فِيهِ": 931,
      "َدِي": 932,
      "▁هَذَا": 933,
      "قل": 934,
      "▁وَع": 935,
      "ِس": 936,
      "لَّا": 937,
      "▁حَدَّثَنَا": 938,
      "َيْنِ": 939,
      "▁منه": 940,
      "ْص": 941,
      "لها": 942,
      "▁المن": 943,
      "▁مُحَمَّد": 944,
      "▁أَيْ": 945,
      "▁يقول": 946,
      "٢]": 947,
      "ِيم": 948,
      "َاءِ": 949,
      "بير": 950,
      "ِت": 951,
      "▁وَهُوَ": 952,
      "▁مس": 953,
      "▁الْخ": 954,
      "از": 955,
      "▁والأ": 956,
      "▁يد": 957,
      "ْه": 958,
      "ه:": 959,
      "ِنْد": 960,
      "قوله": 961,
      "آن": 962,
      "▁ولم": 963,
      "▁بها": 964,
      "سي": 965,
      "▁يَق": 966,
      "َّى": 967,
      "▁فيها": 968,
      "ُف": 969,
      "رأ": 970,
      "ْنَ": 971,
      "هم،": 972,
      "لاة": 973,
      "َمَّا": 974,
      "ُون": 975,
      "ُج": 976,
      "▁ثُمَّ": 977,
      "▁بَيْ": 978,
      "ُع": 979,
      "▁الناس": 980,
      "ُور": 981,
      "جم": 982,
      "▁وح": 983,
      "▁بأ": 984,
      "▁وابن": 985,
      "٦)": 986,
      "َعْد": 987,
      "دين": 988,
      "▁فلا": 989,
      "كل": 990,
      "▁وَم": 991,
      "▁وَلَا": 992,
      "ادة": 993,
      "▁وأن": 994,
      "راه": 995,
      "▁*": 996,
      "َّاس": 997,
      "▁\n٢": 998,
      "▁أَخ": 999,
      "عت": 1000,
      "َاهُ": 1001,
      "▁سب": 1002,
      "دا": 1003,
      "ِ.": 1004,
      "▁[١]": 1005,
      "ْخ": 1006,
      "صف": 1007,
      "▁الل": 1008,
      "▁حدثنا": 1009,
      "▁عَنِ": 1010,
      "▁٨": 1011,
      "ٌ،": 1012,
      "▁\n(٣)": 1013,
      "▁يوم": 1014,
      "▁فل": 1015,
      "لاف": 1016,
      "▁الي": 1017,
      "ذي": 1018,
      "▁مح": 1019,
      "سلام": 1020,
      "قدم": 1021,
      "▁الض": 1022,
      "▁السَّ": 1023,
      "▁يا": 1024,
      "▁أَنَّهُ": 1025,
      "خرج": 1026,
      "فق": 1027,
      "اط": 1028,
      "كَ": 1029,
      "ماع": 1030,
      "▁قَال": 1031,
      "▁عِنْد": 1032,
      "▁(١)": 1033,
      "▁يَك": 1034,
      "▁الشي": 1035,
      "▁هُوَ": 1036,
      "رد": 1037,
      "▁شر": 1038,
      "باس": 1039,
      "ية،": 1040,
      "َلَ": 1041,
      "رم": 1042,
      "زل": 1043,
      "زم": 1044,
      "▁\n{": 1045,
      "لاً": 1046,
      "▁بد": 1047,
      "▁الصَّ": 1048,
      "▁إل": 1049,
      "بار": 1050,
      "▁\nوال": 1051,
      "▁قول": 1052,
      "وال": 1053,
      "▁فَأ": 1054,
      "▁واحد": 1055,
      "٧)": 1056,
      "وه": 1057,
      "▁المؤ": 1058,
      "▁لما": 1059,
      "▁غَيْر": 1060,
      "جد": 1061,
      "عيد": 1062,
      "يس": 1063,
      "▁الظ": 1064,
      "▁يح": 1065,
      "زي": 1066,
      "▁رضي": 1067,
      "َدِيث": 1068,
      "فت": 1069,
      "َاج": 1070,
      "▁والن": 1071,
      "٣]": 1072,
      "▁[ال": 1073,
      "▁بم": 1074,
      "▁باب": 1075,
      "سل": 1076,
      "▁رأ": 1077,
      "واب": 1078,
      "حة": 1079,
      "▁ليس": 1080,
      "▁قبل": 1081,
      "▁الشَّ": 1082,
      "▁مو": 1083,
      "شت": 1084,
      "▁الوا": 1085,
      "▁الآية": 1086,
      "▁وَج": 1087,
      "إذا": 1088,
      "تَّ": 1089,
      "▁قَوْل": 1090,
      "▁إِنَّ": 1091,
      "▁٩": 1092,
      "َانِ": 1093,
      "▁فَقَالَ": 1094,
      "ضل": 1095,
      "▁المت": 1096,
      "َاة": 1097,
      "َنِي": 1098,
      "▁المس": 1099,
      "▁ثنا": 1100,
      "▁,": 1101,
      "خذ": 1102,
      "▁إليه": 1103,
      "▁أيض": 1104,
      "يات": 1105,
      "الة": 1106,
      "▁لاَ": 1107,
      "▁النَّب": 1108,
      "▁أس": 1109,
      "▁كثير": 1110,
      "حق": 1111,
      "▁بي": 1112,
      "▁أمر": 1113,
      "نَّ": 1114,
      "▁(ال": 1115,
      "ْأ": 1116,
      "▁لو": 1117,
      "▁بكر": 1118,
      "اس": 1119,
      "ْلِ": 1120,
      "▁فقال:": 1121,
      "▁نفس": 1122,
      "▁مسلم": 1123,
      "٨)": 1124,
      "▁آخر": 1125,
      "▁وغير": 1126,
      "▁\nوقال": 1127,
      "▁تعالى:": 1128,
      "يث": 1129,
      "َلْ": 1130,
      "َيْس": 1131,
      "▁بأن": 1132,
      "▁البي": 1133,
      "رق": 1134,
      "لاء": 1135,
      "ان،": 1136,
      "خاري": 1137,
      "▁وَف": 1138,
      "▁القرآن": 1139,
      "ِيع": 1140,
      "▁فَي": 1141,
      "َالَى": 1142,
      "ُود": 1143,
      "َاس": 1144,
      "▁وهذا": 1145,
      "▁رج": 1146,
      "▁فت": 1147,
      "ــــــــــــــــ": 1148,
      "▁دا": 1149,
      "▁لِأَنَّ": 1150,
      "▁لأنه": 1151,
      "▁١٠": 1152,
      "صد": 1153,
      "َيْن": 1154,
      "رير": 1155,
      "▁إِذَا": 1156,
      "عن": 1157,
      "َتَّى": 1158,
      "ارة": 1159,
      "ي،": 1160,
      "َرَّ": 1161,
      "▁عَنْهُ": 1162,
      "▁رقم": 1163,
      "▁مِنْهُ": 1164,
      "َرِي": 1165,
      "▁{و": 1166,
      "َرُ": 1167,
      "ِث": 1168,
      "▁إب": 1169,
      "اَ": 1170,
      "▁يس": 1171,
      "٩)": 1172,
      "▁وف": 1173,
      "▁اللهُ": 1174,
      "ْنَا": 1175,
      "قات": 1176,
      "▁لهم": 1177,
      "▁أب": 1178,
      "اهر": 1179,
      "▁بَعْد": 1180,
      "صب": 1181,
      "يل:": 1182,
      "▁الرحم": 1183,
      "▁وَه": 1184,
      "▁شَيْ": 1185,
      "رى": 1186,
      "٠)": 1187,
      "▁وَت": 1188,
      "ضِ": 1189,
      "▁كانت": 1190,
      "▁وهي": 1191,
      "▁(٢)": 1192,
      "▁الَّذِي": 1193,
      "تها": 1194,
      "اة": 1195,
      "بِ": 1196,
      "▁تَعَالَى": 1197,
      "▁قَب": 1198,
      "▁أخرجه": 1199,
      "▁يَع": 1200,
      "▁[٢]": 1201,
      "▁\n٣": 1202,
      "▁\nوأ": 1203,
      "وان": 1204,
      "▁الحسن": 1205,
      "▁(٣": 1206,
      "ليس": 1207,
      "َبَ": 1208,
      "▁بما": 1209,
      "▁طريق": 1210,
      "عر": 1211,
      "راهيم": 1212,
      "▁أي:": 1213,
      "كُمْ": 1214,
      "▁حَتَّى": 1215,
      "▁الأن": 1216,
      "▁تح": 1217,
      "دم": 1218,
      "معنى": 1219,
      "َاي": 1220,
      "َنِ": 1221,
      "▁أَو": 1222,
      "ِهِمْ": 1223,
      "▁سعيد": 1224,
      "▁اله": 1225,
      "▁للم": 1226,
      "تُ": 1227,
      "▁صحيح": 1228,
      "▁مر": 1229,
      "▁عَبْدِ": 1230,
      "▁بَيْنَ": 1231,
      "ٍّ": 1232,
      "▁المص": 1233,
      "َيِّ": 1234,
      "▁جاء": 1235,
      "▁وخ": 1236,
      "▁وَر": 1237,
      "▁شيء": 1238,
      "امة": 1239,
      "▁البخاري": 1240,
      "▁كَمَا": 1241,
      "الح": 1242,
      "ميع": 1243,
      "▁١/": 1244,
      "▁هي": 1245,
      "َيَّ": 1246,
      "٤]": 1247,
      "عب": 1248,
      "▁(و": 1249,
      "طي": 1250,
      "فعل": 1251,
      "ضر": 1252,
      "وة": 1253,
      "ِين": 1254,
      "▁١٩": 1255,
      "▁١١": 1256,
      "▁قت": 1257,
      "َعَ": 1258,
      "▁يست": 1259,
      "▁مج": 1260,
      "َاءَ": 1261,
      "▁مثل": 1262,
      "▁القا": 1263,
      "ى،": 1264,
      "▁الدين": 1265,
      "▁يَح": 1266,
      "خْت": 1267,
      "ُهَا": 1268,
      "عي": 1269,
      "▁مالك": 1270,
      "▁يَج": 1271,
      "قص": 1272,
      "▁منها": 1273,
      "ْتَ": 1274,
      "▁فهو": 1275,
      "د،": 1276,
      "▁يم": 1277,
      "ئة": 1278,
      "▁كُل": 1279,
      "ِهِ،": 1280,
      "وح": 1281,
      "▁٢/": 1282,
      "▁ثلاث": 1283,
      "▁فال": 1284,
      "▁يَت": 1285,
      "ِ:": 1286,
      "ِيّ": 1287,
      "▁هـ": 1288,
      "فظ": 1289,
      "▁إذ": 1290,
      "▁أح": 1291,
      "▁١٢": 1292,
      "▁داود": 1293,
      "صحاب": 1294,
      "▁رَب": 1295,
      "▁١٣": 1296,
      "▁الأم": 1297,
      "▁الرحمن": 1298,
      "▁سمع": 1299,
      "جب": 1300,
      "ينا": 1301,
      "َمْر": 1302,
      "ة:": 1303,
      "▁انظر": 1304,
      "▁لها": 1305,
      "دل": 1306,
      "َاو": 1307,
      "تق": 1308,
      "▁عباس": 1309,
      "▁؛": 1310,
      "▁أك": 1311,
      "▁إِلَّا": 1312,
      "▁عشر": 1313,
      "ْمُ": 1314,
      "َهُمْ": 1315,
      "ذهب": 1316,
      "فسير": 1317,
      "▁الإسلام": 1318,
      "▁فَإِنَّ": 1319,
      "▁يأ": 1320,
      "▁الأَ": 1321,
      "ًّا": 1322,
      "▁والع": 1323,
      "َرِ": 1324,
      "وفي": 1325,
      "▁الأول": 1326,
      "م،": 1327,
      "▁قوله:": 1328,
      "كت": 1329,
      "▁\n(٤)": 1330,
      "▁عمرو": 1331,
      "▁الثَّ": 1332,
      "▁أص": 1333,
      "▁أش": 1334,
      "يّ": 1335,
      "ٌّ": 1336,
      "▁كال": 1337,
      "فا": 1338,
      "▁سورة": 1339,
      "▁أخبر": 1340,
      "▁ابْنُ": 1341,
      "▁علم": 1342,
      "نت": 1343,
      "▁النس": 1344,
      "▁الذين": 1345,
      "▁يز": 1346,
      "▁عُم": 1347,
      "طر": 1348,
      "َمُ": 1349,
      "لت:": 1350,
      "▁وص": 1351,
      "ذر": 1352,
      "ائل": 1353,
      "▁فقد": 1354,
      "تْ": 1355,
      "َابِ": 1356,
      "▁وأبو": 1357,
      "▁مَال": 1358,
      "انه": 1359,
      "َاز": 1360,
      "▁قب": 1361,
      "اريخ": 1362,
      "َيْد": 1363,
      "فتح": 1364,
      "▁ولك": 1365,
      "راً": 1366,
      "حيى": 1367,
      "عا": 1368,
      "▁بر": 1369,
      "▁\nب": 1370,
      "▁وَإِنْ": 1371,
      "َّةِ": 1372,
      "▁حم": 1373,
      "▁١٤": 1374,
      "هب": 1375,
      "ُص": 1376,
      "ُوس": 1377,
      "ْمِ": 1378,
      "وض": 1379,
      "ْبَر": 1380,
      "ولى": 1381,
      "▁إبراهيم": 1382,
      "َيْسَ": 1383,
      "مت": 1384,
      "▁فق": 1385,
      "▁والح": 1386,
      "فْس": 1387,
      "ُخ": 1388,
      "▁هنا": 1389,
      "ها.": 1390,
      "▁يَوْم": 1391,
      "هي": 1392,
      "َةِ،": 1393,
      "▁رجل": 1394,
      "وات": 1395,
      "▁فع": 1396,
      "▁وجه": 1397,
      "▁يَس": 1398,
      "▁أق": 1399,
      "َكَ": 1400,
      "كة": 1401,
      "▁وَفِي": 1402,
      "ذب": 1403,
      "▁هُ": 1404,
      "ين.": 1405,
      "ابة": 1406,
      "َةَ،": 1407,
      "▁زيد": 1408,
      "ُوب": 1409,
      "ند": 1410,
      "▁السلام": 1411,
      "نف": 1412,
      "ِّر": 1413,
      "مه": 1414,
      "الب": 1415,
      "▁عِنْدَ": 1416,
      "َارِ": 1417,
      "▁رب": 1418,
      "▁بح": 1419,
      "ُه": 1420,
      "▁بك": 1421,
      "٥]": 1422,
      "غة": 1423,
      "▁العلم": 1424,
      "َلا": 1425,
      "▁أَه": 1426,
      "َدَ": 1427,
      "▁(٤": 1428,
      "إِذَا": 1429,
      "▁يش": 1430,
      "َاهِ": 1431,
      "سْل": 1432,
      "وص": 1433,
      "▁وَب": 1434,
      "ا،": 1435,
      "ْث": 1436,
      "َِنَّ": 1437,
      "ْض": 1438,
      "ِيح": 1439,
      "▁رواه": 1440,
      "▁مَعَ": 1441,
      "َاتِ": 1442,
      "▁\n*": 1443,
      "▁\nوَق": 1444,
      "جز": 1445,
      "▁الاست": 1446,
      "صار": 1447,
      "▁\nت": 1448,
      "▁اسْت": 1449,
      "نس": 1450,
      "َاض": 1451,
      "ِص": 1452,
      "▁الصلاة": 1453,
      "▁فيما": 1454,
      "اش": 1455,
      "ماً": 1456,
      "▁[٣]": 1457,
      "نه": 1458,
      "▁يقال": 1459,
      "افع": 1460,
      "لهم": 1461,
      "َظ": 1462,
      "▁أَي": 1463,
      "▁اللهِ": 1464,
      "ِه": 1465,
      "▁يخ": 1466,
      "قه": 1467,
      "▁أنا": 1468,
      "▁\n٤": 1469,
      "▁أَص": 1470,
      "▁وَقَالَ": 1471,
      "▁اخت": 1472,
      "▁حال": 1473,
      "▁فر": 1474,
      "▁\nقوله": 1475,
      "حاق": 1476,
      "َامِ": 1477,
      "▁يَقُول": 1478,
      "َلَا": 1479,
      "▁تأ": 1480,
      "قب": 1481,
      "▁اسم": 1482,
      "ته،": 1483,
      "▁منهم": 1484,
      "▁\nم": 1485,
      "َاص": 1486,
      "احب": 1487,
      "غني": 1488,
      "ريب": 1489,
      "ثم": 1490,
      "▁مص": 1491,
      "َعْض": 1492,
      "دع": 1493,
      "▁\nع": 1494,
      "▁الخط": 1495,
      "ْز": 1496,
      "ِبُ": 1497,
      "ْهُ": 1498,
      "▁يعني": 1499,
      "رائ": 1500,
      "نَا": 1501,
      "▁وان": 1502,
      "▁الأرض": 1503,
      "قَوْل": 1504,
      "فِع": 1505,
      "▁الدَّ": 1506,
      "▁المسلم": 1507,
      "▁جع": 1508,
      "▁قَبْل": 1509,
      "▁موس": 1510,
      "ُهُمْ": 1511,
      "▁دون": 1512,
      "▁عم": 1513,
      "ِيق": 1514,
      "ضم": 1515,
      "▁الكتاب": 1516,
      "▁تن": 1517,
      "▁مما": 1518,
      "▁أَحْم": 1519,
      "ثمان": 1520,
      "▁١٨": 1521,
      "تِ": 1522,
      "▁عليهم": 1523,
      "طلق": 1524,
      "هار": 1525,
      "غَيْر": 1526,
      "ِيَّةِ": 1527,
      "وط": 1528,
      "انية": 1529,
      "ناه": 1530,
      "ذيب": 1531,
      "▁يحيى": 1532,
      "الث": 1533,
      "َاه": 1534,
      "▁النَّاس": 1535,
      "▁ولو": 1536,
      "ريد": 1537,
      "▁نس": 1538,
      "▁لك": 1539,
      "▁الشيخ": 1540,
      "▁رحم": 1541,
      "▁عَلَيْ": 1542,
      "▁ترج": 1543,
      "▁الفر": 1544,
      "▁روى": 1545,
      "▁وَالْم": 1546,
      "▁الإِ": 1547,
      "▁فإذا": 1548,
      "▁رَج": 1549,
      "▁سن": 1550,
      "▁(٣)": 1551,
      "▁مست": 1552,
      "تِي": 1553,
      "▁الْإِ": 1554,
      "▁تَق": 1555,
      "▁جميع": 1556,
      "لفظ": 1557,
      "▁الآخر": 1558,
      "▁١٥": 1559,
      "▁فِيهَا": 1560,
      "▁وَمَا": 1561,
      "▁يك": 1562,
      "َمِ": 1563,
      "▁رَض": 1564,
      "است": 1565,
      "طل": 1566,
      "▁والله": 1567,
      "هذا": 1568,
      "مال": 1569,
      "▁بِأ": 1570,
      "ِيلَ": 1571,
      "ُح": 1572,
      "َاحِد": 1573,
      "▁يُق": 1574,
      "اهد": 1575,
      "َرْب": 1576,
      "▁بت": 1577,
      "▁الإن": 1578,
      "▁بإ": 1579,
      "▁عام": 1580,
      "ظم": 1581,
      "▁الحق": 1582,
      "▁١٧": 1583,
      "▁الإمام": 1584,
      "▁حسن": 1585,
      "ُوع": 1586,
      "ربي": 1587,
      "َاط": 1588,
      "اء،": 1589,
      "▁تق": 1590,
      "▁(أ": 1591,
      "لال": 1592,
      "َّب": 1593,
      "▁وش": 1594,
      "نيا": 1595,
      "▁إنما": 1596,
      "▁سَم": 1597,
      "▁حق": 1598,
      "▁١٦": 1599,
      "إِن": 1600,
      "بيد": 1601,
      "خص": 1602,
      "لمة": 1603,
      "شْت": 1604,
      "ضى": 1605,
      "▁الله،": 1606,
      "▁بَعْدَ": 1607,
      "صلى": 1608,
      "▁يكن": 1609,
      "▁\n•": 1610,
      "ًا.": 1611,
      "▁الحج": 1612,
      "▁يجوز": 1613,
      "ْنِ": 1614,
      "▁أد": 1615,
      "▁ابْنِ": 1616,
      "ديد": 1617,
      "▁والإ": 1618,
      "هـ": 1619,
      "▁عز": 1620,
      "▁لابن": 1621,
      "يمان": 1622,
      "ّة": 1623,
      "▁«ال": 1624,
      "ُونُ": 1625,
      "▁أَحَد": 1626,
      "▁مِن": 1627,
      "٢،": 1628,
      "▁خال": 1629,
      "▁لأَِنَّ": 1630,
      "لاق": 1631,
      "▁بالم": 1632,
      "١،": 1633,
      "ْذ": 1634,
      "▁الْغ": 1635,
      "طب": 1636,
      "▁جمع": 1637,
      "ربع": 1638,
      "▁يَد": 1639,
      "▁\"أ": 1640,
      "٣،": 1641,
      "َمَ": 1642,
      "َذِهِ": 1643,
      "▁يَا": 1644,
      "▁الأصل": 1645,
      "▁رَسُولُ": 1646,
      "▁الَّذِينَ": 1647,
      "▁]": 1648,
      "لط": 1649,
      "▁فك": 1650,
      "تد": 1651,
      "يع": 1652,
      "يه": 1653,
      "ك،": 1654,
      "▁إِس": 1655,
      "▁فلم": 1656,
      "▁إلَى": 1657,
      "▁الرجل": 1658,
      "٥،": 1659,
      "▁إِنْ": 1660,
      "٠،": 1661,
      "▁أبا": 1662,
      "ِيَّ": 1663,
      "٤،": 1664,
      "اً،": 1665,
      "▁وَح": 1666,
      "▁فإنه": 1667,
      "فَ": 1668,
      "تهى": 1669,
      "٦،": 1670,
      "».": 1671,
      "▁أج": 1672,
      "ِيب": 1673,
      "▁الأمر": 1674,
      "▁لَك": 1675,
      "روف": 1676,
      "طع": 1677,
      "▁بِم": 1678,
      "تَ": 1679,
      "▁معنى": 1680,
      "٩،": 1681,
      "ائر": 1682,
      "َعَل": 1683,
      "ِيَّةُ": 1684,
      "٧،": 1685,
      "ْظ": 1686,
      "▁رواية": 1687,
      "▁قُل": 1688,
      "َّافِع": 1689,
      "▁الملك": 1690,
      "ةِ": 1691,
      "▁الشر": 1692,
      "تين": 1693,
      "▁المؤمن": 1694,
      "▁وز": 1695,
      "▁يؤ": 1696,
      "٨،": 1697,
      "▁أَع": 1698,
      "ريم": 1699,
      "َالِ": 1700,
      "ْتِ": 1701,
      "▁موسى": 1702,
      "▁دار": 1703,
      "واء": 1704,
      "▁سبح": 1705,
      "ائي": 1706,
      "▁دين": 1707,
      "طف": 1708,
      "▁عليها": 1709,
      "٦]": 1710,
      "َاءُ": 1711,
      "▁كلام": 1712,
      "ذك": 1713,
      "▁(١/": 1714,
      "افظ": 1715,
      "تهم": 1716,
      "ثبت": 1717,
      "▁حيث": 1718,
      "ْلُ": 1719,
      "خرجه": 1720,
      "▁أف": 1721,
      "قيق": 1722,
      "▁حَدِيث": 1723,
      "▁سعد": 1724,
      "▁لَوْ": 1725,
      "▁حب": 1726,
      "▁تس": 1727,
      "▁نحو": 1728,
      "▁ير": 1729,
      "▁أصحاب": 1730,
      "▁سَب": 1731,
      "▁ضع": 1732,
      "▁حين": 1733,
      "▁المح": 1734,
      "▁مق": 1735,
      "▁قَدْ": 1736,
      "▁الرَّح": 1737,
      "زة": 1738,
      "ْنِي": 1739,
      "روى": 1740,
      "▁وذلك": 1741,
      "ُذ": 1742,
      "ُط": 1743,
      "▁سلي": 1744,
      "كام": 1745,
      "ثل": 1746,
      "لائ": 1747,
      "▁تقدم": 1748,
      "سنا": 1749,
      "▁أعلم": 1750,
      "▁عد": 1751,
      "وية": 1752,
      "▁\n-": 1753,
      "عه": 1754,
      "▁مش": 1755,
      "▁بذلك": 1756,
      "َدُ": 1757,
      "لية": 1758,
      "رمذي": 1759,
      "▁\nوفي": 1760,
      "باد": 1761,
      "▁فعل": 1762,
      "اله": 1763,
      "▁لت": 1764,
      "▁بخ": 1765,
      "حدث": 1766,
      "بق": 1767,
      "َبِ": 1768,
      "▁فَإِنْ": 1769,
      "▁ولكن": 1770,
      "▁٢٠": 1771,
      "▁حكم": 1772,
      "ُوف": 1773,
      "▁وإنما": 1774,
      "▁ذا": 1775,
      "▁بَعْض": 1776,
      "سين": 1777,
      "▁أَخْبَر": 1778,
      "زُ": 1779,
      "▁لِي": 1780,
      "▁عل": 1781,
      "ءِ": 1782,
      "▁إسحاق": 1783,
      "▁إِن": 1784,
      "▁العرب": 1785,
      "لاَّ": 1786,
      "▁سي": 1787,
      "▁بق": 1788,
      "▁أول": 1789,
      "▁اللَّهَ": 1790,
      "واه": 1791,
      "▁نع": 1792,
      "بيه": 1793,
      "مات": 1794,
      "▁بني": 1795,
      "َّع": 1796,
      "▁يقول:": 1797,
      "▁الثاني": 1798,
      "ٍ:": 1799,
      "▁شيئ": 1800,
      "▁(٥": 1801,
      "▁صاحب": 1802,
      "▁\n٥": 1803,
      "هم.": 1804,
      "ذن": 1805,
      "▁مَس": 1806,
      "▁(٢/": 1807,
      "▁الْي": 1808,
      "ُت": 1809,
      "▁خير": 1810,
      "ّه": 1811,
      "ُرْ": 1812,
      "▁هم": 1813,
      "ُض": 1814,
      "▁القول": 1815,
      "▁يَنْ": 1816,
      "ذَلِكَ": 1817,
      "▁عَم": 1818,
      "فار": 1819,
      "▁رَضِيَ": 1820,
      "▁ود": 1821,
      "َلُ": 1822,
      "ِش": 1823,
      "▁الحكم": 1824,
      "▁٣/": 1825,
      "نع": 1826,
      "▁تكون": 1827,
      "▁فَت": 1828,
      "َتِهِ": 1829,
      "قوله:": 1830,
      "مش": 1831,
      "▁الأس": 1832,
      "▁فلما": 1833,
      "▁شرح": 1834,
      "▁الزَّ": 1835,
      "▁ات": 1836,
      "▁\n(٥)": 1837,
      "▁واست": 1838,
      "▁هرير": 1839,
      "▁الدنيا": 1840,
      "▁ذكره": 1841,
      "▁صد": 1842,
      "▁يص": 1843,
      "▁وَقَدْ": 1844,
      "▁[٤]": 1845,
      "▁الكلام": 1846,
      "اية": 1847,
      "▁الْآ": 1848,
      "▁٢١": 1849,
      "َّار": 1850,
      "▁ومع": 1851,
      "▁يُع": 1852,
      "▁السُّ": 1853,
      "فه": 1854,
      "ويل": 1855,
      "داد": 1856,
      "▁فس": 1857,
      "رات": 1858,
      "سْلِم": 1859,
      "▁شَيْء": 1860,
      "▁وَلاَ": 1861,
      "▁المج": 1862,
      "ُهُ:": 1863,
      "▁فَلَا": 1864,
      "▁المست": 1865,
      "▁وقال:": 1866,
      "ُث": 1867,
      "▁جَم": 1868,
      "َرْض": 1869,
      "▁تص": 1870,
      "--": 1871,
      "▁ها": 1872,
      "ِئ": 1873,
      "▁٢٢": 1874,
      "َعِيد": 1875,
      "▁رَأ": 1876,
      "شد": 1877,
      "افر": 1878,
      "▁بِهَا": 1879,
      "▁أر": 1880,
      "▁إِلَيْهِ": 1881,
      "اك": 1882,
      "▁وث": 1883,
      "ِيف": 1884,
      "ذاب": 1885,
      "▁وَاحِد": 1886,
      "▁وليس": 1887,
      "ِيُّ،": 1888,
      "▁خلق": 1889,
      "ابع": 1890,
      "ُوم": 1891,
      "ظهر": 1892,
      "▁لع": 1893,
      "▁وعلى": 1894,
      "ِط": 1895,
      "▁قوم": 1896,
      "اعة": 1897,
      "ْرُ": 1898,
      "▁أَس": 1899,
      "▁وأما": 1900,
      "▁أَك": 1901,
      "ؤْم": 1902,
      "▁كَال": 1903,
      "▁وسلم-": 1904,
      "سند": 1905,
      "▁والش": 1906,
      "رت": 1907,
      "▁أما": 1908,
      "▁تَح": 1909,
      "يام": 1910,
      "انِي": 1911,
      "َّه": 1912,
      "▁٢٣": 1913,
      "▁إذَا": 1914,
      "▁مُع": 1915,
      "ْدِ": 1916,
      "ونه": 1917,
      "عود": 1918,
      "نَى": 1919,
      "▁فَقَالَ:": 1920,
      "ْتُمْ": 1921,
      "َعُ": 1922,
      "١]": 1923,
      "▁أَق": 1924,
      "ٍ.": 1925,
      "▁\nي": 1926,
      "▁عَبْدُ": 1927,
      "ان:": 1928,
      "ضاء": 1929,
      "٧]": 1930,
      "▁كتب": 1931,
      "امع": 1932,
      "سة": 1933,
      "لَّهِ": 1934,
      "▁وعن": 1935,
      "▁حَق": 1936,
      "▁وقيل": 1937,
      "َدِ": 1938,
      "▁لكن": 1939,
      "بيع": 1940,
      "ملة": 1941,
      "▁مؤ": 1942,
      "بغ": 1943,
      "تك": 1944,
      "اذ": 1945,
      "ب،": 1946,
      "▁الرا": 1947,
      "مير": 1948,
      "لاح": 1949,
      "له،": 1950,
      "▁العل": 1951,
      "ظيم": 1952,
      "▁(ف": 1953,
      "▁أَم": 1954,
      "▁وَكَانَ": 1955,
      "حتاج": 1956,
      "جة": 1957,
      "▁هَذِهِ": 1958,
      "▁والك": 1959,
      "َدِّ": 1960,
      "بيل": 1961,
      "▁\nك": 1962,
      "س،": 1963,
      "لاد": 1964,
      "▁يزيد": 1965,
      "▁وسلم:": 1966,
      "خبر": 1967,
      "هن": 1968,
      "ختلف": 1969,
      "وء": 1970,
      "َقَ": 1971,
      "َاك": 1972,
      "▁ترك": 1973,
      "▁قالوا": 1974,
      "▁عائ": 1975,
      "▁به.": 1976,
      "▁فَك": 1977,
      "وائ": 1978,
      "▁الَّتِي": 1979,
      "أنه": 1980,
      "▁خَل": 1981,
      "▁تك": 1982,
      "▁بالأ": 1983,
      "▁مات": 1984,
      "▁وبين": 1985,
      "▁رِ": 1986,
      "َابُ": 1987,
      "▁ألف": 1988,
      "▁سَمِع": 1989,
      "عام": 1990,
      "▁وَنَ": 1991,
      "▁مخ": 1992,
      "▁المد": 1993,
      "ألة": 1994,
      "▁يَأ": 1995,
      "ضاف": 1996,
      "َيْل": 1997,
      "▁عبيد": 1998,
      "شة": 1999,
      "دينة": 2000,
      "▁أكثر": 2001,
      "▁انتهى": 2002,
      "▁فن": 2003,
      "مائ": 2004,
      "ماعة": 2005,
      "▁بِمَا": 2006,
      "▁بمعنى": 2007,
      "▁الأع": 2008,
      "مار": 2009,
      "ي:": 2010,
      "بري": 2011,
      "▁٢٤": 2012,
      "ناء": 2013,
      "فص": 2014,
      "▁الِ": 2015,
      "▁حدث": 2016,
      "▁وَلَمْ": 2017,
      "َبُ": 2018,
      "▁أَج": 2019,
      "أل": 2020,
      "اتم": 2021,
      "▁وط": 2022,
      "▁كانوا": 2023,
      "▁عُمَرَ": 2024,
      "▁المش": 2025,
      "▁رَسُولَ": 2026,
      "ْرٍ": 2027,
      "ُز": 2028,
      "▁مِث": 2029,
      "▁قر": 2030,
      "▁))": 2031,
      "▁كذا": 2032,
      "▁الْحَن": 2033,
      "▁\"و": 2034,
      "شرح": 2035,
      "ِرِ": 2036,
      "ِلَ": 2037,
      "▁\nول": 2038,
      "▁وإذا": 2039,
      "▁بَك": 2040,
      "▁والق": 2041,
      "يرة": 2042,
      "بين": 2043,
      "▁الرَّحْم": 2044,
      "▁٢٥": 2045,
      "▁وآ": 2046,
      "▁قل": 2047,
      "▁الأص": 2048,
      "هور": 2049,
      "تع": 2050,
      "▁الشافع": 2051,
      "▁والس": 2052,
      "▁أنها": 2053,
      "ؤْمِن": 2054,
      "▁والج": 2055,
      "▁ملك": 2056,
      "َلِك": 2057,
      "▁النِّ": 2058,
      "ثُ": 2059,
      "▁الأولى": 2060,
      "▁إِب": 2061,
      "▁والص": 2062,
      "▁الصح": 2063,
      "َهُوَ": 2064,
      "ره": 2065,
      "▁مُحَمَّدُ": 2066,
      "▁\nقَالَ": 2067,
      "َامُ": 2068,
      "▁جعفر": 2069,
      "▁\nل": 2070,
      "▁زي": 2071,
      "▁(٦": 2072,
      "ابت": 2073,
      "▁القاسم": 2074,
      "▁عق": 2075,
      "▁((": 2076,
      "▁\nح": 2077,
      "جع": 2078,
      "▁لله": 2079,
      "▁وهم": 2080,
      "▁وَلَوْ": 2081,
      "َادَ": 2082,
      "ق،": 2083,
      "ليه": 2084,
      "▁تَك": 2085,
      "▁٢٨": 2086,
      "َفَ": 2087,
      "▁سبحانه": 2088,
      "▁رحمه": 2089,
      "▁به،": 2090,
      "▁نَفْس": 2091,
      "َامَ": 2092,
      "ون،": 2093,
      "▁مِم": 2094,
      "رام": 2095,
      "ٌ.": 2096,
      "▁وَص": 2097,
      "َانُ": 2098,
      "ية.": 2099,
      "وسف": 2100,
      "عمال": 2101,
      "▁\nوقد": 2102,
      "▁خط": 2103,
      "▁٤/": 2104,
      "▁وَالْح": 2105,
      "▁الدُّ": 2106,
      "▁بط": 2107,
      "َذَلِكَ": 2108,
      "▁وجل": 2109,
      "▁نفسه": 2110,
      "▁تلك": 2111,
      "▁نز": 2112,
      "يبة": 2113,
      "▁أبى": 2114,
      "▁قيل": 2115,
      "▁٢٧": 2116,
      "▁نص": 2117,
      "▁مد": 2118,
      "▁\n٦": 2119,
      "▁سليمان": 2120,
      "َلِّ": 2121,
      "▁وَا": 2122,
      "▁لَيْسَ": 2123,
      "▁تخ": 2124,
      "▁عثمان": 2125,
      "▁٢٦": 2126,
      "َافِ": 2127,
      "رفة": 2128,
      "▁موضع": 2129,
      "ِيهِ": 2130,
      "▁تج": 2131,
      "▁تفسير": 2132,
      "يز": 2133,
      "▁إنه": 2134,
      "▁رَجُل": 2135,
      "▁الْمَال": 2136,
      "ّ،": 2137,
      "▁ذلك،": 2138,
      "بات": 2139,
      "ِلا": 2140,
      "▁مك": 2141,
      "▁وقوله": 2142,
      "هود": 2143,
      "▁صالح": 2144,
      "قدير": 2145,
      "▁لِأَنَّهُ": 2146,
      "١.": 2147,
      "صور": 2148,
      "▁المعنى": 2149,
      "ابر": 2150,
      "▁خمس": 2151,
      "▁أخبرنا": 2152,
      "▁والب": 2153,
      "حن": 2154,
      "راءة": 2155,
      "▁كذلك": 2156,
      "َتِ": 2157,
      "▁امر": 2158,
      "▁إِلاَّ": 2159,
      "▁\nومن": 2160,
      "▁التع": 2161,
      "ْنُ": 2162,
      "▁الحافظ": 2163,
      "▁يُح": 2164,
      "دت": 2165,
      "ْرَاه": 2166,
      "ماعيل": 2167,
      "بال": 2168,
      "راف": 2169,
      "ُوزُ": 2170,
      "▁عَد": 2171,
      "▁-صلى": 2172,
      "▁الأخ": 2173,
      "▁ذَك": 2174,
      "وجه": 2175,
      "َمَّ": 2176,
      "▁والخ": 2177,
      "َهُ،": 2178,
      "زيز": 2179,
      "▁أُم": 2180,
      "وبة": 2181,
      "▁لفظ": 2182,
      "سط": 2183,
      "قول:": 2184,
      "فل": 2185,
      "فاء": 2186,
      "▁\n\"": 2187,
      "ريف": 2188,
      "▁إلَّا": 2189,
      "مته": 2190,
      "▁وقيل:": 2191,
      "▁يَص": 2192,
      "▁المنا": 2193,
      "٨]": 2194,
      "▁أخذ": 2195,
      "ِرُ": 2196,
      "لوب": 2197,
      "▁سَعِيد": 2198,
      "▁أه": 2199,
      "▁الشَّي": 2200,
      "▁اع": 2201,
      "▁وله": 2202,
      "ان.": 2203,
      "▁المط": 2204,
      "▁الكبير": 2205,
      "▁٢٩": 2206,
      "▁والد": 2207,
      "ِّب": 2208,
      "▁والث": 2209,
      "▁وذكر": 2210,
      "▁لن": 2211,
      "▁وَإِ": 2212,
      "▁كُن": 2213,
      "▁٣٠": 2214,
      "َرَج": 2215,
      "▁مال": 2216,
      ".\"": 2217,
      "▁وقت": 2218,
      "يلة": 2219,
      "▁وتع": 2220,
      "▁الصحيح": 2221,
      "قا": 2222,
      "ُوهُ": 2223,
      "▁الشَّافِع": 2224,
      "▁\nقوله:": 2225,
      "رح": 2226,
      "▁انظر:": 2227,
      "▁لِم": 2228,
      "َفْع": 2229,
      "▁بغ": 2230,
      "▁الحا": 2231,
      "ؤلاء": 2232,
      "ْش": 2233,
      "▁\"م": 2234,
      "سا": 2235,
      "ِذ": 2236,
      "▁يل": 2237,
      "حب": 2238,
      "▁فض": 2239,
      "▁النَّبِيِّ": 2240,
      "ينة": 2241,
      "▁بنُ": 2242,
      "ْرَأ": 2243,
      "ِيرِ": 2244,
      "ضا": 2245,
      "▁(م": 2246,
      "ّر": 2247,
      "▁(٤)": 2248,
      "▁صف": 2249,
      "يار": 2250,
      "٢.": 2251,
      "▁مِنْهَا": 2252,
      "ونَ": 2253,
      "▁بش": 2254,
      "ها:": 2255,
      "▁يَخ": 2256,
      "▁أت": 2257,
      "▁شع": 2258,
      "▁\n(١": 2259,
      "ماد": 2260,
      "ع،": 2261,
      "▁\nثم": 2262,
      "َ:": 2263,
      "ل،": 2264,
      "َعْنَى": 2265,
      "فى": 2266,
      "▁بالت": 2267,
      "▁فما": 2268,
      "▁ار": 2269,
      "▁أنس": 2270,
      "▁النار": 2271,
      "▁عليه،": 2272,
      "ِز": 2273,
      "▁الماء": 2274,
      "ذف": 2275,
      "▁أيضا": 2276,
      "▁تت": 2277,
      "ُمُ": 2278,
      "▁أَخْبَرَنَا": 2279,
      "َاةِ": 2280,
      "▁وكذلك": 2281,
      "ال،": 2282,
      "٣.": 2283,
      "ولي": 2284,
      "▁سفي": 2285,
      "َسَن": 2286,
      "▁\nس": 2287,
      "▁(ص": 2288,
      "▁الجمع": 2289,
      "وك": 2290,
      "▁اس": 2291,
      "ِلْك": 2292,
      "ِّل": 2293,
      "▁لمن": 2294,
      "▁الْمَس": 2295,
      "صة": 2296,
      "▁أَر": 2297,
      "ِّين": 2298,
      "ْتَم": 2299,
      "▁أَمْ": 2300,
      "قدر": 2301,
      "▁آخ": 2302,
      "َّن": 2303,
      "▁لَهُمْ": 2304,
      "▁الإنسان": 2305,
      "ارث": 2306,
      "▁خبر": 2307,
      "▁[١].": 2308,
      "▁بهذا": 2309,
      "ءُ": 2310,
      "▁حاتم": 2311,
      "▁اج": 2312,
      "▁مَالِك": 2313,
      "▁هريرة": 2314,
      "ْرَ": 2315,
      "▁فتح": 2316,
      "َارَ": 2317,
      "▁وَسَلَّمَ:": 2318,
      "َّةَ": 2319,
      "ِّف": 2320,
      "▁جز": 2321,
      "ِبِ": 2322,
      "▁تم": 2323,
      "▁أَش": 2324,
      "ُونَ}": 2325,
      "فرد": 2326,
      "..": 2327,
      "▁اهـ": 2328,
      "نب": 2329,
      "ِرَ": 2330,
      "▁؟": 2331,
      "▁سمعت": 2332,
      "▁آية": 2333,
      "َّي": 2334,
      "عون": 2335,
      "▁أراد": 2336,
      "ري،": 2337,
      "▁ضعيف": 2338,
      "▁فج": 2339,
      "▁\nوَال": 2340,
      "▁خرج": 2341,
      "▁فَال": 2342,
      "▁الدار": 2343,
      "▁فكان": 2344,
      "٥.": 2345,
      "▁لَهَا": 2346,
      "ين:": 2347,
      "▁يوسف": 2348,
      "▁يعلم": 2349,
      "ضًا": 2350,
      "حاديث": 2351,
      "▁رَو": 2352,
      "▁إِذا": 2353,
      "َفِي": 2354,
      "▁بعضهم": 2355,
      "ّي": 2356,
      "حل": 2357,
      "▁دع": 2358,
      "▁لنا": 2359,
      "▁المراد": 2360,
      "ضة": 2361,
      "▁ـ": 2362,
      "▁محم": 2363,
      "▁قلت": 2364,
      "٤.": 2365,
      "▁هل": 2366,
      "شام": 2367,
      "▁فمن": 2368,
      "٦.": 2369,
      "كذا": 2370,
      "وَاي": 2371,
      "▁الجز": 2372,
      "ى:": 2373,
      "ِيرُ": 2374,
      "▁\nر": 2375,
      "▁[٥]": 2376,
      "َيْت": 2377,
      "ْرِي": 2378,
      "ْهِ": 2379,
      "▁شيخ": 2380,
      "▁الصَّل": 2381,
      "ُنْ": 2382,
      "مَن": 2383,
      "▁العزيز": 2384,
      "▁فَهُوَ": 2385,
      "▁يَكُونَ": 2386,
      "▁بِع": 2387,
      "▁ولي": 2388,
      "امل": 2389,
      "٧.": 2390,
      "٨.": 2391,
      "٩]": 2392,
      "▁با": 2393,
      "▁الترمذي": 2394,
      "بلغ": 2395,
      "ِمَ": 2396,
      "▁إنْ": 2397,
      "لّى": 2398,
      "٩.": 2399,
      "َيْنَ": 2400,
      "ُؤ": 2401,
      "سه": 2402,
      "▁بالن": 2403,
      "▁الرُّ": 2404,
      "▁الساب": 2405,
      "▁ام": 2406,
      "▁وَهَذَا": 2407,
      "▁الجنة": 2408,
      "َابِل": 2409,
      "▁جعل": 2410,
      "يح": 2411,
      "▁المق": 2412,
      "واز": 2413,
      "▁عط": 2414,
      "▁العربي": 2415,
      "▁٣١": 2416,
      "▁سَل": 2417,
      "َئ": 2418,
      "▁عنها": 2419,
      "٠.": 2420,
      "تمل": 2421,
      "▁فَإِنَّهُ": 2422,
      "▁(٧": 2423,
      "▁إِبْرَاه": 2424,
      "ُقَهَا": 2425,
      "▁{ف": 2426,
      "شرك": 2427,
      "ِّهِ": 2428,
      "▁المخ": 2429,
      "▁خلاف": 2430,
      "َى،": 2431,
      "ائع": 2432,
      "باح": 2433,
      "▁عَبَّاس": 2434,
      "ولا": 2435,
      "▁تَر": 2436,
      "▁أنهم": 2437,
      "علق": 2438,
      "َدُّ": 2439,
      "ِى": 2440,
      "حْو": 2441,
      "▁\n٧": 2442,
      "▁غيره": 2443,
      "▁مَك": 2444,
      "▁وفيه": 2445,
      "▁٣٣": 2446,
      "رجع": 2447,
      "قَ": 2448,
      "▁شاء": 2449,
      "فعول": 2450,
      "ت:": 2451,
      "يمة": 2452,
      "▁قلت:": 2453,
      "ِعُ": 2454,
      "▁صلّى": 2455,
      "▁اخْت": 2456,
      "َرْضِ": 2457,
      "أم": 2458,
      "▁تَعَالَى:": 2459,
      "ريح": 2460,
      "▁٣٢": 2461,
      "ْغ": 2462,
      "▁مُت": 2463,
      "َيْب": 2464,
      "َكُمْ": 2465,
      "▁يَش": 2466,
      "▁فَس": 2467,
      "▁صح": 2468,
      "▁وحد": 2469,
      "▁يَب": 2470,
      "مِ": 2471,
      "▁أَت": 2472,
      "وضع": 2473,
      "▁وَالْأ": 2474,
      "▁فَم": 2475,
      "ِيدُ": 2476,
      "هاد": 2477,
      "َلَاث": 2478,
      "▁حك": 2479,
      "ولة": 2480,
      "هذيب": 2481,
      "▁يُر": 2482,
      "▁يغ": 2483,
      "هاء": 2484,
      "▁تاريخ": 2485,
      "▁بالإ": 2486,
      "بح": 2487,
      "قِ": 2488,
      "حمل": 2489,
      "▁أَل": 2490,
      "▁الأش": 2491,
      "▁قاله": 2492,
      "▁بالع": 2493,
      "ير،": 2494,
      "▁اللّ": 2495,
      "▁غَيْرِ": 2496,
      "▁مَح": 2497,
      "يسى": 2498,
      "▁\nمن": 2499,
      "ِج": 2500,
      "▁بَل": 2501,
      "▁ولد": 2502,
      "▁فِيمَا": 2503,
      "ُوج": 2504,
      "٠]": 2505,
      "▁وَإِنَّ": 2506,
      "▁بِح": 2507,
      "▁\n(٦)": 2508,
      "▁(٣/": 2509,
      "َابَ": 2510,
      "رس": 2511,
      "ِلُ": 2512,
      "وّ": 2513,
      "▁إسماعيل": 2514,
      "َوَّ": 2515,
      "▁٣٤": 2516,
      "َهَبَ": 2517,
      "▁لب": 2518,
      "َرْج": 2519,
      "ْلَ": 2520,
      "▁نعم": 2521,
      "قُ": 2522,
      "مد": 2523,
      "شْر": 2524,
      "ْأَل": 2525,
      "اض": 2526,
      "َوَّل": 2527,
      "▁يجب": 2528,
      "أة": 2529,
      "▁ثلاثة": 2530,
      "َاش": 2531,
      "َالُ": 2532,
      "▁ومسلم": 2533,
      "ْحَاق": 2534,
      "▁ست": 2535,
      "▁قَت": 2536,
      "عِ": 2537,
      "▁المغ": 2538,
      "▁والط": 2539,
      "▁صَح": 2540,
      "▁الشَّر": 2541,
      "عُ": 2542,
      "▁معا": 2543,
      "▁العلماء": 2544,
      "▁اعت": 2545,
      "▁٣٥": 2546,
      "▁بنت": 2547,
      "▁اث": 2548,
      "راب": 2549,
      "ْدُ": 2550,
      "ْفِ": 2551,
      "أَ": 2552,
      "▁كَث": 2553,
      "▁أَف": 2554,
      "▁الجن": 2555,
      "▁\"ت": 2556,
      "قيقة": 2557,
      "▁ترجمته": 2558,
      "ْبِ": 2559,
      "▁رك": 2560,
      "▁إنَّ": 2561,
      "▁الروا": 2562,
      "عمل": 2563,
      "▁تش": 2564,
      "▁وعبد": 2565,
      "ُّه": 2566,
      "▁أنّ": 2567,
      "هاية": 2568,
      "ِيٍّ": 2569,
      "▁مُوس": 2570,
      "▁الإيمان": 2571,
      "ادر": 2572,
      "▁يذكر": 2573,
      "▁(ب": 2574,
      "▁اليوم": 2575,
      "▁وَأَب": 2576,
      "▁إسنا": 2577,
      "الي": 2578,
      "راج": 2579,
      "▁رس": 2580,
      "▁لح": 2581,
      "▁القاضي": 2582,
      "▁رفع": 2583,
      "▁يَسْت": 2584,
      "حرم": 2585,
      "▁لِأ": 2586,
      "▁بغير": 2587,
      "ار،": 2588,
      "ُلُ": 2589,
      "طان": 2590,
      "▁مسعود": 2591,
      "▁الرِّ": 2592,
      "▁آل": 2593,
      "▁السنة": 2594,
      "ُّب": 2595,
      "▁صلاة": 2596,
      "▁بص": 2597,
      "▁الْفُقَهَا": 2598,
      "▁معه": 2599,
      "▁الحسين": 2600,
      "▁المسلمين": 2601,
      "▁كيف": 2602,
      "▁وغ": 2603,
      "ِمِ": 2604,
      "اعل": 2605,
      "▁يط": 2606,
      "بط": 2607,
      "َاهِر": 2608,
      "▁عَمْر": 2609,
      "ُهُ،": 2610,
      "تمع": 2611,
      "ةَ": 2612,
      "يته": 2613,
      "ّى": 2614,
      "باع": 2615,
      "ْلَمُ": 2616,
      "▁له:": 2617,
      "▁بنِ": 2618,
      "▁بالح": 2619,
      "لّم": 2620,
      "حكام": 2621,
      "▁نَص": 2622,
      "▁والف": 2623,
      "ِبَ": 2624,
      "ْلَم": 2625,
      "▁بالك": 2626,
      "▁بِالْم": 2627,
      "▁يدل": 2628,
      "ٌ:": 2629,
      "▁فَإِذَا": 2630,
      "▁وُج": 2631,
      "ضح": 2632,
      "▁عُب": 2633,
      "َّةُ": 2634,
      "▁يقت": 2635,
      "▁وصف": 2636,
      "▁كَانَتْ": 2637,
      "▁بفتح": 2638,
      "▁بهم": 2639,
      "قوب": 2640,
      "▁جَع": 2641,
      "▁المؤمنين": 2642,
      "ْتِي": 2643,
      "▁المك": 2644,
      "▁لق": 2645,
      "▁الثالث": 2646,
      "▁مط": 2647,
      "▁وعد": 2648,
      "الف": 2649,
      "▁يَم": 2650,
      "▁يَز": 2651,
      "▁بس": 2652,
      "▁حجر": 2653,
      "▁المؤلف": 2654,
      "ِيلِ": 2655,
      "▁مِمَّا": 2656,
      "▁الْحَنَف": 2657,
      "▁٣٦": 2658,
      "▁يَر": 2659,
      "َوْج": 2660,
      "▁بيت": 2661,
      "▁يَكُونُ": 2662,
      "ذْ": 2663,
      "▁(ت": 2664,
      "َمْس": 2665,
      "▁جرير": 2666,
      "▁يريد": 2667,
      "▁أيضاً": 2668,
      "▁جه": 2669,
      "▁له،": 2670,
      "ثَّ": 2671,
      "▁وكذا": 2672,
      "▁تَب": 2673,
      "روي": 2674,
      "▁وَمِنْ": 2675,
      "▁فان": 2676,
      "لَّهُ": 2677,
      "قال:": 2678,
      "ت،": 2679,
      "▁قرأ": 2680,
      "▁إي": 2681,
      "صحيح": 2682,
      "▁يعرف": 2683,
      "َاضِي": 2684,
      "▁عَلَيْهَا": 2685,
      "▁قَبْلَ": 2686,
      "▁رَح": 2687,
      "▁ورد": 2688,
      "اني:": 2689,
      "▁الما": 2690,
      "ِيُّ:": 2691,
      "▁هؤلاء": 2692,
      "▁وَعَل": 2693,
      "▁كُلِّ": 2694,
      "ْعِ": 2695,
      "عين": 2696,
      "▁الخطاب": 2697,
      "▁أربع": 2698,
      "ه\"": 2699,
      "▁والر": 2700,
      "▁يَحْي": 2701,
      "▁المذك": 2702,
      "ّد": 2703,
      "▁الآيات": 2704,
      "▁السن": 2705,
      "▁العد": 2706,
      "▁وضع": 2707,
      "َّت": 2708,
      "ْمَاع": 2709,
      "▁الان": 2710,
      "▁المال": 2711,
      "▁بج": 2712,
      "▁عائشة": 2713,
      "▁يَجُوزُ": 2714,
      "▁أنَّ": 2715,
      "▁اشت": 2716,
      "ا.": 2717,
      "▁الرَّج": 2718,
      "▁٥/": 2719,
      "٠٠": 2720,
      "ِعَ": 2721,
      "▁بْنَ": 2722,
      "▁\"الم": 2723,
      "شْتَر": 2724,
      "▁لكم": 2725,
      "▁بِن": 2726,
      "▁صَل": 2727,
      "َرْبَع": 2728,
      "▁الرج": 2729,
      "ِيِّ،": 2730,
      "▁شرط": 2731,
      "ُّهُ": 2732,
      "ناس": 2733,
      "▁كَف": 2734,
      "▁كنت": 2735,
      "جاب": 2736,
      "▁عدم": 2737,
      "▁بيان": 2738,
      "ِّن": 2739,
      "َّذ": 2740,
      "هاب": 2741,
      "▁تَأ": 2742,
      "▁عين": 2743,
      "انة": 2744,
      "▁قتل": 2745,
      "ــــــــــــــــــــــــــــــــ": 2746,
      "ُ.": 2747,
      "▁فَر": 2748,
      "▁محل": 2749,
      "ي.": 2750,
      "▁حني": 2751,
      "▁تَس": 2752,
      "كره": 2753,
      "▁تَج": 2754,
      "▁(٨": 2755,
      "جاز": 2756,
      "▁شَر": 2757,
      "شف": 2758,
      "ِيمِ": 2759,
      "▁أبيه": 2760,
      "▁بالله": 2761,
      "ون:": 2762,
      "َّح": 2763,
      "▁القد": 2764,
      "▁عرف": 2765,
      "َلِ": 2766,
      "▁فَه": 2767,
      "▁وَالش": 2768,
      "▁البد": 2769,
      "▁وقع": 2770,
      "▁يُن": 2771,
      "راق": 2772,
      "ُكُمْ": 2773,
      "صرف": 2774,
      "ن،": 2775,
      "▁للأ": 2776,
      "▁الثَّانِي": 2777,
      "»،": 2778,
      "▁وَمَنْ": 2779,
      "رأة": 2780,
      "ِدِ": 2781,
      "▁حي": 2782,
      "▁وَالْع": 2783,
      "ِيمَ": 2784,
      "▁شَيْئ": 2785,
      "ِنَ": 2786,
      "▁سُل": 2787,
      "▁(ع": 2788,
      "▁الْمُت": 2789,
      "مرة": 2790,
      "ساب": 2791,
      "دى": 2792,
      "ُي": 2793,
      "▁بِخ": 2794,
      "▁٣٧": 2795,
      "▁القي": 2796,
      "▁عيسى": 2797,
      "▁موا": 2798,
      "▁هُر": 2799,
      "ليم": 2800,
      "شية": 2801,
      "▁\n٨": 2802,
      "َيْثُ": 2803,
      "▁\"ف": 2804,
      "براني": 2805,
      "▁الأد": 2806,
      "▁فَلاَ": 2807,
      "َقُول": 2808,
      "▁مكان": 2809,
      "▁بَي": 2810,
      "▁برقم": 2811,
      "▁قري": 2812,
      "لَا": 2813,
      "▁(٤/": 2814,
      "▁يُص": 2815,
      "▁عب": 2816,
      "ولد": 2817,
      "▁رد": 2818,
      "يش": 2819,
      "١١": 2820,
      "▁زوج": 2821,
      "ِعِ": 2822,
      "▁هِيَ": 2823,
      "راك": 2824,
      "▁\nالم": 2825,
      "ئذ": 2826,
      "ْرَج": 2827,
      "ناع": 2828,
      "صدق": 2829,
      "ربعة": 2830,
      "علم": 2831,
      "▁رَسُولِ": 2832,
      "▁تحت": 2833,
      "ته.": 2834,
      "باب": 2835,
      "ُّر": 2836,
      "▁تد": 2837,
      "▁فوق": 2838,
      "▁سبيل": 2839,
      "▁سفيان": 2840,
      "▁[٢].": 2841,
      "َانِي": 2842,
      "▁صَاح": 2843,
      "َّةً": 2844,
      "▁الاع": 2845,
      "▁كَل": 2846,
      "▁وَاب": 2847,
      "▁أنت": 2848,
      "بيب": 2849,
      "▁الْحَدِيث": 2850,
      "ر،": 2851,
      "▁وَغَيْر": 2852,
      "ْيَا": 2853,
      "َوْله": 2854,
      "ُّوا": 2855,
      "▁يصح": 2856,
      "مَان": 2857,
      "ُّل": 2858,
      "ليق": 2859,
      "▁بالق": 2860,
      "وري": 2861,
      "طة": 2862,
      "▁وَمُ": 2863,
      "▁يَوْمَ": 2864,
      "▁الفت": 2865,
      "▁وأبي": 2866,
      "▁وَخ": 2867,
      "▁نق": 2868,
      "اث": 2869,
      "▁\nج": 2870,
      "▁تَف": 2871,
      "▁٣٨": 2872,
      "▁سلم": 2873,
      "▁العبد": 2874,
      "ِكُمْ": 2875,
      "وث": 2876,
      "▁ظاهر": 2877,
      "لد": 2878,
      "▁خالد": 2879,
      "َذْه": 2880,
      "وجب": 2881,
      "َنا": 2882,
      "▁تز": 2883,
      "▁حُك": 2884,
      "▁المر": 2885,
      "فاق": 2886,
      "▁الفعل": 2887,
      "اته": 2888,
      "▁مصر": 2889,
      "لبي": 2890,
      "ديم": 2891,
      "ثار": 2892,
      "▁«١": 2893,
      "▁ثَلَاث": 2894,
      "▁فح": 2895,
      "▁قَالُوا": 2896,
      "َّاب": 2897,
      "▁بِأَنَّ": 2898,
      "قطع": 2899,
      "َةِ.": 2900,
      "▁نَق": 2901,
      "جوز": 2902,
      "سائي": 2903,
      "▁بشر": 2904,
      "▁البيت": 2905,
      "كثر": 2906,
      "ئت": 2907,
      "▁ألا": 2908,
      "▁العق": 2909,
      "▁حرف": 2910,
      "▁هشام": 2911,
      "▁السَّل": 2912,
      "▁يُؤ": 2913,
      "▁الْمُح": 2914,
      "▁المحتاج": 2915,
      "▁عنهما": 2916,
      "اسْت": 2917,
      "▁فَقَال": 2918,
      "▁أحدهما": 2919,
      "كاح": 2920,
      "▁أَيُّ": 2921,
      "ات،": 2922,
      "▁البص": 2923,
      "ونس": 2924,
      "▁دخل": 2925,
      "▁إِسْحَاق": 2926,
      "▁بلا": 2927,
      "َنْب": 2928,
      "شارة": 2929,
      "▁بِك": 2930,
      "▁ذَلِك": 2931,
      "▁الحارث": 2932,
      "ْرَى": 2933,
      "▁الدّ": 2934,
      "▁ثابت": 2935,
      "ُونِ": 2936,
      "▁فيه،": 2937,
      "ُّف": 2938,
      "▁الرسول": 2939,
      "▁هُرَيْر": 2940,
      "ضرب": 2941,
      "▁(قَوْل": 2942,
      "▁الرز": 2943,
      "▁أخرى": 2944,
      "نائ": 2945,
      "ذين": 2946,
      "▁السماء": 2947,
      "▁بلغ": 2948,
      "▁رم": 2949,
      "▁كن": 2950,
      "جاج": 2951,
      "▁السّ": 2952,
      "▁الدع": 2953,
      "▁الصَّح": 2954,
      "▁الباب": 2955,
      "▁٣٩": 2956,
      "ركة": 2957,
      "▁عَلَيْهِمْ": 2958,
      "▁\nقلت:": 2959,
      "▁بِش": 2960,
      "▁«أ": 2961,
      "ِمُ": 2962,
      "▁سبع": 2963,
      "▁جد": 2964,
      "▁أصل": 2965,
      "▁الحاكم": 2966,
      "▁جَمِيع": 2967,
      "▁ثقة": 2968,
      "▁الْمُع": 2969,
      "وهم": 2970,
      "▁هِ": 2971,
      "▁\nفي": 2972,
      "▁ونحو": 2973,
      "▁يف": 2974,
      "يص": 2975,
      "فَق": 2976,
      "حه": 2977,
      "▁فَلَمَّا": 2978,
      "▁جابر": 2979,
      "ليد": 2980,
      "▁وين": 2981,
      "▁قدر": 2982,
      "١٠": 2983,
      "▁يخرج": 2984,
      "ثال": 2985,
      "▁يب": 2986,
      "▁البق": 2987,
      "زلة": 2988,
      "▁ممن": 2989,
      "▁الى": 2990,
      "آخر": 2991,
      "▁قَد": 2992,
      "▁عباد": 2993,
      "سبب": 2994,
      "خة": 2995,
      "دي،": 2996,
      "▁فا": 2997,
      "ظاهر": 2998,
      "▁الرَّحْمَنِ": 2999,
      "بتد": 3000,
      "▁الْمَالِك": 3001,
      "َذْك": 3002,
      "▁بينهما": 3003,
      "▁نظر": 3004,
      "اً.": 3005,
      "َارُ": 3006,
      "▁ذلك.": 3007,
      "▁يُس": 3008,
      "▁الوج": 3009,
      "▁النّ": 3010,
      "▁\nوَأ": 3011,
      "▁صفة": 3012,
      "▁رأيت": 3013,
      "▁\nوق": 3014,
      "▁الشيء": 3015,
      "▁عنده": 3016,
      "ذوف": 3017,
      "▁النساء": 3018,
      "١٢": 3019,
      "▁المدينة": 3020,
      "▁يَكُنْ": 3021,
      "▁\n=": 3022,
      "ِيمُ": 3023,
      "▁الْبَيْ": 3024,
      "َةُ،": 3025,
      "▁مِنْهُمْ": 3026,
      "▁للت": 3027,
      "وار": 3028,
      "▁مَوْ": 3029,
      "َصْل": 3030,
      "َتُهُ": 3031,
      "ُش": 3032,
      "▁حبان": 3033,
      "▁وسلّم": 3034,
      "ِنَا": 3035,
      "▁\nوَقَالَ": 3036,
      "▁فَو": 3037,
      "ًا}": 3038,
      "▁البحر": 3039,
      "▁أَهْل": 3040,
      "▁أيضًا": 3041,
      "َأَ": 3042,
      "اهرة": 3043,
      "▁مَن": 3044,
      "وجد": 3045,
      "▁مُن": 3046,
      "َادِ": 3047,
      "هُمَا": 3048,
      "▁بقوله": 3049,
      "▁-،": 3050,
      "ْنَاهُ": 3051,
      "ختار": 3052,
      "سناد": 3053,
      "َّم": 3054,
      "ِدُ": 3055,
      "َرِّ": 3056,
      "َّو": 3057,
      "قع": 3058,
      "▁\nقال:": 3059,
      "▁يقال:": 3060,
      "َاءٌ": 3061,
      "▁يمكن": 3062,
      "▁عنه،": 3063,
      "▁[٦]": 3064,
      "▁قط": 3065,
      "▁الحال": 3066,
      "▁دخ": 3067,
      "فض": 3068,
      "صول": 3069,
      "▁نج": 3070,
      "ور،": 3071,
      "▁در": 3072,
      "▁السي": 3073,
      "▁{أ": 3074,
      "▁البر": 3075,
      "▁مُسْلِم": 3076,
      "▁وبال": 3077,
      "شيء": 3078,
      "▁وَالس": 3079,
      "▁\nوأما": 3080,
      "شاف": 3081,
      "▁العالم": 3082,
      "ْمَل": 3083,
      "ِهِ.": 3084,
      "▁حن": 3085,
      "نا،": 3086,
      "▁\nوي": 3087,
      "▁فلي": 3088,
      "▁\nإ": 3089,
      "ّم": 3090,
      "ُلَّ": 3091,
      "قام": 3092,
      "▁خلف": 3093,
      "▁فذكر": 3094,
      "غَيْرِ": 3095,
      "ْحِ": 3096,
      "▁بَلْ": 3097,
      "▁البغ": 3098,
      "١٣": 3099,
      "▁التق": 3100,
      "١٤": 3101,
      "ةُ": 3102,
      "سو": 3103,
      "جرة": 3104,
      "▁المسجد": 3105,
      "▁يَحْيَى": 3106,
      "▁أَصْح": 3107,
      "ريج": 3108,
      "كاة": 3109,
      "بأ": 3110,
      "▁عشرة": 3111,
      "▁حديث:": 3112,
      "▁اح": 3113,
      "▁دي": 3114,
      "▁طَل": 3115,
      "▁كون": 3116,
      "١٩": 3117,
      "▁مرف": 3118,
      "ُلْ": 3119,
      "▁عَز": 3120,
      "▁فلان": 3121,
      "▁وير": 3122,
      "٢٠": 3123,
      "▁الليل": 3124,
      "َنَ": 3125,
      "▁دُونَ": 3126,
      "▁قَوْلِهِ": 3127,
      "▁وكل": 3128,
      "▁مُوسَى": 3129,
      "▁٤٠": 3130,
      "▁قدم": 3131,
      "▁»": 3132,
      "طْل": 3133,
      "▁بِس": 3134,
      "▁وَهِيَ": 3135,
      "▁الْإ": 3136,
      "▁ثمَّ": 3137,
      "كي": 3138,
      "جار": 3139,
      "▁مض": 3140,
      "▁عمل": 3141,
      "▁ذهب": 3142,
      "َّان": 3143,
      "▁الْعَب": 3144,
      "َانُوا": 3145,
      "▁قيل:": 3146,
      "▁حر": 3147,
      "َةُ:": 3148,
      "▁قَوْم": 3149,
      "ظر:": 3150,
      "▁وجد": 3151,
      "▁الفق": 3152,
      "▁\n{و": 3153,
      "▁\n(و": 3154,
      "ؤمن": 3155,
      "عراب": 3156,
      "▁قص": 3157,
      "▁لِلْم": 3158,
      "َتَيْنِ": 3159,
      "▁عنهم": 3160,
      "▁بِق": 3161,
      "▁نَع": 3162,
      "▁رِوَاي": 3163,
      "▁يَقُولُ:": 3164,
      "▁عَش": 3165,
      "ية:": 3166,
      "▁وأم": 3167,
      "▁الواحد": 3168,
      "ْفَر": 3169,
      "لائكة": 3170,
      "▁الهم": 3171,
      "▁ورقة": 3172,
      "ُفْي": 3173,
      "ُكَ": 3174,
      "َاذ": 3175,
      "▁مُح": 3176,
      "▁الشافعي": 3177,
      "▁الثلاث": 3178,
      "▁رَبِّ": 3179,
      "▁بمن": 3180,
      "▁إليها": 3181,
      "▁الوجه": 3182,
      "▁صار": 3183,
      "▁.\"": 3184,
      "فو": 3185,
      "َةِ:": 3186,
      "ى.": 3187,
      "ائم": 3188,
      "▁كله": 3189,
      "▁\n٩": 3190,
      "▁نصر": 3191,
      "▁فَقَدْ": 3192,
      "▁انت": 3193,
      "▁طلب": 3194,
      "ِيس": 3195,
      "▁ذَكَر": 3196,
      "جمع": 3197,
      "▁٦/": 3198,
      "▁واحدة": 3199,
      "وجود": 3200,
      "▁(ح": 3201,
      "َادُ": 3202,
      "أتي": 3203,
      "ْبُ": 3204,
      "واد": 3205,
      "▁مذهب": 3206,
      "▁شَيْءٍ": 3207,
      "▁الفضل": 3208,
      "▁الفتح": 3209,
      "▁الخبر": 3210,
      "▁مُق": 3211,
      "▁تَص": 3212,
      "وقف": 3213,
      "اني،": 3214,
      "▁مُص": 3215,
      "▁أَوِ": 3216,
      "راض": 3217,
      "ك.": 3218,
      "ائد": 3219,
      "َّرَ": 3220,
      "ق.": 3221,
      "بى": 3222,
      "▁للن": 3223,
      "لوا": 3224,
      "ِيز": 3225,
      "▁لَكُمْ": 3226,
      "ُهُمَا": 3227,
      "▁بِي": 3228,
      "▁يأتي": 3229,
      "▁عامر": 3230,
      "▁\nوَل": 3231,
      "نا:": 3232,
      "▁سَو": 3233,
      "▁النَّبِيُّ": 3234,
      "▁اللَّي": 3235,
      "▁أيام": 3236,
      "بياء": 3237,
      "▁يدي": 3238,
      "هِد": 3239,
      "لطان": 3240,
      "▁سقط": 3241,
      "▁القيامة": 3242,
      "٢٣": 3243,
      "▁عَق": 3244,
      "١٥": 3245,
      "▁فَج": 3246,
      "▁عُبَيْد": 3247,
      "▁وَو": 3248,
      "ؤال": 3249,
      "▁فد": 3250,
      "▁النفس": 3251,
      "▁المقد": 3252,
      "هَذَا": 3253,
      "----": 3254,
      "▁قَال:": 3255,
      "▁مكة": 3256,
      "مائة": 3257,
      "▁أَيْضًا": 3258,
      "▁أَبَا": 3259,
      "▁(٩": 3260,
      "يدة": 3261,
      "ياة": 3262,
      "َلِّي": 3263,
      "وا:": 3264,
      "▁بعده": 3265,
      "▁ضرب": 3266,
      "▁=": 3267,
      "▁سواء": 3268,
      "▁الكتب": 3269,
      "▁الْمُن": 3270,
      "قرأ": 3271,
      "▁لِمَا": 3272,
      "لات": 3273,
      "٢٤": 3274,
      "▁ساق": 3275,
      "▁(٥)": 3276,
      "َائِش": 3277,
      "▁التح": 3278,
      "▁النَّاسِ": 3279,
      "▁أَبِيهِ": 3280,
      "▁لأنها": 3281,
      "▁قالوا:": 3282,
      "▁العمل": 3283,
      "ِض": 3284,
      "▁خَيْر": 3285,
      "▁ثَنَا": 3286,
      "ُوق": 3287,
      "▁النَّبِيَّ": 3288,
      "▁عاص": 3289,
      "٢٥": 3290,
      "ياس": 3291,
      "َعَلَّ": 3292,
      "▁المصنف": 3293,
      "▁تغ": 3294,
      "ْعُ": 3295,
      "هام": 3296,
      "▁اللغة": 3297,
      "▁القب": 3298,
      "ِيلُ": 3299,
      "َلْز": 3300,
      "▁النُّ": 3301,
      "▁اللفظ": 3302,
      "▁منهما": 3303,
      "▁الثانية": 3304,
      "١٦": 3305,
      "▁الْقُرْ": 3306,
      "▁المرأة": 3307,
      "ْمَ": 3308,
      "▁حاج": 3309,
      "▁أَهْلِ": 3310,
      "▁الْمُر": 3311,
      "جموع": 3312,
      "▁آدم": 3313,
      "▁قلب": 3314,
      "يده": 3315,
      "▁لإ": 3316,
      "▁الْوَل": 3317,
      "▁مُحَمَّدِ": 3318,
      "تر": 3319,
      "▁آمَن": 3320,
      "▁يو": 3321,
      "١٧": 3322,
      "▁مُسْت": 3323,
      "▁العباس": 3324,
      "جملة": 3325,
      "هى": 3326,
      "١٨": 3327,
      "▁كأن": 3328,
      "▁الْعَق": 3329,
      "ِينَ}": 3330,
      "▁إما": 3331,
      "▁ماجه": 3332,
      "اعر": 3333,
      "▁إخ": 3334,
      "▁وَلا": 3335,
      "لوك": 3336,
      "رة:": 3337,
      "لح": 3338,
      "▁جماعة": 3339,
      "▁وَلَك": 3340,
      "▁وَإ": 3341,
      "▁خَال": 3342,
      "سمى": 3343,
      "▁وَالتَّ": 3344,
      "ُواْ": 3345,
      "▁فيكون": 3346,
      "فرق": 3347,
      "▁خص": 3348,
      "▁فار": 3349,
      "▁مب": 3350,
      "▁كِت": 3351,
      "▁خاص": 3352,
      "برى": 3353,
      "َارِث": 3354,
      "كار": 3355,
      "زع": 3356,
      "ْهَا": 3357,
      "▁الْمُسْلِم": 3358,
      "▁تر": 3359,
      "▁سُلَيْ": 3360,
      "ارب": 3361,
      "ارف": 3362,
      "▁عما": 3363,
      "▁الزَّو": 3364,
      "ائدة": 3365,
      "ُودِ": 3366,
      "▁للع": 3367,
      "ُغ": 3368,
      "▁\n(٧)": 3369,
      "▁سُفْي": 3370,
      "▁نعيم": 3371,
      "ا:": 3372,
      "▁الأز": 3373,
      "بية": 3374,
      "▁بالس": 3375,
      "▁سبق": 3376,
      "▁كفر": 3377,
      "▁«١»": 3378,
      "▁يُج": 3379,
      "ِيٌّ": 3380,
      "▁وصح": 3381,
      "َدْخ": 3382,
      "▁وَش": 3383,
      "ِدَ": 3384,
      "▁عاب": 3385,
      "▁بِر": 3386,
      "▁بِد": 3387,
      "▁\nث": 3388,
      "نون": 3389,
      "َةً،": 3390,
      "٢٦": 3391,
      "فات": 3392,
      "▁وَأَمَّا": 3393,
      "▁القوم": 3394,
      "تبع": 3395,
      "▁فَع": 3396,
      "▁الصحابة": 3397,
      "▁والمع": 3398,
      "▁ظهر": 3399,
      "ِحُّ": 3400,
      "▁الزبير": 3401,
      "جي": 3402,
      "َيْنَا": 3403,
      "ُوط": 3404,
      "تبار": 3405,
      "ِينِ": 3406,
      "▁الشمس": 3407,
      "ِهِمَا": 3408,
      "بيان": 3409,
      "٢٨": 3410,
      "▁مرفوع": 3411,
      "▁سَمِعْتُ": 3412,
      "▁انتهى.": 3413,
      "▁ثبت": 3414,
      "▁الدُّن": 3415,
      "▁أَحْمَدُ": 3416,
      "قين": 3417,
      "٢٧": 3418,
      "نّ": 3419,
      "▁سلمة": 3420,
      "▁قام": 3421,
      "▁وجود": 3422,
      "▁حَدَّثَنِي": 3423,
      "َةٍ،": 3424,
      "▁مَق": 3425,
      "ْتَق": 3426,
      "▁لأَِنَّهُ": 3427,
      "▁\nوا": 3428,
      "▁الْمَرْ": 3429,
      "▁هـ)": 3430,
      "▁مِثْل": 3431,
      "َاقِ": 3432,
      "▁والز": 3433,
      "▁(ق": 3434,
      "ريك": 3435,
      "▁بِإِ": 3436,
      "جلس": 3437,
      "▁بأنه": 3438,
      "▁ومحمد": 3439,
      "▁كَثِير": 3440,
      "يد،": 3441,
      "▁ففي": 3442,
      "▁٤٣": 3443,
      "▁يلزم": 3444,
      "▁\"إن": 3445,
      "▁-ر": 3446,
      "▁اتَّ": 3447,
      "ِهَا،": 3448,
      "اء.": 3449,
      "▁أعلم.": 3450,
      "▁اللّه": 3451,
      "▁معاوية": 3452,
      "▁شَرْ": 3453,
      "▁وأحمد": 3454,
      "▁§": 3455,
      "َ.": 3456,
      "▁أخرج": 3457,
      "▁الصد": 3458,
      "▁رأى": 3459,
      "▁قيس": 3460,
      "▁وَقَال": 3461,
      "▁حدثني": 3462,
      "لالة": 3463,
      "▁قا": 3464,
      "بغي": 3465,
      "▁وكانت": 3466,
      "ُوص": 3467,
      "خط": 3468,
      "▁إحد": 3469,
      "ْتُ:": 3470,
      "▁قَل": 3471,
      "ِلَاف": 3472,
      "▁حَيْثُ": 3473,
      "ِلِ": 3474,
      "▁إله": 3475,
      "▁مَر": 3476,
      "▁منه،": 3477,
      "ُثْم": 3478,
      "▁تست": 3479,
      "▁لأبي": 3480,
      "▁سَن": 3481,
      "قف": 3482,
      "هري": 3483,
      "▁جملة": 3484,
      "رش": 3485,
      "▁طب": 3486,
      "▁طالب": 3487,
      "جماع": 3488,
      "▁الموت": 3489,
      "▁فأن": 3490,
      "▁\"\"": 3491,
      "▁التأ": 3492,
      "▁كلها": 3493,
      "٢٩": 3494,
      "▁مقد": 3495,
      "بعض": 3496,
      "▁نف": 3497,
      "ِمَا": 3498,
      "وذ": 3499,
      "▁والغ": 3500,
      "اشية": 3501,
      "َرَب": 3502,
      "▁زاد": 3503,
      "▁دليل": 3504,
      "▁الشام": 3505,
      "▁اهـ.": 3506,
      "سنة": 3507,
      "▁عَائِش": 3508,
      "▁أرض": 3509,
      "▁مُر": 3510,
      "َوْلَى": 3511,
      "▁والتع": 3512,
      "▁لِع": 3513,
      "▁التن": 3514,
      "▁وَإِنَّمَا": 3515,
      "ابه": 3516,
      "▁زيادة": 3517,
      "▁الله.": 3518,
      "▁إِنَّمَا": 3519,
      "َقَّ": 3520,
      "▁يعقوب": 3521,
      "له.": 3522,
      "▁يصل": 3523,
      "▁٤٤": 3524,
      "ِيدِ": 3525,
      "▁مغ": 3526,
      "▁زَيْد": 3527,
      "▁فَعَل": 3528,
      "▁وَالْق": 3529,
      "▁الحي": 3530,
      "▁\nالأ": 3531,
      "▁بغداد": 3532,
      "▁فَص": 3533,
      "▁السَّمَا": 3534,
      "نية": 3535,
      "▁يُخ": 3536,
      "▁إِلَيْ": 3537,
      "ِمَهُ": 3538,
      "▁الحر": 3539,
      "▁\"لا": 3540,
      "ًا:": 3541,
      "▁اليهود": 3542,
      "▁أنفس": 3543,
      "▁عي": 3544,
      "▁إِذْ": 3545,
      "منع": 3546,
      "▁الرزاق": 3547,
      "▁شُع": 3548,
      "ُرَيْ": 3549,
      "▁الطبري": 3550,
      "▁تَت": 3551,
      "وها": 3552,
      "▁فَلَمْ": 3553,
      "عدة": 3554,
      "▁٤٥": 3555,
      "خير": 3556,
      "ختصر": 3557,
      "ون.": 3558,
      "▁الْكِت": 3559,
      "▁العين": 3560,
      "▁وَذَلِكَ": 3561,
      "َوْف": 3562,
      "▁أَد": 3563,
      "هادة": 3564,
      "▁منصور": 3565,
      "عض": 3566,
      "▁بضم": 3567,
      "▁يرد": 3568,
      "▁بلفظ": 3569,
      "قصود": 3570,
      "َقِّ": 3571,
      "▁تَم": 3572,
      "َحْم": 3573,
      "▁تقدير": 3574,
      "▁وتعالى": 3575,
      "▁بَكْرٍ": 3576,
      "▁نبي": 3577,
      "بتدأ": 3578,
      "اء:": 3579,
      "▁يدخل": 3580,
      "ٍ}": 3581,
      "▁أَمْر": 3582,
      "ُوبِ": 3583,
      "▁أط": 3584,
      "ُولِ": 3585,
      "▁رجال": 3586,
      "ورا": 3587,
      "▁عاد": 3588,
      "َاءً": 3589,
      "▁حنيفة": 3590,
      "▁القت": 3591,
      "ِي،": 3592,
      "ِّد": 3593,
      "جا": 3594,
      "َيْنِ،": 3595,
      "▁التهذيب": 3596,
      "وائد": 3597,
      "شار": 3598,
      "▁امْرَأ": 3599,
      "▁ليست": 3600,
      "ناً": 3601,
      "▁يُب": 3602,
      "▁مَج": 3603,
      "بارك": 3604,
      "▁دَاو": 3605,
      "▁للح": 3606,
      "▁قَوْله": 3607,
      "▁الحد": 3608,
      "زيد": 3609,
      "▁شك": 3610,
      "▁نزل": 3611,
      "ديل": 3612,
      "▁يَل": 3613,
      "▁وثلاث": 3614,
      "▁فاست": 3615,
      "▁وَد": 3616,
      "▁عليك": 3617,
      "▁تط": 3618,
      "▁نظ": 3619,
      "▁يَعْنِي": 3620,
      "ْرَةِ": 3621,
      "▁وأنه": 3622,
      "▁نافع": 3623,
      "▁الذه": 3624,
      "▁المذكور": 3625,
      "▁غَيْرُ": 3626,
      "▁الْقِي": 3627,
      "َقَدْ": 3628,
      "ْلا": 3629,
      "ِّم": 3630,
      "نين": 3631,
      "ُوسُف": 3632,
      "▁اختلف": 3633,
      "شيخ": 3634,
      "▁حَال": 3635,
      "▁مُج": 3636,
      "▁شهر": 3637,
      "ّل": 3638,
      "▁الشع": 3639,
      "▁أولى": 3640,
      "▁كلا": 3641,
      "▁الحم": 3642,
      "▁بِت": 3643,
      "▁الخلق": 3644,
      "فن": 3645,
      "▁رَوَاهُ": 3646,
      "▁(ل": 3647,
      "▁توفي": 3648,
      "م:": 3649,
      "َنُ": 3650,
      "كِ": 3651,
      "َّال": 3652,
      "َعْم": 3653,
      "ْتَد": 3654,
      "▁عليه.": 3655,
      "▁الألف": 3656,
      "▁صَد": 3657,
      "▁غَيْرَ": 3658,
      "▁فهي": 3659,
      "ةً": 3660,
      "▁امرأة": 3661,
      "▁وغيره": 3662,
      "▁قتادة": 3663,
      "▁الصَّلَاة": 3664,
      "ُوح": 3665,
      "قطني": 3666,
      "▁القص": 3667,
      "يق": 3668,
      "▁قريش": 3669,
      "▁فَض": 3670,
      "ٌ}": 3671,
      "▁الْآي": 3672,
      "ْرِف": 3673,
      "ــــــــــــ": 3674,
      "▁{ي": 3675,
      "▁حدّ": 3676,
      "بس": 3677,
      "ْتَب": 3678,
      "٣٣": 3679,
      "▁النَّار": 3680,
      "مْس": 3681,
      "▁عدي": 3682,
      "َاعِ": 3683,
      "َرَف": 3684,
      "▁سبب": 3685,
      "▁\nوَ": 3686,
      "ثرة": 3687,
      "▁\nوَقَال": 3688,
      "▁جَاءَ": 3689,
      "هنا": 3690,
      "َةٌ،": 3691,
      "▁الرّ": 3692,
      "▁ذي": 3693,
      "▁(٥/": 3694,
      "نان": 3695,
      "َرْف": 3696,
      "ائه": 3697,
      "▁لكل": 3698,
      "لامة": 3699,
      "بعث": 3700,
      "▁اد": 3701,
      "▁وَالنَّ": 3702,
      "▁فهذا": 3703,
      "▁مَو": 3704,
      "▁ابنُ": 3705,
      "ْوَى": 3706,
      "▁اقت": 3707,
      "▁جواب": 3708,
      "سورة": 3709,
      "ضمن": 3710,
      "وا،": 3711,
      "َعْر": 3712,
      "▁بِالْح": 3713,
      "▁لسان": 3714,
      "▁جل": 3715,
      "▁دَاوُد": 3716,
      "▁(ك": 3717,
      "▁متعلق": 3718,
      "ثبات": 3719,
      "▁مرة": 3720,
      "▁قطع": 3721,
      "حاشية": 3722,
      "ليف": 3723,
      "▁إسناده": 3724,
      "▁حج": 3725,
      "▁آمن": 3726,
      "شهد": 3727,
      "واع": 3728,
      "▁اللَّهِ،": 3729,
      "َلَهُ": 3730,
      "ْء": 3731,
      "▁إني": 3732,
      "▁الْآخ": 3733,
      "َّةٍ": 3734,
      "قيه": 3735,
      "▁بأس": 3736,
      "َرُوا": 3737,
      "▁[٣].": 3738,
      "▁الزَّوْج": 3739,
      "▁فص": 3740,
      "ِّح": 3741,
      "ــــــــــــــــــــــــــــ": 3742,
      "ورد": 3743,
      "ُورِ": 3744,
      "▁فم": 3745,
      "▁يُف": 3746,
      "▁أَكْث": 3747,
      "ْتَه": 3748,
      "▁كَأ": 3749,
      "َة،": 3750,
      "▁كبير": 3751,
      "▁النص": 3752,
      "ضب": 3753,
      "سع": 3754,
      "▁\"من": 3755,
      "سك": 3756,
      "▁أسلم": 3757,
      "▁(ر": 3758,
      "▁\nفإن": 3759,
      "ِيلَ:": 3760,
      "▁عَام": 3761,
      "▁صَحِيح": 3762,
      "▁وَإِذَا": 3763,
      "▁كَانُوا": 3764,
      "ِلْم": 3765,
      "ِفُ": 3766,
      "▁٧/": 3767,
      "▁\n١٠": 3768,
      "٢/": 3769,
      "ُوت": 3770,
      "َاث": 3771,
      "▁بقوله:": 3772,
      "▁والسلام": 3773,
      "▁(١٠": 3774,
      "▁يُك": 3775,
      "▁«§": 3776,
      "▁الدُّنْيَا": 3777,
      "▁حاشية": 3778,
      "ارع": 3779,
      "▁مم": 3780,
      "▁عليكم": 3781,
      "▁يُوسُف": 3782,
      "▁للإ": 3783,
      "▁بَق": 3784,
      "▁وقرأ": 3785,
      "▁تَخ": 3786,
      "▁معناه": 3787,
      "▁الهد": 3788,
      "َعْل": 3789,
      "▁مُب": 3790,
      "▁كَذَا": 3791,
      "▁الكفر": 3792,
      "▁مطلق": 3793,
      "▁وَالْ": 3794,
      "▁عَنهُ": 3795,
      "ُلُّ": 3796,
      "▁مُس": 3797,
      "▁وَبِ": 3798,
      "▁أمير": 3799,
      "تهذيب": 3800,
      "▁عَنْهَا": 3801,
      "َيْتُ": 3802,
      "▁ويح": 3803,
      "▁عُر": 3804,
      "▁باع": 3805,
      "▁وإلا": 3806,
      "▁بِب": 3807,
      "▁المعت": 3808,
      "َّهُ": 3809,
      "▁العام": 3810,
      "▁الكريم": 3811,
      "▁الوليد": 3812,
      "▁بَد": 3813,
      "▁أُخ": 3814,
      "هَار": 3815,
      "▁الآخرة": 3816,
      "▁البيه": 3817,
      "▁وهذه": 3818,
      "▁عليّ": 3819,
      "▁\nوكان": 3820,
      "▁آيات": 3821,
      "فاع": 3822,
      "٣٤": 3823,
      "▁وأع": 3824,
      "▁حص": 3825,
      "▁الخير": 3826,
      "قبل": 3827,
      "▁عَط": 3828,
      "مشق": 3829,
      "▁الْكَل": 3830,
      "فيف": 3831,
      "ائب": 3832,
      "ُرُ": 3833,
      "َوْا": 3834,
      "▁أَرْبَع": 3835,
      "▁حِينَ": 3836,
      "قض": 3837,
      "▁قَر": 3838,
      "▁\n.": 3839,
      "ومة": 3840,
      "▁لذلك": 3841,
      "▁ومنه": 3842,
      "رَّ": 3843,
      "▁٤٦": 3844,
      "▁وَط": 3845,
      "َهْد": 3846,
      "▁الْأَوَّل": 3847,
      "ثناء": 3848,
      "▁الله:": 3849,
      "رّ": 3850,
      "▁\nوعن": 3851,
      "َّاع": 3852,
      "▁لغ": 3853,
      "▁جار": 3854,
      "▁يَض": 3855,
      "وين": 3856,
      "▁لِت": 3857,
      "ختص": 3858,
      "▁الْحَج": 3859,
      "▁أحسن": 3860,
      "▁فقط": 3861,
      "ِّ،": 3862,
      "▁دَخ": 3863,
      "▁ترى": 3864,
      "▁بيع": 3865,
      "▁وَز": 3866,
      "اظ": 3867,
      "▁مفعول": 3868,
      "َفِ": 3869,
      "▁وروى": 3870,
      "َيْم": 3871,
      "▁وَسلم": 3872,
      "ُوِيَ": 3873,
      "▁\nــــــــــــــــــــــــــــ": 3874,
      "▁بعث": 3875,
      "َاتُ": 3876,
      "٣٥": 3877,
      "▁فيهم": 3878,
      "يل،": 3879,
      "انب": 3880,
      "▁ويت": 3881,
      "▁فَن": 3882,
      "▁وَأَبُو": 3883,
      "▁«٢": 3884,
      "َاوِي": 3885,
      "اي": 3886,
      "▁ثَم": 3887,
      "▁سم": 3888,
      "▁رأس": 3889,
      "▁النسائي": 3890,
      "▁يقع": 3891,
      "▁الحاج": 3892,
      "ّن": 3893,
      "فقه": 3894,
      "▁أَنَا": 3895,
      "▁الظاهر": 3896,
      "▁في:": 3897,
      "▁عِب": 3898,
      "▁فهم": 3899,
      "▁إِبْرَاهِيمَ": 3900,
      "▁نَب": 3901,
      "▁الذهبي": 3902,
      "▁الدِّين": 3903,
      "▁\nـــــــــــــــــــــــــــــ": 3904,
      "▁عُثْم": 3905,
      "▁مجاهد": 3906,
      "▁حدَّ": 3907,
      "▁الواو": 3908,
      "▁الْه": 3909,
      "هذه": 3910,
      "▁تف": 3911,
      "٣٠": 3912,
      "▁قراءة": 3913,
      "▁أَوَّل": 3914,
      "▁عظيم": 3915,
      "▁هُنَا": 3916,
      "ِلْكَ": 3917,
      "▁وانظر": 3918,
      "ما،": 3919,
      "▁ويع": 3920,
      "▁قَط": 3921,
      "▁وَكَذَا": 3922,
      "▁والنسائي": 3923,
      "بيهقي": 3924,
      "أس": 3925,
      "انا": 3926,
      "▁زياد": 3927,
      "بيعة": 3928,
      "ْتَر": 3929,
      "َحَ": 3930,
      "▁هكذا": 3931,
      "ِينَ،": 3932,
      "▁مُحَمَّدٍ": 3933,
      "▁وَأَنَّ": 3934,
      "▁حَم": 3935,
      "▁وَالْب": 3936,
      "▁تَنْ": 3937,
      "▁الزوج": 3938,
      "َتْ:": 3939,
      "كرم": 3940,
      "▁بِذَلِكَ": 3941,
      "▁المعروف": 3942,
      "▁الْمُؤْمِن": 3943,
      "ْتَض": 3944,
      "▁خز": 3945,
      "▁بخلاف": 3946,
      "▁عنه:": 3947,
      "ْصِيل": 3948,
      "▁بِنَ": 3949,
      "▁روي": 3950,
      "▁بِالْع": 3951,
      "ٍ)": 3952,
      "قَوْلِهِ": 3953,
      "▁العذاب": 3954,
      "▁يونس": 3955,
      "▁أربعة": 3956,
      "▁فضل": 3957,
      "▁أغ": 3958,
      "▁\"ع": 3959,
      "▁وَذ": 3960,
      "ْرُج": 3961,
      "ارض": 3962,
      "▁وَلَيْسَ": 3963,
      "٣٦": 3964,
      "▁حميد": 3965,
      "▁أحب": 3966,
      "▁حَد": 3967,
      "َتَ": 3968,
      "ناية": 3969,
      "ارك": 3970,
      "َوَاز": 3971,
      "قة،": 3972,
      "َلَفَ": 3973,
      "وني": 3974,
      "▁أل": 3975,
      "١/": 3976,
      "▁٨/": 3977,
      "▁\"ك": 3978,
      "فعال": 3979,
      "َالِح": 3980,
      "راط": 3981,
      "▁٤٧": 3982,
      "▁مَاتَ": 3983,
      "▁فَإِن": 3984,
      "▁عَبَّاسٍ": 3985,
      "فسه": 3986,
      "اوي": 3987,
      "حوال": 3988,
      "عث": 3989,
      "▁تقول": 3990,
      "َوْن": 3991,
      "زوج": 3992,
      "▁\nوقوله": 3993,
      "▁كعب": 3994,
      "بيت": 3995,
      "▁الطريق": 3996,
      "▁كُلُّ": 3997,
      "ارج": 3998,
      "▁السب": 3999,
      "▁جاز": 4000,
      "باط": 4001,
      "▁شيئا": 4002,
      "ْطَل": 4003,
      "▁تب": 4004,
      "وعة": 4005,
      "▁ليلة": 4006,
      "▁يعت": 4007,
      "▁وَإِن": 4008,
      "▁إليهم": 4009,
      "▁وَالص": 4010,
      "باء": 4011,
      "▁\nإن": 4012,
      "▁النج": 4013,
      "صاف": 4014,
      "▁الملائكة": 4015,
      "▁وعشر": 4016,
      "▁كلمة": 4017,
      "صاري": 4018,
      "▁اللي": 4019,
      "▁نصب": 4020,
      "ِيًّا": 4021,
      "▁طل": 4022,
      "ِكْر": 4023,
      "▁الحن": 4024,
      "▁سنن": 4025,
      "▁أَنَس": 4026,
      "▁البيهقي": 4027,
      "ونة": 4028,
      "راع": 4029,
      "ُنَا": 4030,
      "▁\nالث": 4031,
      "▁[٧]": 4032,
      "▁الطب": 4033,
      "▁أبد": 4034,
      "▁\nوأخرجه": 4035,
      "َذَ": 4036,
      "▁\n«": 4037,
      "▁{ال": 4038,
      "▁فَا": 4039,
      "▁بقي": 4040,
      "▁الفقه": 4041,
      "▁\nن": 4042,
      "▁عهد": 4043,
      "▁نصف": 4044,
      "▁لغير": 4045,
      "م.": 4046,
      "قتل": 4047,
      "▁يفعل": 4048,
      "▁شَيْئًا": 4049,
      "هِر": 4050,
      "▁وَث": 4051,
      "▁بالص": 4052,
      "حديث": 4053,
      "▁لِلَّهِ": 4054,
      "▁باط": 4055,
      "▁زَوْج": 4056,
      "صبح": 4057,
      "ألت": 4058,
      "▁\"ل": 4059,
      "شري": 4060,
      "٣٧": 4061,
      "ُوعِ": 4062,
      "▁أَنه": 4063,
      "▁سير": 4064,
      "▁علينا": 4065,
      "▁الْأَص": 4066,
      "▁أَمَّا": 4067,
      "هدي": 4068,
      "كلم": 4069,
      "ُدَّ": 4070,
      "▁بِالْق": 4071,
      "▁عرو": 4072,
      "فُس": 4073,
      "▁عذاب": 4074,
      "▁الأصل:": 4075,
      "َطَ": 4076,
      "اتب": 4077,
      "▁واع": 4078,
      "▁شيبة": 4079,
      "▁جهة": 4080,
      "▁الصالح": 4081,
      "َانٍ": 4082,
      "▁أَنَّهَا": 4083,
      "▁رؤ": 4084,
      "رع": 4085,
      "▁وَجْه": 4086,
      "ثنى": 4087,
      "▁مولى": 4088,
      "فصل": 4089,
      "َرَجَ": 4090,
      "▁ماء": 4091,
      "▁أَحْمَدَ": 4092,
      "قدمت": 4093,
      "ئمة": 4094,
      "▁إليه،": 4095,
      "َنْص": 4096,
      "▁كُلَّ": 4097,
      "وفى": 4098,
      "▁إع": 4099,
      "▁\nابن": 4100,
      "▁أُ": 4101,
      "طلاق": 4102,
      "▁أَرْ": 4103,
      "▁الْمَو": 4104,
      "▁\nوإن": 4105,
      "▁شعر": 4106,
      "َّق": 4107,
      "وخ": 4108,
      "▁نَف": 4109,
      "▁ترجمة": 4110,
      "▁وهب": 4111,
      "▁ولما": 4112,
      "▁٤٨": 4113,
      "▁فَلْي": 4114,
      "ديق": 4115,
      "▁عَلَيْهِ،": 4116,
      "-:": 4117,
      "▁الْمُسْت": 4118,
      "ِلَّ": 4119,
      "▁قَض": 4120,
      "ُولُ": 4121,
      "▁الْحَسَن": 4122,
      "▁الْقَاضِي": 4123,
      "ف،": 4124,
      "▁\".\"": 4125,
      "فيد": 4126,
      "سباب": 4127,
      "▁وأنا": 4128,
      "▁وَالْمُ": 4129,
      "ِرْ": 4130,
      "امت": 4131,
      "▁راج": 4132,
      "▁أَيْ:": 4133,
      "▁آي": 4134,
      "▁آمَنُوا": 4135,
      "▁وض": 4136,
      "▁بدر": 4137,
      "٣٨": 4138,
      "▁المنذر": 4139,
      "▁عابدين": 4140,
      "ُّ،": 4141,
      "٤٠": 4142,
      "هما،": 4143,
      "َدِينَ": 4144,
      "▁ابْنَ": 4145,
      "▁بَنِي": 4146,
      "ئل": 4147,
      "▁فليس": 4148,
      "▁ضمير": 4149,
      "ول،": 4150,
      "▁العربية": 4151,
      "▁الحديث.": 4152,
      "▁نقل": 4153,
      "▁الوقت": 4154,
      "غر": 4155,
      "▁المو": 4156,
      "كم،": 4157,
      "▁سَلَم": 4158,
      "▁التَّو": 4159,
      "َلْق": 4160,
      "٣٩": 4161,
      "▁إِسْمَاع": 4162,
      "َكُونُ": 4163,
      "َوَى": 4164,
      "َاهِد": 4165,
      "▁بِأَنْ": 4166,
      "سنده": 4167,
      "▁\nوَم": 4168,
      "َوْنَ": 4169,
      "▁وخمس": 4170,
      "▁الموا": 4171,
      "▁\nوقوله:": 4172,
      "حسن": 4173,
      "▁٤٩": 4174,
      "▁الصَّحِيح": 4175,
      "▁حَر": 4176,
      "▁حَب": 4177,
      "سام": 4178,
      "َعْضِ": 4179,
      "▁قبله": 4180,
      "َتْهُ": 4181,
      "▁مصدر": 4182,
      "ائق": 4183,
      "▁\nوم": 4184,
      "▁احت": 4185,
      "َتَهُ": 4186,
      "▁بكسر": 4187,
      "▁المسألة": 4188,
      "صي": 4189,
      "▁نزلت": 4190,
      "▁يدع": 4191,
      "▁تحقيق": 4192,
      "▁أعط": 4193,
      "▁الْأَرْضِ": 4194,
      "▁يسمع": 4195,
      "▁الْمُص": 4196,
      "هير": 4197,
      "▁كف": 4198,
      "▁فَمَا": 4199,
      "▁«و": 4200,
      "▁وفتح": 4201,
      "▁بِغَيْرِ": 4202,
      "َدَّمَ": 4203,
      "▁التَّع": 4204,
      "ويه": 4205,
      "▁بها،": 4206,
      "▁العم": 4207,
      "▁قالت:": 4208,
      "▁٤٢": 4209,
      "▁رمض": 4210,
      "▁هُرَيْرَةَ": 4211,
      "شياء": 4212,
      "▁الصغير": 4213,
      "بارة": 4214,
      "▁الأنبياء": 4215,
      "▁الأمة": 4216,
      "كري": 4217,
      "زار": 4218,
      "▁الكمال": 4219,
      "▁وست": 4220,
      "ائز": 4221,
      "▁الكافر": 4222,
      "▁شَاءَ": 4223,
      "▁هناك": 4224,
      "▁والترمذي": 4225,
      "▁حَدِيثِ": 4226,
      "دري": 4227,
      "▁مجر": 4228,
      "▁أفضل": 4229,
      "▁«٢»": 4230,
      "▁والاست": 4231,
      "▁عَزَّ": 4232,
      "َائِل": 4233,
      "فسر": 4234,
      "▁الْقَوْل": 4235,
      "لث": 4236,
      "▁حَج": 4237,
      "▁المشرك": 4238,
      "ْمَع": 4239,
      "▁وَالْج": 4240,
      "▁الطبراني": 4241,
      "حيم": 4242,
      "َيْفَ": 4243,
      "قى": 4244,
      "َخْ": 4245,
      "▁فَب": 4246,
      "ْيِ": 4247,
      "▁النبو": 4248,
      "طبي": 4249,
      "ْخُذ": 4250,
      "ِيَةِ": 4251,
      "زق": 4252,
      "ِّق": 4253,
      "▁الرَّجُل": 4254,
      "▁لر": 4255,
      "انى": 4256,
      "▁اللُّ": 4257,
      "ِلَافِ": 4258,
      "طْلَق": 4259,
      "طوف": 4260,
      "تداء": 4261,
      "ِرَاء": 4262,
      "▁بدل": 4263,
      "▁ذات": 4264,
      "▁إِنِّي": 4265,
      "َّذِينَ": 4266,
      "ِفَ": 4267,
      "▁(٦/": 4268,
      "▁\"ي": 4269,
      "▁الكفار": 4270,
      "فضل": 4271,
      "▁كأنه": 4272,
      "وسط": 4273,
      "هَا،": 4274,
      "جود": 4275,
      "▁القناع": 4276,
      "▁جواز": 4277,
      "▁يَجِبُ": 4278,
      "حيط": 4279,
      "▁بعدها": 4280,
      "الت": 4281,
      "▁مُد": 4282,
      "▁دِين": 4283,
      "آل": 4284,
      "▁فاع": 4285,
      "▁رَجُلٌ": 4286,
      "ُّونَ": 4287,
      "▁فَح": 4288,
      "▁بالر": 4289,
      "َيِّنَ": 4290,
      "ذان": 4291,
      "ْفُ": 4292,
      "وام": 4293,
      "▁حا": 4294,
      "َهْل": 4295,
      "َفْظ": 4296,
      "▁فلو": 4297,
      "▁الجاه": 4298,
      "زن": 4299,
      "▁أيوب": 4300,
      "ابل": 4301,
      "▁يرى": 4302,
      "الِث": 4303,
      "▁(ج": 4304,
      "▁تَو": 4305,
      "▁وات": 4306,
      "ِّس": 4307,
      "▁كم": 4308,
      "▁نسب": 4309,
      "▁(ي": 4310,
      "▁الْمَش": 4311,
      "ةٌ": 4312,
      "▁المذهب": 4313,
      "ْضِ": 4314,
      "▁الور": 4315,
      "َدَّثَنَا": 4316,
      "ًى": 4317,
      "▁العظيم": 4318,
      "▁إسرائ": 4319,
      "ينه": 4320,
      "▁الشرع": 4321,
      "▁الصلا": 4322,
      "▁سَعْد": 4323,
      "َوَاهُ": 4324,
      "▁القلب": 4325,
      "َّةٌ": 4326,
      "لوم": 4327,
      "▁دَع": 4328,
      "▁نَج": 4329,
      "َّاج": 4330,
      "شر:": 4331,
      "▁فَكَانَ": 4332,
      "▁التك": 4333,
      "ًا)": 4334,
      "ّق": 4335,
      "▁رَك": 4336,
      "▁بسبب": 4337,
      "▁بِهِ،": 4338,
      "َفُ": 4339,
      "▁بِل": 4340,
      "▁فَذ": 4341,
      "▁ينا": 4342,
      "▁لَمَّا": 4343,
      "لاك": 4344,
      "▁عطف": 4345,
      "مَّ": 4346,
      "▁الخر": 4347,
      "▁عَلِيٍّ": 4348,
      "ذل": 4349,
      "كى": 4350,
      "▁شعب": 4351,
      "▁شهد": 4352,
      "▁محذوف": 4353,
      "▁سائر": 4354,
      "ِيدَ": 4355,
      "▁\nعن": 4356,
      "▁عاصم": 4357,
      "▁وَاسْت": 4358,
      "▁والبيهقي": 4359,
      "ِعْل": 4360,
      "▁الْجُم": 4361,
      "َعْب": 4362,
      "َاحِ": 4363,
      "▁٤١": 4364,
      "لَّه": 4365,
      "▁ورس": 4366,
      "▁الْجَنَّ": 4367,
      "وحيد": 4368,
      "▁أز": 4369,
      "▁قلوب": 4370,
      "▁مثله": 4371,
      "▁وَض": 4372,
      "▁وَكَذَلِكَ": 4373,
      "▁السلطان": 4374,
      "َطْل": 4375,
      "٢٢": 4376,
      "▁وعلي": 4377,
      "َادِي": 4378,
      "▁النِّس": 4379,
      "شْرِك": 4380,
      "▁الْوَق": 4381,
      "▁\nوَفِي": 4382,
      "▁\nوت": 4383,
      "▁فرض": 4384,
      "ليفة": 4385,
      "شتري": 4386,
      "▁ذَهَبَ": 4387,
      "اغ": 4388,
      "اره": 4389,
      "ووي": 4390,
      "مسألة": 4391,
      "▁المصدر": 4392,
      "▁الْمَسْج": 4393,
      "▁الْفُقَهَاءُ": 4394,
      "لوه": 4395,
      "▁الشعر": 4396,
      "َاءِ،": 4397,
      "وقع": 4398,
      "َيَّام": 4399,
      "ح،": 4400,
      "▁{ل": 4401,
      "▁وَأَخ": 4402,
      "▁المغني": 4403,
      "▁وفى": 4404,
      "▁مَرْ": 4405,
      "ِذٍ": 4406,
      "▁الْمُق": 4407,
      "غفر": 4408,
      "ِنُ": 4409,
      "َرٍ": 4410,
      "٤٥": 4411,
      "َافِر": 4412,
      "حسان": 4413,
      "▁أحاديث": 4414,
      "▁لَكَ": 4415,
      "تان": 4416,
      "طيع": 4417,
      "▁اللام": 4418,
      "▁\nوهذا": 4419,
      "▁وجوب": 4420,
      "قيم": 4421,
      "▁كَذ": 4422,
      "▁مل": 4423,
      "▁الكبرى": 4424,
      "▁وَعَلَى": 4425,
      "ِيَاد": 4426,
      "سد": 4427,
      "جن": 4428,
      "▁ينت": 4429,
      "َير": 4430,
      "▁الأحكام": 4431,
      "▁\nوك": 4432,
      "َؤ": 4433,
      "ختلاف": 4434,
      "درك": 4435,
      "رر": 4436,
      "▁بَع": 4437,
      "▁الْمُس": 4438,
      "▁جَر": 4439,
      "▁أَث": 4440,
      "ُخَار": 4441,
      "▁وَلِ": 4442,
      "▁السلف": 4443,
      "لّا": 4444,
      "▁الْمَق": 4445,
      "▁المدين": 4446,
      "حاكم": 4447,
      "ُمْهُ": 4448,
      "▁ويد": 4449,
      "▁الشرط": 4450,
      "▁الْخَط": 4451,
      "▁مَعَهُ": 4452,
      "َآ": 4453,
      "▁أثر": 4454,
      "▁كثيرة": 4455,
      "▁لَيْل": 4456,
      "▁الإس": 4457,
      "َانَ،": 4458,
      "▁لقد": 4459,
      "▁إِي": 4460,
      "▁مَش": 4461,
      "▁والمغني": 4462,
      "▁إِلى": 4463,
      "▁الْأَم": 4464,
      "▁صلا": 4465,
      "▁ذَلِكَ،": 4466,
      "▁\nوَي": 4467,
      "َازَ": 4468,
      "▁المشر": 4469,
      "صوب": 4470,
      "▁قَوْلُهُ": 4471,
      "▁دفع": 4472,
      "ضعف": 4473,
      "راس": 4474,
      "٤٦": 4475,
      "٤٨": 4476,
      "▁عنه.": 4477,
      "َنْز": 4478,
      "▁مِنْهُمَا": 4479,
      "▁الْمُد": 4480,
      "▁الْإِمَا": 4481,
      "طق": 4482,
      "▁بهذه": 4483,
      "▁إِنَّهُ": 4484,
      "▁أجل": 4485,
      "▁القسم": 4486,
      "َوْمَ": 4487,
      "▁كَذَلِكَ": 4488,
      "▁أتى": 4489,
      "بن": 4490,
      "▁معنا": 4491,
      "قامة": 4492,
      "َنِيف": 4493,
      "▁كونه": 4494,
      "▁عَلَيْكُمْ": 4495,
      "لي،": 4496,
      "»:": 4497,
      "▁وشرح": 4498,
      "▁الأنصاري": 4499,
      "▁بالش": 4500,
      "▁يَقُولُ": 4501,
      "▁ص:": 4502,
      "▁الحياة": 4503,
      "▁عَذ": 4504,
      "▁شَه": 4505,
      "▁زمان": 4506,
      "▁وَسَلَّمَ،": 4507,
      "▁غريب": 4508,
      "▁مَرَّ": 4509,
      "▁مقام": 4510,
      "▁طَرِي": 4511,
      "▁نَز": 4512,
      "▁البقرة": 4513,
      "▁عرض": 4514,
      "▁وَبَيْنَ": 4515,
      "▁٥٠": 4516,
      "اءِ": 4517,
      "وته": 4518,
      "اؤ": 4519,
      "▁وَعَنْ": 4520,
      "▁وَقَوْل": 4521,
      "٤٧": 4522,
      "رط": 4523,
      "خرى": 4524,
      "▁النظر": 4525,
      "افة": 4526,
      "ية)": 4527,
      "▁لِك": 4528,
      "ظن": 4529,
      "▁العب": 4530,
      "▁الْقَاس": 4531,
      "▁الدي": 4532,
      "▁\nتقدمت": 4533,
      "▁غز": 4534,
      "أت": 4535,
      "▁يُقَال": 4536,
      "▁مَل": 4537,
      "مهور": 4538,
      "▁لج": 4539,
      "ٌ)": 4540,
      "▁الْعَز": 4541,
      "▁اللغ": 4542,
      "ْتُهُ": 4543,
      "▁والذي": 4544,
      "مْك": 4545,
      "مَّا": 4546,
      "َامَةِ": 4547,
      "واج": 4548,
      "▁الهيث": 4549,
      "نات": 4550,
      "▁بِف": 4551,
      "▁عدد": 4552,
      "▁إنّ": 4553,
      "▁عطاء": 4554,
      "▁(س": 4555,
      "▁الْحُك": 4556,
      "▁الْمَرْأ": 4557,
      "▁كلّ": 4558,
      "▁الموص": 4559,
      "َيَّنَ": 4560,
      "▁كقوله": 4561,
      "▁وَاحِدٍ": 4562,
      "ُمْهُور": 4563,
      "▁الأق": 4564,
      "▁\nروى": 4565,
      "٤٩": 4566,
      "كا": 4567,
      "▁نَو": 4568,
      "▁لِمَنْ": 4569,
      "▁هار": 4570,
      "▁ويقال": 4571,
      "▁هـ.": 4572,
      "حيث": 4573,
      "▁يَن": 4574,
      "▁أَعْ": 4575,
      "▁وأخرجه": 4576,
      "▁الذى": 4577,
      "▁\nوع": 4578,
      "▁مائة": 4579,
      "▁الأحاديث": 4580,
      "▁الشاعر": 4581,
      "ْتَف": 4582,
      "َسَنِ": 4583,
      "تن": 4584,
      "▁سهل": 4585,
      "▁وآله": 4586,
      "▁وسلم،": 4587,
      "▁ينبغي": 4588,
      "▁الْجَم": 4589,
      "▁جن": 4590,
      "▁بشيء": 4591,
      "▁وَجَلَّ": 4592,
      "▁\n(٨)": 4593,
      "▁كتابه": 4594,
      "▁حَنِيف": 4595,
      "▁الإسناد": 4596,
      "▁منع": 4597,
      "َلَف": 4598,
      "▁الحديث،": 4599,
      "▁وَنَحْو": 4600,
      "ِقُ": 4601,
      "▁أَحْمَد": 4602,
      "▁أنزل": 4603,
      "▁جزء": 4604,
      "▁خَمْس": 4605,
      "▁الْقُرْآ": 4606,
      "هات": 4607,
      "▁حفص": 4608,
      "ثَّانِي": 4609,
      "▁فكيف": 4610,
      "▁الري": 4611,
      "َّك": 4612,
      "▁المهم": 4613,
      "▁تُ": 4614,
      "دِ": 4615,
      "ياض": 4616,
      "َلَتْ": 4617,
      "ه)": 4618,
      "▁الأب": 4619,
      "▁الذهب": 4620,
      "▁وَغ": 4621,
      "▁طرق": 4622,
      "ّ.": 4623,
      "▁يعني:": 4624,
      "ش،": 4625,
      "ُومُ": 4626,
      "▁اختلاف": 4627,
      "▁وعمر": 4628,
      "▁عمران": 4629,
      "▁يعلى": 4630,
      "غل": 4631,
      "▁آد": 4632,
      "▁الاسم": 4633,
      "شى": 4634,
      "َّف": 4635,
      "▁ثَلا": 4636,
      "▁لِح": 4637,
      "أي": 4638,
      "ونها": 4639,
      "اوى": 4640,
      "▁حَي": 4641,
      "▁وتح": 4642,
      "▁حبيب": 4643,
      "واو": 4644,
      "▁يقتضي": 4645,
      "▁[البق": 4646,
      "كب": 4647,
      "▁حرم": 4648,
      "▁ولذلك": 4649,
      "مَانَ": 4650,
      "▁إحدى": 4651,
      "▁نفي": 4652,
      "▁وجعل": 4653,
      "▁التفسير": 4654,
      "▁مرو": 4655,
      "▁رجلا": 4656,
      "▁أمره": 4657,
      "نج": 4658,
      "▁جَعْفَر": 4659,
      "دة:": 4660,
      "▁الصَّلا": 4661,
      "▁\nان": 4662,
      "▁ظَاهِر": 4663,
      "▁(قَوْلُهُ:": 4664,
      "وم،": 4665,
      "▁هُمْ": 4666,
      "▁سَأ": 4667,
      "دّ": 4668,
      "▁عالم": 4669,
      "▁يَف": 4670,
      "َنَابِل": 4671,
      "▁خطأ": 4672,
      "▁وو": 4673,
      "▁حمل": 4674,
      "▁\nأما": 4675,
      "َيَّن": 4676,
      "▁اللهم": 4677,
      "▁الدَّار": 4678,
      "▁إلَخْ": 4679,
      "▁وبعد": 4680,
      "▁الألب": 4681,
      "▁وقوله:": 4682,
      "ضافة": 4683,
      "▁بث": 4684,
      "▁مَوْض": 4685,
      "ِمٍ": 4686,
      "▁قسم": 4687,
      "▁التاريخ": 4688,
      "▁(٦)": 4689,
      "اعي": 4690,
      "▁دينار": 4691,
      "ُّهْر": 4692,
      "▁عقد": 4693,
      "٣/": 4694,
      "َلِيل": 4695,
      "▁حُر": 4696,
      "َيْف": 4697,
      "▁يجعل": 4698,
      "▁رَم": 4699,
      "▁حماد": 4700,
      "▁عبي": 4701,
      "▁القراء": 4702,
      "▁عص": 4703,
      "▁ورواه": 4704,
      "▁الشيطان": 4705,
      "▁يبق": 4706,
      "َهُمَا": 4707,
      "▁حذف": 4708,
      "▁بالج": 4709,
      "▁الباري": 4710,
      "َبُّ": 4711,
      "▁منا": 4712,
      "ْرًا": 4713,
      "▁قائ": 4714,
      "ْنَى": 4715,
      "وبي": 4716,
      "▁والمراد": 4717,
      "▁البصري": 4718,
      "يمين": 4719,
      "▁الخلاف": 4720,
      "امس": 4721,
      "▁صاح": 4722,
      "▁يأخذ": 4723,
      "▁معرفة": 4724,
      "▁دمشق": 4725,
      "▁رَأْس": 4726,
      "آخ": 4727,
      "حدثنا": 4728,
      "▁ينظر": 4729,
      "▁لس": 4730,
      "▁حفظ": 4731,
      "يب،": 4732,
      "ريعة": 4733,
      "▁للا": 4734,
      "▁الدارقطني": 4735,
      "▁يَلْز": 4736,
      "▁والمعنى": 4737,
      "قاتل": 4738,
      "َهَ": 4739,
      "٥٠": 4740,
      "▁حَك": 4741,
      "▁لأنهم": 4742,
      "▁الْحَنَابِل": 4743,
      "▁لقوله": 4744,
      "ُودُ": 4745,
      "▁أيها": 4746,
      "َقُّ": 4747,
      "▁الصف": 4748,
      "َّاسِ": 4749,
      "▁الكوفي": 4750,
      "▁الترج": 4751,
      "▁بِالتَّ": 4752,
      "▁أنبأ": 4753,
      "▁وعند": 4754,
      "د.": 4755,
      "▁قَص": 4756,
      "َوْمِ": 4757,
      "ُلِّ": 4758,
      "▁«م": 4759,
      "▁الجمعة": 4760,
      "▁يجد": 4761,
      "ِّج": 4762,
      "شك": 4763,
      "▁ولهذا": 4764,
      "شاء": 4765,
      "▁التص": 4766,
      "حْد": 4767,
      "▁النف": 4768,
      "▁فيه.": 4769,
      "▁نَظ": 4770,
      "▁الْمُب": 4771,
      "▁وأخرج": 4772,
      "▁للك": 4773,
      "▁وأربع": 4774,
      "▁-رضي": 4775,
      "▁أَعْلَمُ": 4776,
      "▁الْحُس": 4777,
      "▁النَّاسُ": 4778,
      "▁العقد": 4779,
      "▁الِاسْت": 4780,
      "َّنْ": 4781,
      "▁حقيقة": 4782,
      "▁فب": 4783,
      "▁أَيُّهَا": 4784,
      "َارِي": 4785,
      "▁صَالِح": 4786,
      "ين\"": 4787,
      "لخ": 4788,
      "▁تُر": 4789,
      "▁اص": 4790,
      "▁بَيْنَهُمَا": 4791,
      "▁الشَّيْخ": 4792,
      "َبِي": 4793,
      "َافِع": 4794,
      "▁مكت": 4795,
      "▁يرجع": 4796,
      "▁رَحِمَهُ": 4797,
      "▁رجع": 4798,
      "ريض": 4799,
      "▁وأخ": 4800,
      "▁المز": 4801,
      "▁يَغ": 4802,
      "▁طَال": 4803,
      "ِيرَ": 4804,
      "▁\nأحد": 4805,
      "▁(عن": 4806,
      "بيح": 4807,
      "▁ويجوز": 4808,
      "▁حنبل": 4809,
      "▁البشر": 4810,
      "ذى": 4811,
      "▁الطلاق": 4812,
      "▁وبه": 4813,
      "َرَض": 4814,
      "▁العباد": 4815,
      "وطي": 4816,
      "ينَ": 4817,
      "▁وَلَد": 4818,
      "ناف": 4819,
      "َاجِب": 4820,
      "▁الاح": 4821,
      "ةٍ": 4822,
      "وَض": 4823,
      "َلُّ": 4824,
      "▁الأح": 4825,
      "▁يثبت": 4826,
      "٥٦": 4827,
      "▁نَحْو": 4828,
      "شع": 4829,
      "شم": 4830,
      "▁الطَّ": 4831,
      "غيرة": 4832,
      "▁نَس": 4833,
      "▁والأرض": 4834,
      "▁اق": 4835,
      "▁ذكرنا": 4836,
      "طلع": 4837,
      "▁وَأَن": 4838,
      "▁\nأخرجه": 4839,
      "▁الرجال": 4840,
      "َرُّ": 4841,
      "▁النكاح": 4842,
      "▁تهذيب": 4843,
      "ْتَاج": 4844,
      "▁نَح": 4845,
      "▁مُخ": 4846,
      "طن": 4847,
      "▁له.": 4848,
      "▁حدَّثنا": 4849,
      "َالَةِ": 4850,
      "▁[١]،": 4851,
      "َكَرَ": 4852,
      "▁حَسَن": 4853,
      "▁تَز": 4854,
      "▁أسماء": 4855,
      "▁شأن": 4856,
      "قون": 4857,
      "▁يقوم": 4858,
      "ُبْح": 4859,
      "▁إلَيْهِ": 4860,
      "▁سيد": 4861,
      "▁القيام": 4862,
      "ْرَهُ": 4863,
      "▁فيها،": 4864,
      "▁وأمر": 4865,
      "▁شيئاً": 4866,
      "سخ": 4867,
      "٢١": 4868,
      "▁مسند": 4869,
      "▁الجامع": 4870,
      "َأْس": 4871,
      "▁لص": 4872,
      "تماع": 4873,
      "▁يَصِحُّ": 4874,
      "▁وَالْحَنَابِل": 4875,
      "ِثْل": 4876,
      "▁يده": 4877,
      "يض": 4878,
      "▁{ق": 4879,
      "▁فَخ": 4880,
      "كس": 4881,
      "▁الصّ": 4882,
      "ئك": 4883,
      "َائِد": 4884,
      "▁بِو": 4885,
      "▁العقل": 4886,
      "▁تكن": 4887,
      "▁فات": 4888,
      "▁[البقرة:": 4889,
      "▁البيع": 4890,
      "ثة": 4891,
      "ياط": 4892,
      "▁الدّين": 4893,
      "اً:": 4894,
      "▁آت": 4895,
      "▁يتم": 4896,
      "▁\nد": 4897,
      "▁\nص": 4898,
      "▁البلد": 4899,
      "▁\nوالث": 4900,
      "يم،": 4901,
      "▁الياء": 4902,
      "بره": 4903,
      "▁حجة": 4904,
      "▁المض": 4905,
      "▁الْحَر": 4906,
      "▁\"ب": 4907,
      "▁الجملة": 4908,
      "دب": 4909,
      "▁{وَ": 4910,
      "▁حدّثنا": 4911,
      "▁نِص": 4912,
      "▁يُو": 4913,
      "▁أعمال": 4914,
      "▁ديوان": 4915,
      "▁فرق": 4916,
      "▁قَالُوا:": 4917,
      "▁فاعل": 4918,
      "▁والمن": 4919,
      "٥٧": 4920,
      "▁يظهر": 4921,
      "حياء": 4922,
      "مَام": 4923,
      "▁قصد": 4924,
      "▁فَد": 4925,
      "▁وَالْخ": 4926,
      "▁بلاد": 4927,
      "ياب": 4928,
      "▁الأمور": 4929,
      "ائفة": 4930,
      "نم": 4931,
      "▁وترك": 4932,
      "ث،": 4933,
      "▁أَصْحَاب": 4934,
      "▁وصل": 4935,
      "▁السم": 4936,
      "▁الْمَج": 4937,
      "▁السَّب": 4938,
      "▁وَالْف": 4939,
      "▁الزي": 4940,
      "ِيمٌ": 4941,
      "▁هَلْ": 4942,
      "َثَ": 4943,
      "▁إسرائيل": 4944,
      "ير.": 4945,
      "▁البيان": 4946,
      "٥٨": 4947,
      "▁بينهم": 4948,
      "َامِل": 4949,
      "▁عبادة": 4950,
      "▁الرس": 4951,
      "آية": 4952,
      "انع": 4953,
      "َوْب": 4954,
      "▁نحن": 4955,
      "▁مبتدأ": 4956,
      "▁سَوَاءٌ": 4957,
      "▁ذَكَرَ": 4958,
      "راح": 4959,
      "▁الرواية": 4960,
      "▁المؤلف:": 4961,
      "▁سر": 4962,
      "ظة": 4963,
      "▁جَاء": 4964,
      "▁معين": 4965,
      "اقت": 4966,
      "ْفَ": 4967,
      "دي:": 4968,
      "▁نور": 4969,
      "▁بِج": 4970,
      "▁الحلبي": 4971,
      "إِذا": 4972,
      "▁فَقُل": 4973,
      "طاء": 4974,
      "▁أنْ": 4975,
      "▁اللسان": 4976,
      "▁الناشر:": 4977,
      "دية": 4978,
      "واية": 4979,
      "▁«٣": 4980,
      "▁وأخذ": 4981,
      "▁نوع": 4982,
      "▁أُن": 4983,
      "ائف": 4984,
      "▁وَالر": 4985,
      "▁\n١٦": 4986,
      "شْتَرِي": 4987,
      "عَ": 4988,
      "▁وَالْك": 4989,
      "داء": 4990,
      "ْرَةَ": 4991,
      "▁أعظم": 4992,
      "▁حرب": 4993,
      "▁!": 4994,
      "▁باب:": 4995,
      "▁وَاللَّهُ": 4996,
      "ابلة": 4997,
      "َالِك": 4998,
      "حِ": 4999,
      "صية": 5000,
      "▁بالب": 5001,
      "▁مَسْع": 5002,
      "خلا": 5003,
      "▁\n[١]": 5004,
      "▁السورة": 5005,
      "ِيعِ": 5006,
      "▁مختلف": 5007,
      "▁اسمه": 5008,
      "▁وَن": 5009,
      "عى": 5010,
      "صير": 5011,
      "لاً،": 5012,
      "ِسْت": 5013,
      "▁ويكون": 5014,
      "▁منك": 5015,
      "ْنا": 5016,
      "▁بِالْب": 5017,
      "▁الْحَنَفِيَّةُ": 5018,
      "ْتَل": 5019,
      "ود،": 5020,
      "▁[٤].": 5021,
      "▁\"أن": 5022,
      "▁حمزة": 5023,
      "▁جبير": 5024,
      "▁الْعَم": 5025,
      "ني،": 5026,
      "اتِ": 5027,
      "َرٌ": 5028,
      "ها)": 5029,
      "▁الصُّ": 5030,
      "▁الخطيب": 5031,
      "َمَنْ": 5032,
      "مر،": 5033,
      "▁قالت": 5034,
      "▁شعبة": 5035,
      "طلب": 5036,
      "▁رَبُّ": 5037,
      "▁سبحان": 5038,
      "ّ:": 5039,
      "▁تَد": 5040,
      "▁هِش": 5041,
      "▁أبيه،": 5042,
      "▁شُر": 5043,
      "▁يعمل": 5044,
      "▁بِاللَّهِ": 5045,
      "▁ذو": 5046,
      "▁مَث": 5047,
      "٥٩": 5048,
      "▁قريب": 5049,
      "▁(من": 5050,
      "ُومِ": 5051,
      "واف": 5052,
      "▁\nأبو": 5053,
      "▁النعم": 5054,
      "▁الضمير": 5055,
      "▁العصر": 5056,
      "▁خَالِد": 5057,
      "▁وَقد": 5058,
      "▁تُق": 5059,
      "▁الأعم": 5060,
      "▁الرَّحْمَن": 5061,
      "ِو": 5062,
      "▁الْعِل": 5063,
      "▁لهذا": 5064,
      "َرَهُ": 5065,
      "▁والتعديل": 5066,
      "▁أَرَادَ": 5067,
      "▁١:": 5068,
      "▁ورج": 5069,
      "َائِم": 5070,
      "َّاهِر": 5071,
      "▁\nولا": 5072,
      "▁تعلم": 5073,
      "واهر": 5074,
      "▁هـ؛": 5075,
      "الق": 5076,
      "▁للش": 5077,
      "▁للب": 5078,
      "▁صدر": 5079,
      "▁والل": 5080,
      "سوقي": 5081,
      "▁السنن": 5082,
      "▁عمر،": 5083,
      "▁بالغ": 5084,
      "▁قُت": 5085,
      "▁المالك": 5086,
      "سناده": 5087,
      "ِيَّةَ": 5088,
      "▁يقبل": 5089,
      "▁لان": 5090,
      "▁{إِنَّ": 5091,
      "لاَ": 5092,
      "▁وإس": 5093,
      "خبرنا": 5094,
      "َانِ،": 5095,
      "▁النِّك": 5096,
      "▁بير": 5097,
      "اده": 5098,
      "ِيقِ": 5099,
      "زوم": 5100,
      "▁حت": 5101,
      "▁يعد": 5102,
      "ُوا:": 5103,
      "ٍو": 5104,
      "شرف": 5105,
      "▁(خ": 5106,
      "وش": 5107,
      "▁الموضع": 5108,
      "▁أعد": 5109,
      "▁كَب": 5110,
      "ُها": 5111,
      "َوَّج": 5112,
      "▁الناس،": 5113,
      "ْلُو": 5114,
      "ماوات": 5115,
      "▁الأُ": 5116,
      "▁الشرك": 5117,
      "▁\nش": 5118,
      "▁كِتَاب": 5119,
      "َرْك": 5120,
      "▁المسند": 5121,
      "ْعَل": 5122,
      "ُضُو": 5123,
      "ً،": 5124,
      "َبَّ": 5125,
      "ىء": 5126,
      "▁الزمان": 5127,
      "٤٤": 5128,
      "▁\nفأ": 5129,
      "▁الأمير": 5130,
      "واعد": 5131,
      "▁لَنَا": 5132,
      "َاتٍ": 5133,
      "▁أَيَّام": 5134,
      "▁امت": 5135,
      "▁بمع": 5136,
      "▁المشركين": 5137,
      "▁واج": 5138,
      "لها،": 5139,
      "ّب": 5140,
      "▁أصاب": 5141,
      "قرآن": 5142,
      "كرمة": 5143,
      "سنن": 5144,
      "▁لَهُ،": 5145,
      "▁وحده": 5146,
      "َغِي": 5147,
      "ْدَ": 5148,
      "▁٢:": 5149,
      "ريع": 5150,
      "▁\nوروى": 5151,
      "شديد": 5152,
      "ْرِ،": 5153,
      "▁وحاشية": 5154,
      "▁إلّا": 5155,
      "َوْق": 5156,
      "َارٍ": 5157,
      "▁فيهما": 5158,
      "▁عنه-": 5159,
      "▁رمضان": 5160,
      "ساكر": 5161,
      "▁زر": 5162,
      "▁أى": 5163,
      "▁\"ج": 5164,
      "▁جبري": 5165,
      "▁ورب": 5166,
      "▁اليمن": 5167,
      "▁مَالِكٍ": 5168,
      "ْتَن": 5169,
      "ثله": 5170,
      "رتيب": 5171,
      "▁\nفصل": 5172,
      "ميز": 5173,
      "▁الثَّو": 5174,
      "َاعَ": 5175,
      "▁تنا": 5176,
      "▁وراء": 5177,
      "▁\nخ": 5178,
      "ضُ": 5179,
      "ِرٍ": 5180,
      "▁سوى": 5181,
      "تمال": 5182,
      "▁الباط": 5183,
      "َرِيب": 5184,
      "▁الطالب": 5185,
      "▁يَعْق": 5186,
      "▁النَّو": 5187,
      "▁ربه": 5188,
      "باه": 5189,
      "▁الميت": 5190,
      "▁مسألة": 5191,
      "ِّك": 5192,
      "▁بِمُ": 5193,
      "▁قَوْلُ": 5194,
      "▁الْمُو": 5195,
      "▁نسخ": 5196,
      "▁بِالْ": 5197,
      "▁\nوأخرج": 5198,
      "▁\nهذا": 5199,
      "▁الجوز": 5200,
      "▁هذا،": 5201,
      "▁\n(ال": 5202,
      "▁تِلْكَ": 5203,
      "▁جامع": 5204,
      "▁فيقول": 5205,
      "▁ثمان": 5206,
      "▁وَأَنْ": 5207,
      "▁شبه": 5208,
      "▁جـ": 5209,
      "▁المه": 5210,
      "▁الشّ": 5211,
      "▁شُعْب": 5212,
      "▁الزهري": 5213,
      "ْلِس": 5214,
      "▁(٧/": 5215,
      "▁قَالَتْ:": 5216,
      "▁الحك": 5217,
      "▁بـ": 5218,
      "▁معجم": 5219,
      "صارى": 5220,
      "▁رأي": 5221,
      "بوع": 5222,
      "عله": 5223,
      "▁الْقَب": 5224,
      "▁يه": 5225,
      "ارت": 5226,
      "▁سَعِيدٍ": 5227,
      "يني": 5228,
      "▁منه.": 5229,
      "▁وَالشَّافِع": 5230,
      "▁الْوَص": 5231,
      "كبر": 5232,
      "▁جائز": 5233,
      "ذكره": 5234,
      "▁إمام": 5235,
      "تبة": 5236,
      "▁بب": 5237,
      "▁وسبع": 5238,
      "▁أجر": 5239,
      "شأ": 5240,
      "▁قَتَاد": 5241,
      "اب،": 5242,
      "▁\nور": 5243,
      "▁وأصحاب": 5244,
      "▁وهما": 5245,
      "▁معاذ": 5246,
      "▁الرك": 5247,
      "▁مَسْعُود": 5248,
      "▁إِلا": 5249,
      "▁روح": 5250,
      "▁الرَّا": 5251,
      "▁[٨]": 5252,
      "ِّع": 5253,
      "▁وَهُمْ": 5254,
      "▁يمنع": 5255,
      "▁اعْت": 5256,
      "▁حَنِيفَةَ": 5257,
      "▁العشر": 5258,
      "▁يؤمن": 5259,
      "▁القدر": 5260,
      "▁يقدر": 5261,
      "▁قَو": 5262,
      "٤/": 5263,
      "▁الكثير": 5264,
      "▁الْمَنْ": 5265,
      "ــــــــــــــــــــــــــــــــــــــــــــــــــــــــــــــــ": 5266,
      "▁فأما": 5267,
      "▁وتس": 5268,
      "▁يشت": 5269,
      "ودة": 5270,
      "ًا\"": 5271,
      "▁الطعام": 5272,
      "▁إشارة": 5273,
      "▁ورسوله": 5274,
      "جيب": 5275,
      "ْرِج": 5276,
      "ُسْل": 5277,
      "▁منكم": 5278,
      "▁كانَ": 5279,
      "▁غاية": 5280,
      "ْلِك": 5281,
      "▁الزكاة": 5282,
      "▁الْعَد": 5283,
      "▁شَرْط": 5284,
      "▁الحَدِيث": 5285,
      "▁مَخ": 5286,
      "َعَهُ": 5287,
      "▁تَش": 5288,
      "▁السابق": 5289,
      "▁وعليه": 5290,
      "▁الآن": 5291,
      "▁البغدا": 5292,
      "ُرُوج": 5293,
      "شير": 5294,
      "ضوء": 5295,
      "▁القضاء": 5296,
      "▁\n١٧": 5297,
      "ِخ": 5298,
      "▁شَيْءٌ": 5299,
      "ريقة": 5300,
      "▁تَقَدَّمَ": 5301,
      "▁أحكام": 5302,
      "▁الزُّهْر": 5303,
      "▁٩/": 5304,
      "▁الْمَح": 5305,
      "▁هَذ": 5306,
      "▁صورة": 5307,
      "▁(الم": 5308,
      "ضوع": 5309,
      "▁ولأن": 5310,
      "▁جم": 5311,
      "▁جنس": 5312,
      "▁نسبة": 5313,
      "▁لِلْمُ": 5314,
      "▁لَهُ:": 5315,
      "روح": 5316,
      "▁ويست": 5317,
      "▁بَط": 5318,
      "▁اسْم": 5319,
      "▁خلا": 5320,
      "▁صدق": 5321,
      "لع": 5322,
      "▁عُمَرُ": 5323,
      "َكَذَا": 5324,
      "▁جَاب": 5325,
      "٣٢": 5326,
      "افي": 5327,
      "▁\"إ": 5328,
      "▁بِص": 5329,
      "▁مُؤ": 5330,
      "▁أولي": 5331,
      "▁حسب": 5332,
      "تنا": 5333,
      "▁لَي": 5334,
      "▁كذب": 5335,
      "▁اللُّغ": 5336,
      "ْمَةِ": 5337,
      "▁الثاني:": 5338,
      "▁عَظ": 5339,
      "▁عُق": 5340,
      "لا،": 5341,
      "▁معروف": 5342,
      "▁راجع": 5343,
      "وقوف": 5344,
      "▁رَبَّ": 5345,
      "▁\nوَع": 5346,
      "▁عَنْهُمَا": 5347,
      "▁والمر": 5348,
      "أخ": 5349,
      "▁المغرب": 5350,
      "زال": 5351,
      "▁الذكر": 5352,
      "الس": 5353,
      "▁وَيُق": 5354,
      "▁\nوهو": 5355,
      "ِيَّةِ،": 5356,
      "▁والآخر": 5357,
      "َهَاد": 5358,
      "▁الْحَسَنِ": 5359,
      "غي": 5360,
      "▁فَأَخ": 5361,
      "ِيعُ": 5362,
      "ات.": 5363,
      "▁يَمْ": 5364,
      "ّاس": 5365,
      "▁يصلي": 5366,
      "خلص": 5367,
      "▁سِت": 5368,
      "َاءٍ": 5369,
      "▁ثوب": 5370,
      "▁لكان": 5371,
      "▁ثَاب": 5372,
      "نك": 5373,
      "▁الدولة": 5374,
      "▁وظ": 5375,
      "▁تقد": 5376,
      "اءُ": 5377,
      "٩٧": 5378,
      "لل": 5379,
      "دُ": 5380,
      "انِ": 5381,
      "▁بيروت": 5382,
      "▁وجوه": 5383,
      "▁الْحَي": 5384,
      "ابي": 5385,
      "خول": 5386,
      "َهِد": 5387,
      "▁مز": 5388,
      "▁أكبر": 5389,
      "▁وأس": 5390,
      "َاخ": 5391,
      "▁«ف": 5392,
      "▁تاب": 5393,
      "▁مِّن": 5394,
      "▁(قَوْلُهُ": 5395,
      "▁النسخ": 5396,
      "ِّيَ": 5397,
      "▁بَعْضِ": 5398,
      "▁للج": 5399,
      "▁يجز": 5400,
      "▁بينه": 5401,
      "▁بكل": 5402,
      "▁{وَل": 5403,
      "▁معطوف": 5404,
      "وضة": 5405,
      "َدٍ": 5406,
      "▁فخ": 5407,
      "▁سالم": 5408,
      "ربة": 5409,
      "▁امرأ": 5410,
      "▁رِج": 5411,
      "▁كلهم": 5412,
      "▁العاص": 5413,
      "▁والإن": 5414,
      "ُونُس": 5415,
      "▁وَقَالَ:": 5416,
      "▁بعضها": 5417,
      "ناد": 5418,
      "واح": 5419,
      "▁الْيَم": 5420,
      "▁أشد": 5421,
      "▁ضر": 5422,
      "▁وبعض": 5423,
      "ْلَى": 5424,
      "هما:": 5425,
      "لس": 5426,
      "▁حُم": 5427,
      "▁لِق": 5428,
      "▁الْمَعْنَى": 5429,
      "▁حَس": 5430,
      "▁سأل": 5431,
      "▁إسناد": 5432,
      "▁الْحَم": 5433,
      "زلت": 5434,
      "▁وجب": 5435,
      "▁بالخ": 5436,
      "فعة": 5437,
      "ِمَّا": 5438,
      "برة": 5439,
      "فهام": 5440,
      "اد،": 5441,
      "▁بَعْضُ": 5442,
      "▁فِيهِ،": 5443,
      "▁مرض": 5444,
      "َلٍ": 5445,
      "▁الْأَح": 5446,
      "ظام": 5447,
      "▁الْأُم": 5448,
      "نام": 5449,
      "▁عِيس": 5450,
      "▁الجار": 5451,
      "▁آخَرَ": 5452,
      "▁\nقَوْل": 5453,
      "▁يُت": 5454,
      "َافِظ": 5455,
      "َهُ.": 5456,
      "▁وسمع": 5457,
      "▁شئ": 5458,
      "▁عَائِشَةَ": 5459,
      "بدأ": 5460,
      "▁كَس": 5461,
      "▁رَوَى": 5462,
      "ض،": 5463,
      "▁النووي": 5464,
      "ْهَم": 5465,
      "▁قُر": 5466,
      "ِلُّ": 5467,
      "▁الاج": 5468,
      "▁فإنها": 5469,
      "٣١": 5470,
      "▁جَعَل": 5471,
      "▁مه": 5472,
      "▁تيم": 5473,
      "▁التم": 5474,
      "▁الْفُقَهَاءِ": 5475,
      "▁مضاف": 5476,
      "▁جبريل": 5477,
      "َّرُ": 5478,
      "▁الصَّد": 5479,
      "▁أشهر": 5480,
      "▁(إ": 5481,
      "▁واجب": 5482,
      "ِقَ": 5483,
      "▁بالمع": 5484,
      "٨٧": 5485,
      "▁مُطْلَق": 5486,
      "َّاق": 5487,
      "▁مجمع": 5488,
      "▁نَعَمْ": 5489,
      "▁بَعْضُهُمْ": 5490,
      "كين": 5491,
      "▁النهي": 5492,
      "ُوفِ": 5493,
      "▁الْمَع": 5494,
      "ْمَال": 5495,
      "جمة": 5496,
      "▁ضَر": 5497,
      "َنَّهُ": 5498,
      "٦٠": 5499,
      "حكم": 5500,
      "َأْم": 5501,
      "▁لئ": 5502,
      "▁«٣»": 5503,
      "▁الْإِسْل": 5504,
      "ْقِ": 5505,
      "▁م:": 5506,
      "ُّن": 5507,
      "▁وأص": 5508,
      "▁افت": 5509,
      "سير": 5510,
      "قرار": 5511,
      "▁فصل": 5512,
      "اها": 5513,
      "ونا": 5514,
      "▁طبقات": 5515,
      "▁لغة": 5516,
      "حَ": 5517,
      "أَِنَّ": 5518,
      "▁-.": 5519,
      "▁بناء": 5520,
      "▁القرطبي": 5521,
      "▁فعلى": 5522,
      "▁الصلاة،": 5523,
      "▁فله": 5524,
      "▁تَل": 5525,
      "▁\nوقيل:": 5526,
      "▁تو": 5527,
      "َاهَا": 5528,
      "▁ثمّ": 5529,
      "▁للق": 5530,
      "ِيرٌ": 5531,
      "َطُ": 5532,
      "وَال": 5533,
      "▁غَيْرِهِ": 5534,
      "ِدْ": 5535,
      "▁الحرب": 5536,
      "▁الْمَل": 5537,
      "▁إليك": 5538,
      "▁(ن": 5539,
      "▁كنا": 5540,
      "▁تسع": 5541,
      "َهَا،": 5542,
      "▁فالم": 5543,
      "َصْر": 5544,
      "حتج": 5545,
      "▁وسكون": 5546,
      "▁عَمْرو": 5547,
      "▁بَلَغ": 5548,
      "ْوَال": 5549,
      "خبار": 5550,
      "▁والحاكم": 5551,
      "مَانِ": 5552,
      "▁حول": 5553,
      "▁خمسة": 5554,
      "▁صحيح.": 5555,
      "ُبْحَانَ": 5556,
      "▁يُد": 5557,
      "▁ثقات": 5558,
      "▁زَك": 5559,
      "ْتِهَا": 5560,
      "▁قِيم": 5561,
      "اطب": 5562,
      "▁عندهم": 5563,
      "ءَ": 5564,
      "َظْه": 5565,
      "▁لكون": 5566,
      "▁تؤ": 5567,
      "▁الله-": 5568,
      "راء،": 5569,
      "▁الْأَس": 5570,
      "▁عندي": 5571,
      "لكم": 5572,
      "▁التَّر": 5573,
      "▁بَين": 5574,
      "▁الخص": 5575,
      "▁سلام": 5576,
      "▁بِالن": 5577,
      "ِهِمْ،": 5578,
      "▁الأر": 5579,
      "بوت": 5580,
      "▁فجاء": 5581,
      "▁الجماعة": 5582,
      "لقى": 5583,
      "ك:": 5584,
      "▁ابنه": 5585,
      "هُ،": 5586,
      "▁الفقهاء": 5587,
      "▁الْمَذْك": 5588,
      "▁سمي": 5589,
      "٥٥": 5590,
      "▁قصة": 5591,
      "٦٧": 5592,
      "▁بِهَذَا": 5593,
      "َّخ": 5594,
      "ُلُو": 5595,
      "نسبة": 5596,
      "▁مرا": 5597,
      "▁يحصل": 5598,
      "▁خِلَاف": 5599,
      "غب": 5600,
      "َة.": 5601,
      "▁منصوب": 5602,
      "▁أث": 5603,
      "▁وذ": 5604,
      "▁بَكْر": 5605,
      "▁الرازي": 5606,
      "▁سَبْع": 5607,
      "▁الجواب": 5608,
      "▁م)": 5609,
      "▁أُمَّ": 5610,
      "ْلِي": 5611,
      "▁القدير": 5612,
      "▁الميم": 5613,
      "▁ضَع": 5614,
      "لة.": 5615,
      "▁\"الك": 5616,
      "▁\nلا": 5617,
      "▁فهل": 5618,
      "▁نسخة": 5619,
      "ءٍ": 5620,
      "▁يقرأ": 5621,
      "▁خَط": 5622,
      "▁الْقُر": 5623,
      "▁أنفسهم": 5624,
      "▁الها": 5625,
      "▁الّ": 5626,
      "▁عف": 5627,
      "حية": 5628,
      "▁الخز": 5629,
      "▁\nوالم": 5630,
      "▁قليل": 5631,
      "٨٩": 5632,
      "آيات": 5633,
      "يره": 5634,
      "▁وَالن": 5635,
      "▁وَالد": 5636,
      "رفه": 5637,
      "▁رُوِيَ": 5638,
      "▁الْعَزِيز": 5639,
      "▁مِلْك": 5640,
      "ضعيف": 5641,
      "▁تقر": 5642,
      "▁\nباب": 5643,
      "▁أموال": 5644,
      "▁الكر": 5645,
      "ُوبُ": 5646,
      "▁أَبي": 5647,
      "▁قو": 5648,
      "▁زِيَاد": 5649,
      "ساء": 5650,
      "▁الآية:": 5651,
      "ِرَةِ": 5652,
      "طار": 5653,
      "▁فاس": 5654,
      "▁\n(قَوْل": 5655,
      "▁عَليّ": 5656,
      "▁باسم": 5657,
      "▁تعالى،": 5658,
      "▁الرابع": 5659,
      "▁اشْتَر": 5660,
      "▁مَت": 5661,
      "▁اه": 5662,
      "ُلَم": 5663,
      "لما": 5664,
      "▁قلي": 5665,
      "▁الروم": 5666,
      "▁أين": 5667,
      "▁\"ما": 5668,
      "▁النَّس": 5669,
      "▁مضى": 5670,
      "ختيار": 5671,
      "▁[٢]،": 5672,
      "ْءِ": 5673,
      "▁الأَْص": 5674,
      "▁عَنْهُ،": 5675,
      "▁بِالس": 5676,
      "دَ": 5677,
      "▁\nوَذ": 5678,
      "▁علماء": 5679,
      "▁اشْت": 5680,
      "ئيس": 5681,
      "▁عَمْرٍو": 5682,
      "حدة": 5683,
      "▁ومر": 5684,
      "▁عَلَيَّ": 5685,
      "لزم": 5686,
      "▁عوف": 5687,
      "▁وإلى": 5688,
      "▁نحو:": 5689,
      "ِنْس": 5690,
      "▁الْمَدِينَ": 5691,
      "▁شديد": 5692,
      "▁آم": 5693,
      "▁شرع": 5694,
      "عدم": 5695,
      "▁مقت": 5696,
      "▁السَّي": 5697,
      "ِلُوا": 5698,
      "خي": 5699,
      "▁خَب": 5700,
      "َادَةِ": 5701,
      "▁لأحد": 5702,
      "▁المنافق": 5703,
      "▁نَفْسِهِ": 5704,
      "▁عُ": 5705,
      "▁فيمن": 5706,
      "▁وَإِلَّا": 5707,
      "▁(٨/": 5708,
      "▁ولكنه": 5709,
      "▁سُن": 5710,
      "او": 5711,
      "▁\nأن": 5712,
      "▁مُعَاوِي": 5713,
      "▁محمود": 5714,
      "٨٠": 5715,
      "▁حديثه": 5716,
      "▁الْكَف": 5717,
      "▁فقلت": 5718,
      "▁مُصْطَل": 5719,
      "▁\n§": 5720,
      "▁شه": 5721,
      "▁أرد": 5722,
      "▁للس": 5723,
      "براهيم": 5724,
      "▁عَلى": 5725,
      "▁لش": 5726,
      "▁وَابْنُ": 5727,
      "▁المقصود": 5728,
      "▁وَالْو": 5729,
      "ال.": 5730,
      "▁ثَب": 5731,
      "▁ظَه": 5732,
      "▁الْوَج": 5733,
      "▁طاهر": 5734,
      "▁الزَّك": 5735,
      "▁يُسْت": 5736,
      "▁الأدب": 5737,
      "ْرِو": 5738,
      "▁جبل": 5739,
      "▁أنَّه": 5740,
      "ْتَص": 5741,
      "▁مبني": 5742,
      "▁اش": 5743,
      "▁فإ": 5744,
      "▁\nقَال": 5745,
      "▁الأنصار": 5746,
      "هاجر": 5747,
      "▁\n(أ": 5748,
      "٨٦": 5749,
      "ْبَةِ": 5750,
      "دار": 5751,
      "▁الثقات": 5752,
      "▁يُونُس": 5753,
      "▁ربيع": 5754,
      "▁الْحَدِيثِ": 5755,
      "جهول": 5756,
      "زام": 5757,
      "▁ذر": 5758,
      "▁فيه:": 5759,
      "ْقَى": 5760,
      "▁لط": 5761,
      "▁ومنهم": 5762,
      "▁التى": 5763,
      "ؤه": 5764,
      "▁كَت": 5765,
      "▁حلف": 5766,
      "▁الصواب": 5767,
      "▁لِنَ": 5768,
      "▁الولد": 5769,
      "لاب": 5770,
      "▁صَاحِب": 5771,
      "ات:": 5772,
      "▁الزُّب": 5773,
      "َاؤ": 5774,
      "▁معت": 5775,
      "▁أُس": 5776,
      "▁الهمزة": 5777,
      "قق": 5778,
      "▁وسي": 5779,
      "▁(ز": 5780,
      "▁فُل": 5781,
      "▁سَمِعَ": 5782,
      "▁لأنَّ": 5783,
      "َابَةِ": 5784,
      "▁\n[٢]": 5785,
      "▁الإبل": 5786,
      "▁شريك": 5787,
      "▁بِالنَّ": 5788,
      "َتْح": 5789,
      "▁فخرج": 5790,
      "▁جَوَاز": 5791,
      "▁يحل": 5792,
      "▁والي": 5793,
      "▁أَصْل": 5794,
      "▁أدرك": 5795,
      "▁جَه": 5796,
      "▁\"الأ": 5797,
      "▁الربيع": 5798,
      "َها": 5799,
      "▁ذك": 5800,
      "▁يحدث": 5801,
      "▁انه": 5802,
      "▁المشهور": 5803,
      "▁يَدْخ": 5804,
      "▁الرسل": 5805,
      "▁يملك": 5806,
      "▁يعود": 5807,
      "▁يقل": 5808,
      "َقُ": 5809,
      "▁أثبت": 5810,
      "▁مي": 5811,
      "َئِكَ": 5812,
      "▁خي": 5813,
      "ادس": 5814,
      "ولها": 5815,
      "ِلَى": 5816,
      "▁الكل": 5817,
      "َمُّ": 5818,
      "▁أَخْرَج": 5819,
      "▁درج": 5820,
      "▁آله": 5821,
      "▁مرد": 5822,
      "▁قِيلَ": 5823,
      "▁مَعْنَى": 5824,
      "رادة": 5825,
      "▁أرسل": 5826,
      "▁وذكره": 5827,
      "طوط": 5828,
      "▁الْإِنْ": 5829,
      "▁أَبِيهِ،": 5830,
      "▁\nون": 5831,
      "▁تبع": 5832,
      "▁إيا": 5833,
      "▁يحتاج": 5834,
      "▁تَغ": 5835,
      "▁يسم": 5836,
      "▁زعم": 5837,
      "▁وعشرين": 5838,
      "▁القراءة": 5839,
      "▁يوجد": 5840,
      "▁جريج": 5841,
      "▁ضي": 5842,
      "▁نوح": 5843,
      "▁لأنّ": 5844,
      "▁الشَّمْس": 5845,
      "َمْز": 5846,
      "ِهِ:": 5847,
      "▁محمَّد": 5848,
      "َثْبُ": 5849,
      "▁بنى": 5850,
      "▁\nالس": 5851,
      "َيْرِ": 5852,
      "▁رضى": 5853,
      "▁الصَّلَاةِ": 5854,
      "يء": 5855,
      "▁الفرق": 5856,
      "▁أكل": 5857,
      "▁٥٧": 5858,
      "ْبُد": 5859,
      "ريجه": 5860,
      "▁لِو": 5861,
      "َزْو": 5862,
      "ْتَهَى": 5863,
      "فَع": 5864,
      "▁يحتمل": 5865,
      "َاةُ": 5866,
      "▁يَخْرُج": 5867,
      "▁الترجمة": 5868,
      "َيِّن": 5869,
      "▁دعا": 5870,
      "▁مُل": 5871,
      "▁شهاب": 5872,
      "ِيَّةُ:": 5873,
      "٩٩": 5874,
      "▁بحيث": 5875,
      "▁الأصول": 5876,
      "▁أجمع": 5877,
      "ْتِد": 5878,
      "▁الوضوء": 5879,
      "يزان": 5880,
      "َارَةِ": 5881,
      "▁الألباني": 5882,
      "▁ويقال:": 5883,
      "▁وتن": 5884,
      "▁فأمر": 5885,
      "▁طلق": 5886,
      "▁مفت": 5887,
      "▁بِالش": 5888,
      "▁جاءت": 5889,
      "ظلم": 5890,
      "قْر": 5891,
      "▁الخمس": 5892,
      "▁٥٦": 5893,
      "بي،": 5894,
      "ْتُم": 5895,
      "َرُّف": 5896,
      "▁المثل": 5897,
      "▁فأخذ": 5898,
      "▁الأول:": 5899,
      "▁سماع": 5900,
      "ُوه": 5901,
      "▁عَيْن": 5902,
      "▁فجعل": 5903,
      "▁أسر": 5904,
      "▁قُلْتُ:": 5905,
      "حْر": 5906,
      "▁الباق": 5907,
      "زه": 5908,
      "ارق": 5909,
      "▁لِس": 5910,
      "هم:": 5911,
      "ركب": 5912,
      "َامٌ": 5913,
      "▁مَض": 5914,
      "سيط": 5915,
      "▁سما": 5916,
      "▁فقلت:": 5917,
      "▁نقص": 5918,
      "▁صدوق": 5919,
      "▁الصَّو": 5920,
      "▁النَّبِي": 5921,
      "هما.": 5922,
      "▁حَمَّ": 5923,
      "لمي": 5924,
      "َاةَ": 5925,
      "▁سُ": 5926,
      "▁لِلْح": 5927,
      "َايَةِ": 5928,
      "▁الْمُسْلِمِينَ": 5929,
      "كرة": 5930,
      "كد": 5931,
      "▁أُول": 5932,
      "▁للر": 5933,
      "▁الثَّالِث": 5934,
      "▁كس": 5935,
      "▁أقر": 5936,
      "ْوَ": 5937,
      "▁مِنْكُمْ": 5938,
      "▁سألت": 5939,
      "ِيص": 5940,
      "ْ،": 5941,
      "▁١٠/": 5942,
      "▁فرعون": 5943,
      "ْرٌ": 5944,
      "▁رأسه": 5945,
      "َسْت": 5946,
      "▁أعلام": 5947,
      "َّذِي": 5948,
      "أخذ": 5949,
      "▁هارون": 5950,
      "ِغ": 5951,
      "▁{م": 5952,
      "▁واسم": 5953,
      "▁الأعلى": 5954,
      "ثني": 5955,
      "▁أَنْفُس": 5956,
      "ِصَاص": 5957,
      "َلَّا": 5958,
      "▁غيره،": 5959,
      "▁أقوال": 5960,
      "▁إنها": 5961,
      "▁عَنْهُمْ": 5962,
      "▁جر": 5963,
      "▁أَحْمد": 5964,
      "َبٍ": 5965,
      "ئب": 5966,
      "▁أَذ": 5967,
      "▁كَر": 5968,
      "▁طلحة": 5969,
      "▁لِب": 5970,
      "وضوع": 5971,
      "قاد": 5972,
      "▁قلنا": 5973,
      "▁محمد،": 5974,
      "▁مختصر": 5975,
      "وير": 5976,
      "▁الأَْو": 5977,
      "ْنَاد": 5978,
      "▁تمام": 5979,
      "▁يديه": 5980,
      "▁فَان": 5981,
      "تمد": 5982,
      "▁يتع": 5983,
      "٤١": 5984,
      "▁إثبات": 5985,
      "َلُوا": 5986,
      "▁والا": 5987,
      "▁ذِك": 5988,
      "▁تعد": 5989,
      "▁ويقول": 5990,
      "▁الدر": 5991,
      "ادة،": 5992,
      "٩٠": 5993,
      "▁[٢": 5994,
      "▁يحب": 5995,
      "َسْأَل": 5996,
      "▁وَرَسُول": 5997,
      "▁النَّاسَ": 5998,
      "▁الحقيقة": 5999,
      "▁المفسر": 6000,
      "ظهار": 6001,
      "▁ووا": 6002,
      "َدَمِ": 6003,
      "▁عَمْرِو": 6004,
      "▁وحم": 6005,
      "▁الطويل": 6006,
      "▁خَرَجَ": 6007,
      "▁وَفِيهِ": 6008,
      "▁يُوج": 6009,
      "▁الْحَارِث": 6010,
      "▁عدة": 6011,
      "اجد": 6012,
      "نِي": 6013,
      "كيد": 6014,
      "▁القائل": 6015,
      "▁عاق": 6016,
      "▁المحيط": 6017,
      "ائن": 6018,
      "س.": 6019,
      "▁اغ": 6020,
      "▁علق": 6021,
      "▁يَرْج": 6022,
      "لون": 6023,
      "٩٦": 6024,
      "▁وكشاف": 6025,
      "▁صحة": 6026,
      "٤٢": 6027,
      "▁ثَابِت": 6028,
      "▁عَلِيُّ": 6029,
      "▁مدة": 6030,
      "ُهُ.": 6031,
      "جارة": 6032,
      "▁قضاء": 6033,
      "▁صِح": 6034,
      "راجع": 6035,
      "▁يُوسُفَ": 6036,
      "▁الدسوقي": 6037,
      "ِشْر": 6038,
      "َكْث": 6039,
      "▁نِس": 6040,
      "▁ربك": 6041,
      "ذات": 6042,
      "فْظ": 6043,
      "ُنَّ": 6044,
      "▁أَحَدٌ": 6045,
      "▁وثمان": 6046,
      "▁(٧)": 6047,
      "َقِي": 6048,
      "▁أشار": 6049,
      "▁عِنْدَهُ": 6050,
      "َحِ": 6051,
      "ِبْر": 6052,
      "▁الدَّي": 6053,
      "ِقِ": 6054,
      "▁الرحيم": 6055,
      "▁مَنْص": 6056,
      "وي،": 6057,
      "▁إد": 6058,
      "َدِيد": 6059,
      "ْلَةِ": 6060,
      "▁ساب": 6061,
      "▁قُلْ": 6062,
      "جزاء": 6063,
      "▁ربيعة": 6064,
      "▁ومغني": 6065,
      "ضاع": 6066,
      "َضَ": 6067,
      "َاعُ": 6068,
      "▁عس": 6069,
      "▁تُع": 6070,
      "دعى": 6071,
      "▁لِلْع": 6072,
      "▁يروي": 6073,
      "▁الحديث:": 6074,
      "▁\nقَالَ:": 6075,
      "▁وآخر": 6076,
      "▁وإما": 6077,
      "▁الشرح": 6078,
      "▁إذْ": 6079,
      "▁\nإذا": 6080,
      "قيت": 6081,
      "▁قبلها": 6082,
      "▁«إن": 6083,
      "َوْض": 6084,
      "▁فِر": 6085,
      "▁**": 6086,
      "▁أَبو": 6087,
      "َاتِهِ": 6088,
      "▁\nالت": 6089,
      "▁قرب": 6090,
      "▁كاف": 6091,
      "ُورُ": 6092,
      "▁بدون": 6093,
      "▁والجملة": 6094,
      "▁الطَّر": 6095,
      "اعد": 6096,
      "▁أصول": 6097,
      "▁مؤمن": 6098,
      "▁لَب": 6099,
      "▁الحمد": 6100,
      "▁حُكْم": 6101,
      "▁أقل": 6102,
      "▁الأعمال": 6103,
      "ِينُ": 6104,
      "▁وعز": 6105,
      "▁ونا": 6106,
      "▁ضعف": 6107,
      "▁فَف": 6108,
      "▁أَحَدُهُمَا": 6109,
      "▁يحمل": 6110,
      "▁الجرح": 6111,
      "▁عِيسَى": 6112,
      "▁مائ": 6113,
      "▁لَو": 6114,
      "▁التش": 6115,
      "▁وقف": 6116,
      "جواب": 6117,
      "▁ويم": 6118,
      "٤٣": 6119,
      "تهد": 6120,
      "▁وكتب": 6121,
      "▁\"ق": 6122,
      "▁\nولما": 6123,
      "َدِهِ": 6124,
      "▁النون": 6125,
      "ِنِ": 6126,
      "▁ومعنى": 6127,
      "لبس": 6128,
      "الِح": 6129,
      "فال": 6130,
      "ًا؛": 6131,
      "▁\nوَأَمَّا": 6132,
      "▁نهاية": 6133,
      "▁بِالْك": 6134,
      "وفة": 6135,
      "تفع": 6136,
      "▁جُب": 6137,
      "▁اللا": 6138,
      "▁إلخ": 6139,
      "ْوِي": 6140,
      "▁الدعاء": 6141,
      "▁النب": 6142,
      "▁النهار": 6143,
      "يّ،": 6144,
      "▁فَمَنْ": 6145,
      "▁الكامل": 6146,
      "▁وجاء": 6147,
      "▁الجزء": 6148,
      "ِائ": 6149,
      "امِ": 6150,
      "▁ساقط": 6151,
      "▁زمن": 6152,
      "▁(١٧": 6153,
      "▁بِخِلَافِ": 6154,
      "▁المسي": 6155,
      "نتين": 6156,
      "▁الثلاثة": 6157,
      "علام": 6158,
      "ندي": 6159,
      "▁يتعلق": 6160,
      "▁الدِّينِ": 6161,
      "▁منها،": 6162,
      "▁يبلغ": 6163,
      "ازي": 6164,
      "▁الْمُؤْمِنِينَ": 6165,
      "َبِّ": 6166,
      "▁بَاب": 6167,
      "▁(وَ": 6168,
      "▁عَج": 6169,
      "▁الات": 6170,
      "▁الْأَش": 6171,
      "جيل": 6172,
      "▁\"س": 6173,
      "أله": 6174,
      "▁موجود": 6175,
      "▁\nعبد": 6176,
      "َيُّ": 6177,
      "▁أمة": 6178,
      "هَاد": 6179,
      "هج": 6180,
      "ِرُونَ": 6181,
      "▁فَلَوْ": 6182,
      "▁الفجر": 6183,
      "٥/": 6184,
      "▁أَنْتَ": 6185,
      "▁عال": 6186,
      "▁\nما": 6187,
      "▁الرب": 6188,
      "▁المائ": 6189,
      "▁صَلا": 6190,
      "▁رَكْع": 6191,
      "▁لهما": 6192,
      "َعَلَ": 6193,
      "َغْف": 6194,
      "حمة": 6195,
      "أخر": 6196,
      "خصيص": 6197,
      "▁إنسان": 6198,
      "▁بوا": 6199,
      "زيادة": 6200,
      "▁وجهه": 6201,
      "َّةِ،": 6202,
      "َحْر": 6203,
      "٨٨": 6204,
      "▁\nفَ": 6205,
      "▁رَجُلٍ": 6206,
      "▁وعنه": 6207,
      "▁لِر": 6208,
      "▁ماله": 6209,
      "▁الوق": 6210,
      "▁٦٠": 6211,
      "زير": 6212,
      "ثلة": 6213,
      "▁طبع": 6214,
      "بر،": 6215,
      "▁أسد": 6216,
      "▁بالي": 6217,
      "▁عليها،": 6218,
      "▁ذاك": 6219,
      "غم": 6220,
      "▁هَؤ": 6221,
      "▁بِقَوْلِهِ": 6222,
      "▁«ت": 6223,
      "▁حضر": 6224,
      "▁وكسر": 6225,
      "َين": 6226,
      "▁القرآن،": 6227,
      "▁قَوْلِ": 6228,
      "▁فصار": 6229,
      "▁الْمَك": 6230,
      "▁الجمهور": 6231,
      "▁إيمان": 6232,
      "ِمِينَ": 6233,
      "▁حاجة": 6234,
      "َرَةِ": 6235,
      "▁\"صحيح": 6236,
      "رأيت": 6237,
      "▁رَمَض": 6238,
      "َمِنَ": 6239,
      "▁أخي": 6240,
      "▁حيات": 6241,
      "ِيرٍ": 6242,
      "اقي": 6243,
      "▁أنواع": 6244,
      "▁أنّه": 6245,
      "▁\n(٩)": 6246,
      "▁سَيِّ": 6247,
      "▁هَل": 6248,
      "▁\nفال": 6249,
      "َامٍ": 6250,
      "▁حَمَّاد": 6251,
      "مامة": 6252,
      "▁شيب": 6253,
      "ُسْت": 6254,
      "▁والأن": 6255,
      "▁ومنها": 6256,
      "▁صور": 6257,
      "▁نب": 6258,
      "عة:": 6259,
      "عبة": 6260,
      "▁(د": 6261,
      "▁دم": 6262,
      "َعُوا": 6263,
      "صابة": 6264,
      "▁حل": 6265,
      "▁يُمْك": 6266,
      "ُرَ": 6267,
      "▁لد": 6268,
      "▁الجهاد": 6269,
      "▁أخبرني": 6270,
      "َلْتُ": 6271,
      "َاقِي": 6272,
      "مسك": 6273,
      "▁ضَم": 6274,
      "▁قبض": 6275,
      "▁الْجُمُع": 6276,
      "▁فاط": 6277,
      "▁الزم": 6278,
      "▁التف": 6279,
      "▁الْوَك": 6280,
      "▁أمور": 6281,
      "ثِ": 6282,
      "▁وشر": 6283,
      "▁نَه": 6284,
      "▁يحي": 6285,
      "روب": 6286,
      "▁عِلْم": 6287,
      "ِيبُ": 6288,
      "▁عساكر": 6289,
      "ْهُور": 6290,
      "▁يُصَلِّي": 6291,
      "▁يُش": 6292,
      "▁الكري": 6293,
      "▁للص": 6294,
      "▁شاهد": 6295,
      "ْتَس": 6296,
      "صلح": 6297,
      "▁بِالْأ": 6298,
      "▁غالب": 6299,
      "▁بهما": 6300,
      "١-": 6301,
      "▁قُد": 6302,
      "▁النع": 6303,
      "َائِرِ": 6304,
      "طه": 6305,
      "▁يجمع": 6306,
      "▁الأج": 6307,
      "▁وَلَكِنْ": 6308,
      "▁سُبْحَانَ": 6309,
      "▁كأ": 6310,
      "▁السر": 6311,
      "َقِيق": 6312,
      "كمال": 6313,
      "راء:": 6314,
      "▁مدينة": 6315,
      "▁\n(ف": 6316,
      "▁مسجد": 6317,
      "فيه": 6318,
      "▁جُن": 6319,
      "امن": 6320,
      "▁«ك": 6321,
      "▁السابقة": 6322,
      "َحُ": 6323,
      "طبقات": 6324,
      "▁كَفَرُوا": 6325,
      "▁الإِس": 6326,
      "▁بيد": 6327,
      "▁ينزل": 6328,
      "َائِهِ": 6329,
      "▁النَّارِ": 6330,
      "َارًا": 6331,
      "▁يَأْتِي": 6332,
      "▁النَّج": 6333,
      "▁قدامة": 6334,
      "▁وغيرهم": 6335,
      "َرِ،": 6336,
      "▁الهيثمي": 6337,
      "▁كي": 6338,
      "▁الأسماء": 6339,
      "▁واحد،": 6340,
      "فسد": 6341,
      "▁أصحابه": 6342,
      "▁بِأَنَّهُ": 6343,
      "▁المقر": 6344,
      "َالٍ": 6345,
      "▁السُّن": 6346,
      "ديه": 6347,
      "▁لزم": 6348,
      "▁يقولون": 6349,
      "▁حام": 6350,
      "▁عباس:": 6351,
      "▁ط.": 6352,
      "٦٦": 6353,
      "▁إِسْحَاقَ": 6354,
      "▁صاد": 6355,
      "َهُود": 6356,
      "▁التس": 6357,
      "ِنْدَ": 6358,
      "▁الحجاج": 6359,
      "▁الواجب": 6360,
      "▁صَدَق": 6361,
      "▁زَم": 6362,
      "نث": 6363,
      "▁جانب": 6364,
      "▁التَّق": 6365,
      "▁تُح": 6366,
      "َرْضَ": 6367,
      "▁وتق": 6368,
      "طا": 6369,
      "▁سُلَيْمَانَ": 6370,
      "▁الْهِ": 6371,
      "▁نَا": 6372,
      "▁اليد": 6373,
      "▁وقول": 6374,
      "خار": 6375,
      "▁فه": 6376,
      "▁الْمُف": 6377,
      "▁قَوْلُهُ:": 6378,
      "صال": 6379,
      "لي:": 6380,
      "▁بالد": 6381,
      "▁وأهل": 6382,
      "▁لَفْظ": 6383,
      "ُّع": 6384,
      "▁رَبِّهِ": 6385,
      "▁مالك،": 6386,
      "▁التَّص": 6387,
      "▁زكري": 6388,
      "▁أَوْل": 6389,
      "▁ظن": 6390,
      "َائِز": 6391,
      "▁بمنزلة": 6392,
      "▁لخ": 6393,
      "▁\nأي": 6394,
      "نوب": 6395,
      "َتِهَا": 6396,
      "▁أَنَّهُمْ": 6397,
      "َّعَى": 6398,
      "▁بأمر": 6399,
      "▁خوف": 6400,
      "بعد": 6401,
      "انت": 6402,
      "▁الحب": 6403,
      "▁قَالَهُ": 6404,
      "▁وَقَعَ": 6405,
      "▁وَسَلَّم": 6406,
      "▁معاني": 6407,
      "▁قِي": 6408,
      "▁آثار": 6409,
      "▁تقول:": 6410,
      "▁ثَلاَث": 6411,
      "فُ": 6412,
      "ُورَةِ": 6413,
      "▁لأجل": 6414,
      "▁عمر:": 6415,
      "ام،": 6416,
      "▁وأنت": 6417,
      "▁الأشياء": 6418,
      "ومه": 6419,
      "بيّ": 6420,
      "▁بعيد": 6421,
      "▁يمين": 6422,
      "▁الرَّس": 6423,
      "طاب": 6424,
      "▁الزيادة": 6425,
      "▁مَذْه": 6426,
      "▁بنو": 6427,
      "ْتِف": 6428,
      "خفيف": 6429,
      "وا.": 6430,
      "▁يكتب": 6431,
      "▁فَيَقُول": 6432,
      "▁وَقِيلَ:": 6433,
      "َلَب": 6434,
      "▁\nوإذا": 6435,
      "▁وكيع": 6436,
      "ِلَةِ": 6437,
      "▁لأَ": 6438,
      "َتْحِ": 6439,
      "▁ابت": 6440,
      "▁نَافِع": 6441,
      "ِرِينَ": 6442,
      "▁الجليل": 6443,
      "▁القض": 6444,
      "▁كُنَّا": 6445,
      "▁الطَّب": 6446,
      "▁حصل": 6447,
      "▁وعدم": 6448,
      "▁عُمَر": 6449,
      "▁وفر": 6450,
      "▁المبارك": 6451,
      "خشري": 6452,
      "َتِهِ،": 6453,
      "▁الإسلام،": 6454,
      "▁المأم": 6455,
      "▁ظلم": 6456,
      "فراد": 6457,
      "قسم": 6458,
      "▁أُح": 6459,
      "▁وَما": 6460,
      "▁يُط": 6461,
      "▁\nوَقَدْ": 6462,
      "َّاد": 6463,
      "▁ولل": 6464,
      "طِ": 6465,
      "▁قلنا:": 6466,
      "نائع": 6467,
      "▁\"شرح": 6468,
      "▁يتح": 6469,
      "َسَ": 6470,
      "لائل": 6471,
      "حاوي": 6472,
      "َةَ:": 6473,
      "▁التَّف": 6474,
      "▁قوة": 6475,
      "ِبُّ": 6476,
      "▁بيده": 6477,
      "يغة": 6478,
      "▁مني": 6479,
      "▁الرَّز": 6480,
      "َانٌ": 6481,
      "▁والمثبت": 6482,
      "▁كلاهما": 6483,
      "▁السيوطي": 6484,
      "ْلَمَ": 6485,
      "▁التوبة": 6486,
      "صره": 6487,
      "▁وصححه": 6488,
      "▁A": 6489,
      "▁سِن": 6490,
      "▁موت": 6491,
      "َانًا": 6492,
      "َحِق": 6493,
      "▁كَيْفَ": 6494,
      "▁رسوله": 6495,
      "▁\n٢٠": 6496,
      "َبْد": 6497,
      "▁عليهما": 6498,
      "▁وقوع": 6499,
      "▁وجملة": 6500,
      "ية\"": 6501,
      "▁كالم": 6502,
      "▁عائش": 6503,
      "كُ": 6504,
      "خلف": 6505,
      "نا.": 6506,
      "▁الْقُرْآنِ": 6507,
      "▁إنَّمَا": 6508,
      "▁حينئذ": 6509,
      "▁يوجب": 6510,
      "▁الثق": 6511,
      "▁البح": 6512,
      "▁دخلت": 6513,
      "▁جَازَ": 6514,
      "▁المم": 6515,
      "وه،": 6516,
      "▁أقرب": 6517,
      "▁الْكِتَابِ": 6518,
      "▁بهَا": 6519,
      "▁شعيب": 6520,
      "▁الفاء": 6521,
      "▁;": 6522,
      "▁أَط": 6523,
      "▁\nوَك": 6524,
      "▁سَبِيلِ": 6525,
      "▁رافع": 6526,
      "▁فش": 6527,
      "ْعَةِ": 6528,
      "▁«ي": 6529,
      "ْلِهِ": 6530,
      "▁ذُك": 6531,
      "▁الإِْم": 6532,
      "▁هما": 6533,
      "▁الليث": 6534,
      "▁يَأْخُذ": 6535,
      "▁«٤": 6536,
      "▁ذِي": 6537,
      "▁الْمُؤ": 6538,
      "▁أخبار": 6539,
      "▁مكر": 6540,
      "َلَّق": 6541,
      "بحث": 6542,
      "َلْنَا": 6543,
      "▁حَاج": 6544,
      "▁عَلَي": 6545,
      "▁فعله": 6546,
      "▁٥٢": 6547,
      "▁بَأْس": 6548,
      "▁يَفْع": 6549,
      "▁المقت": 6550,
      "▁شخص": 6551,
      "▁كر": 6552,
      "▁بِهِ.": 6553,
      "َقْب": 6554,
      "▁وجمع": 6555,
      "َرْو": 6556,
      "▁\".": 6557,
      "▁مُو": 6558,
      "▁تكلم": 6559,
      "▁يُغ": 6560,
      "▁قيام": 6561,
      "▁٥١": 6562,
      "▁الأئمة": 6563,
      "تهما": 6564,
      "▁وأي": 6565,
      "▁قُلُوب": 6566,
      "▁\nحَدَّثَنَا": 6567,
      "هارة": 6568,
      "▁فَاسْت": 6569,
      "▁فَقَط": 6570,
      "ْيُ": 6571,
      "▁موضوع": 6572,
      "▁والبا": 6573,
      "صاب": 6574,
      "قاق": 6575,
      "فاظ": 6576,
      "▁الْكُف": 6577,
      "▁أيدي": 6578,
      "▁فقيل": 6579,
      "▁الضَّر": 6580,
      "ها\"": 6581,
      "▁الْمَالِكِيَّةُ": 6582,
      "َدَّم": 6583,
      "▁الوهاب": 6584,
      "ِّرْمِ": 6585,
      "سائ": 6586,
      "ُوهُمْ": 6587,
      "▁طويل": 6588,
      "راهم": 6589,
      "▁أور": 6590,
      "▁وزاد": 6591,
      "ِ)": 6592,
      "▁الهند": 6593,
      "▁عمار": 6594,
      "حُ": 6595,
      "▁جَز": 6596,
      "▁السيد": 6597,
      "َيْتَ": 6598,
      "▁التّ": 6599,
      "▁إِذ": 6600,
      "▁يأمر": 6601,
      "▁التوحيد": 6602,
      "▁سَه": 6603,
      "▁اخْتَلَفَ": 6604,
      "▁مجاز": 6605,
      "▁شيئًا": 6606,
      "▁نجد": 6607,
      "▁يرفع": 6608,
      "▁وَلأَِنَّ": 6609,
      "▁اللب": 6610,
      "▁صل": 6611,
      "▁بلد": 6612,
      "▁مُف": 6613,
      "▁أظهر": 6614,
      "▁\nالإ": 6615,
      "▁الدِّي": 6616,
      "▁صَحَّ": 6617,
      "ْبَرَنَا": 6618,
      "بُ": 6619,
      "▁تعالى.": 6620,
      "▁والطبراني": 6621,
      "َة:": 6622,
      "▁السُّل": 6623,
      "َارِج": 6624,
      "▁أَيُّوب": 6625,
      "▁عا": 6626,
      "عة.": 6627,
      "▁كلامه": 6628,
      "▁يُقَالُ": 6629,
      "▁الشَّيْط": 6630,
      "▁سيف": 6631,
      "▁قالَ": 6632,
      "٨٥": 6633,
      "▁بري": 6634,
      "▁آمنوا": 6635,
      "▁الطيب": 6636,
      "▁خَيْرٌ": 6637,
      "▁كُنْتُمْ": 6638,
      "▁ذَا": 6639,
      "▁يسأل": 6640,
      "▁صِف": 6641,
      "▁الراء": 6642,
      "ْرَم": 6643,
      "▁قولهم": 6644,
      "شْتَرَطُ": 6645,
      "▁إِنَّا": 6646,
      "َائِك": 6647,
      "▁الصاد": 6648,
      "جرور": 6649,
      "▁أهله": 6650,
      "--------": 6651,
      "ِيرًا": 6652,
      "صر،": 6653,
      "▁سليم": 6654,
      "▁الواق": 6655,
      "▁فأع": 6656,
      "▁بز": 6657,
      "▁٥٥": 6658,
      "▁مشر": 6659,
      "▁دِر": 6660,
      "▁قومه": 6661,
      "▁ذلك:": 6662,
      "▁متى": 6663,
      "مَانُ": 6664,
      "▁\n[سورة": 6665,
      "▁وبر": 6666,
      "▁السفر": 6667,
      "٢-": 6668,
      "ِّرْمِذ": 6669,
      "ضرة": 6670,
      "▁عبيدة": 6671,
      "َفْص": 6672,
      "▁اجتمع": 6673,
      "▁كَم": 6674,
      "▁الدني": 6675,
      "شرة": 6676,
      "▁الشَّافِعِيَّةُ": 6677,
      "َانِيُّ": 6678,
      "ُلَاءِ": 6679,
      "▁التيم": 6680,
      "لخيص": 6681,
      "▁منكر": 6682,
      "▁(إن": 6683,
      "َعَتْ": 6684,
      "▁بَر": 6685,
      "▁تذكر": 6686,
      "▁م.": 6687,
      "▁الروح": 6688,
      "َّأ": 6689,
      "▁الأو": 6690,
      "▁بِط": 6691,
      "وطأ": 6692,
      "ئِذٍ": 6693,
      "▁إج": 6694,
      "▁السؤال": 6695,
      "▁يأكل": 6696,
      "▁البلا": 6697,
      "▁الفار": 6698,
      "▁لِلن": 6699,
      "الد": 6700,
      "٧٠": 6701,
      "الفة": 6702,
      "ته:": 6703,
      "▁الْمَذْه": 6704,
      "٣-": 6705,
      "اني.": 6706,
      "▁بالنسبة": 6707,
      "▁بابن": 6708,
      "ه؛": 6709,
      "▁عروة": 6710,
      "َعْص": 6711,
      "▁ذَكَرَهُ": 6712,
      "▁الخاص": 6713,
      "▁أبواب": 6714,
      "يعني": 6715,
      "▁حزم": 6716,
      "▁الْمَسْجِدِ": 6717,
      "▁حالة": 6718,
      "▁قَوْلِهِ:": 6719,
      "▁ترد": 6720,
      "▁مُط": 6721,
      "▁شَهَاد": 6722,
      "َرَّد": 6723,
      "روج": 6724,
      "▁رَضِي": 6725,
      "▁الحرم": 6726,
      "▁الرؤ": 6727,
      "▁مهم": 6728,
      "▁حَص": 6729,
      "▁اض": 6730,
      "َمُهُ": 6731,
      "ديدة": 6732,
      "▁يومئذ": 6733,
      "▁أمام": 6734,
      "دلال": 6735,
      "▁أحمد:": 6736,
      "▁الْوَاحِد": 6737,
      "نَع": 6738,
      "▁حسين": 6739,
      "▁حُج": 6740,
      "▁كقول": 6741,
      "ناها": 6742,
      "َابٌ": 6743,
      "▁دائ": 6744,
      "▁حَقِّ": 6745,
      "ُونَ،": 6746,
      "▁بِالص": 6747,
      "ُّك": 6748,
      "▁معد": 6749,
      "▁بالط": 6750,
      "رسل": 6751,
      "▁وحديث": 6752,
      "▁ميم": 6753,
      "▁الحجة": 6754,
      "حى": 6755,
      "اقب": 6756,
      "ّة،": 6757,
      "ذار": 6758,
      "▁٥٩": 6759,
      "اخْت": 6760,
      "▁اللَّهُمَّ": 6761,
      "▁كَق": 6762,
      "َافُ": 6763,
      "▁طعام": 6764,
      "▁شاه": 6765,
      "▁\nكان": 6766,
      "▁الصنائع": 6767,
      "▁إلَخْ)": 6768,
      "▁عَاص": 6769,
      "▁مُتَّ": 6770,
      "ل.": 6771,
      "▁الاب": 6772,
      "▁\nفقال": 6773,
      "▁مِمَّنْ": 6774,
      "▁يُض": 6775,
      "▁طَع": 6776,
      "▁المختار": 6777,
      "▁الدليل": 6778,
      "عادة": 6779,
      "▁وَاخْت": 6780,
      "▁وَاجِب": 6781,
      "قاب": 6782,
      "▁الإله": 6783,
      "٤-": 6784,
      "▁مِائ": 6785,
      "▁إلاَّ": 6786,
      "▁\"الت": 6787,
      "اكن": 6788,
      "▁أحدكم": 6789,
      "▁المسلمون": 6790,
      "▁الْقَض": 6791,
      "▁الطَّل": 6792,
      "▁أحوال": 6793,
      "وَز": 6794,
      "جلد": 6795,
      "▁مَعْم": 6796,
      "اهما": 6797,
      "طال": 6798,
      "ْهُر": 6799,
      "ِّنَ": 6800,
      "▁أَوْلَى": 6801,
      "مي،": 6802,
      "▁صَف": 6803,
      "▁وهل": 6804,
      "▁العلمية": 6805,
      "▁الفصل": 6806,
      "▁{وَال": 6807,
      "▁مِنْهُ،": 6808,
      "▁خاصة": 6809,
      "يال": 6810,
      "▁(ب)": 6811,
      "جعل": 6812,
      "▁لَكِنْ": 6813,
      "ًّا،": 6814,
      "ِلْ": 6815,
      "▁(م)": 6816,
      "er": 6817,
      "▁دل": 6818,
      "انَ": 6819,
      "▁سوا": 6820,
      "ُودَ": 6821,
      "▁[م": 6822,
      "▁ينفع": 6823,
      "▁نت": 6824,
      "ْتَج": 6825,
      "زا": 6826,
      "▁فأت": 6827,
      "▁يَط": 6828,
      "▁خِلا": 6829,
      "روس": 6830,
      "▁الوار": 6831,
      "▁تخريجه": 6832,
      "▁\nهو": 6833,
      "▁فقالوا:": 6834,
      "▁\nذكر": 6835,
      "▁المصري": 6836,
      "▁بَكْرِ": 6837,
      "ِّئ": 6838,
      "▁مريم": 6839,
      "▁وحسن": 6840,
      "▁بَيْع": 6841,
      "يرا": 6842,
      "ِيبِ": 6843,
      "▁دَخَلَ": 6844,
      "▁والثاني": 6845,
      "كما": 6846,
      "▁الْأَخ": 6847,
      "▁وهى": 6848,
      "▁علا": 6849,
      "▁الإسلامية": 6850,
      "▁الأثر": 6851,
      "▁أحمد،": 6852,
      "▁نهى": 6853,
      "▁أجد": 6854,
      "▁كشف": 6855,
      "▁مِثْلَ": 6856,
      "▁مُض": 6857,
      "▁ويؤ": 6858,
      "معجم": 6859,
      "▁العلاء": 6860,
      "▁رحمة": 6861,
      "صا": 6862,
      "▁الْعِلْمِ": 6863,
      "را،": 6864,
      "▁نفسه،": 6865,
      "▁إِبْرَاهِيمُ": 6866,
      "▁شمس": 6867,
      "▁محلّ": 6868,
      "▁الْعَال": 6869,
      "تهي": 6870,
      "ْرَك": 6871,
      "▁ضمن": 6872,
      "▁بِض": 6873,
      "▁زين": 6874,
      "ان\"": 6875,
      "تابع": 6876,
      "▁طال": 6877,
      "ثور": 6878,
      "▁الرِّج": 6879,
      "▁وهكذا": 6880,
      "▁السَّلَامُ": 6881,
      "▁النَّص": 6882,
      "ْمَعُ": 6883,
      "▁لكنه": 6884,
      "ن.": 6885,
      "تِهِ": 6886,
      "▁وار": 6887,
      "▁نَذ": 6888,
      "▁البلاد": 6889,
      "َاتَ": 6890,
      "▁مسلم،": 6891,
      "▁أولا": 6892,
      "▁عَمَّا": 6893,
      "▁المعجم": 6894,
      "صرة": 6895,
      "▁حس": 6896,
      "َاعِد": 6897,
      "▁الأسود": 6898,
      "▁عَلَيْكَ": 6899,
      "▁[٣]،": 6900,
      "ِهَذَا": 6901,
      "▁الرَّجُلُ": 6902,
      "▁الأخرى": 6903,
      "ين)": 6904,
      "▁التورا": 6905,
      "زيل": 6906,
      "َمَّى": 6907,
      "َلَّمَ": 6908,
      "ط،": 6909,
      "ة\"": 6910,
      "ِعْ": 6911,
      "▁رجلاً": 6912,
      "▁فِعْل": 6913,
      "ُوذ": 6914,
      "ِيّ،": 6915,
      "▁الْخَطَّاب": 6916,
      "▁صلة": 6917,
      "▁وبد": 6918,
      "▁ورو": 6919,
      "٧٧": 6920,
      "▁او": 6921,
      "▁[٩]": 6922,
      "▁يَتَو": 6923,
      "▁فالأ": 6924,
      "▁أُخْرَى": 6925,
      "▁الْبُخَار": 6926,
      "▁الْمُشْتَرِي": 6927,
      "▁النور": 6928,
      "ِسْم": 6929,
      "▁معمر": 6930,
      "َهْ": 6931,
      "▁عبارة": 6932,
      "▁يرو": 6933,
      "▁[٥].": 6934,
      "▁مُخْت": 6935,
      "▁ثالث": 6936,
      "▁أَخْبَرَنِي": 6937,
      "غِير": 6938,
      "▁(١٦": 6939,
      "ْكُل": 6940,
      "بة.": 6941,
      "▁قُلْنَا": 6942,
      "▁{وَأ": 6943,
      "▁كمال": 6944,
      "؟\"": 6945,
      "ةِ،": 6946,
      "▁والحديث": 6947,
      "▁\nعلى": 6948,
      "▁أست": 6949,
      "▁سَعِيدِ": 6950,
      "▁الظهر": 6951,
      "▁كثر": 6952,
      "▁إنا": 6953,
      "كُم": 6954,
      "سي،": 6955,
      "ِيَار": 6956,
      "▁سَر": 6957,
      "خصوص": 6958,
      "▁وسلم.": 6959,
      "▁السماوات": 6960,
      "▁ويس": 6961,
      "مة،": 6962,
      "▁أني": 6963,
      "فصيل": 6964,
      "▁عُرْو": 6965,
      "▁صحيح،": 6966,
      "▁تدل": 6967,
      "▁صَب": 6968,
      "ِرُوا": 6969,
      "▁إليه.": 6970,
      "▁قيم": 6971,
      "صى": 6972,
      "▁الحجر": 6973,
      "▁ولقد": 6974,
      "▁أَحْس": 6975,
      "▁والدار": 6976,
      "▁أَكْثَرَ": 6977,
      "▁محر": 6978,
      "ْسِ": 6979,
      "▁يطلب": 6980,
      "▁أَفْض": 6981,
      "ولاً": 6982,
      "▁(ط": 6983,
      "ْتُل": 6984,
      "▁قض": 6985,
      "▁را": 6986,
      "▁العلوم": 6987,
      "▁\nالش": 6988,
      "َصْح": 6989,
      "▁خزيمة": 6990,
      "▁الْحَاك": 6991,
      "ُرُونَ": 6992,
      "▁دلالة": 6993,
      "عير": 6994,
      "يين": 6995,
      "▁العج": 6996,
      "▁للناس": 6997,
      "▁المصر": 6998,
      "كمل": 6999,
      "اسة": 7000,
      "▁فغ": 7001,
      "▁[الأن": 7002,
      "▁المطلب": 7003,
      "ْلٍ": 7004,
      "ْلَمُونَ": 7005,
      "▁بِهِمْ": 7006,
      "▁عَف": 7007,
      "▁هَذِه": 7008,
      "▁يلت": 7009,
      "لِكَ": 7010,
      "▁وغيرهم.": 7011,
      "▁الدَّر": 7012,
      "▁فين": 7013,
      "▁منذ": 7014,
      "▁وسلم)": 7015,
      "▁الفاعل": 7016,
      "ت.": 7017,
      "▁ثلث": 7018,
      "▁آب": 7019,
      "▁\"ن": 7020,
      "▁ثاني": 7021,
      "ُوبَ": 7022,
      "َّلَ": 7023,
      "▁القياس": 7024,
      "▁عكرمة": 7025,
      "▁الْحَنَفِيَّةِ": 7026,
      "▁الجم": 7027,
      "▁الجه": 7028,
      "▁\"ح": 7029,
      "▁از": 7030,
      "في،": 7031,
      "مييز": 7032,
      "▁تحريم": 7033,
      "▁بِلَا": 7034,
      "▁الْمَب": 7035,
      "▁تَكُونَ": 7036,
      "▁المكان": 7037,
      "َوْز": 7038,
      "َغْر": 7039,
      "يساب": 7040,
      "▁أصله": 7041,
      "ُلُث": 7042,
      "ْعَ": 7043,
      "▁رَجُلًا": 7044,
      "فرة": 7045,
      "▁الثمن": 7046,
      "▁سَبِيل": 7047,
      "ابِع": 7048,
      "▁(لا": 7049,
      "ِلٌ": 7050,
      "▁\nأَمَّا": 7051,
      "▁أنك": 7052,
      "ِيه": 7053,
      "ِفِ": 7054,
      "▁عَمَل": 7055,
      "▁بَش": 7056,
      "▁الجمل": 7057,
      "▁الكلمة": 7058,
      "▁الصَّب": 7059,
      "٩٨": 7060,
      "فهم": 7061,
      "▁ويل": 7062,
      "▁كسر": 7063,
      "حقق": 7064,
      "▁\nالح": 7065,
      "▁النَّا": 7066,
      "▁عَرَف": 7067,
      "َقِ": 7068,
      "▁كَلَام": 7069,
      "اتل": 7070,
      "▁وفيها": 7071,
      "▁الدين،": 7072,
      "▁وتأ": 7073,
      "▁سيبو": 7074,
      "اً}": 7075,
      "▁وَابْن": 7076,
      "▁ونحن": 7077,
      "هاج": 7078,
      "▁\n[٣]": 7079,
      "َاظ": 7080,
      "▁وَان": 7081,
      "▁التَّك": 7082,
      "▁تُو": 7083,
      "▁بُدَّ": 7084,
      "مّا": 7085,
      "ِبٍ": 7086,
      "▁يُؤْمِن": 7087,
      "▁جنا": 7088,
      "ذة": 7089,
      "ضعفاء": 7090,
      "جرد": 7091,
      "كه": 7092,
      "▁والض": 7093,
      "قطاع": 7094,
      "اتهم": 7095,
      "ُلا": 7096,
      "لمه": 7097,
      "▁سَلَمَةَ": 7098,
      "اهم": 7099,
      "▁وتاريخ": 7100,
      "▁الْفَض": 7101,
      "َافَ": 7102,
      "▁رآ": 7103,
      "▁عدا": 7104,
      "افية": 7105,
      "▁حَات": 7106,
      "▁الجاهلية": 7107,
      "▁اليمين": 7108,
      "▁بقية": 7109,
      "▁لِقَوْلِهِ": 7110,
      "مة.": 7111,
      "ُوهَا": 7112,
      "▁\nحدثنا": 7113,
      "▁وَيَج": 7114,
      "▁الخمر": 7115,
      "انيف": 7116,
      "an": 7117,
      "▁وَالأَ": 7118,
      "▁(في": 7119,
      "َنِّف": 7120,
      "▁الحنف": 7121,
      "▁٥٣": 7122,
      "▁العن": 7123,
      "▁انْتَهَى": 7124,
      "▁\nمحمد": 7125,
      "▁عظ": 7126,
      "طى": 7127,
      "▁فَهِيَ": 7128,
      "▁وَقِيلَ": 7129,
      "▁عقب": 7130,
      "▁جِه": 7131,
      "▁علمه": 7132,
      "ِّرُ": 7133,
      "▁واختلف": 7134,
      "▁الرسالة": 7135,
      "▁الباقي": 7136,
      "▁-ص": 7137,
      "صدر": 7138,
      "▁جعله": 7139,
      "َدِّي": 7140,
      "▁الرِّوَاي": 7141,
      "َاحُ": 7142,
      "▁وَلم": 7143,
      "▁المكت": 7144,
      "▁جهن": 7145,
      "▁بدا": 7146,
      "▁قلبه": 7147,
      "▁الْمُج": 7148,
      "▁حَل": 7149,
      "▁٥٨": 7150,
      "َاغ": 7151,
      "▁\nيا": 7152,
      "▁(ش": 7153,
      "▁الْحَافِظ": 7154,
      "صن": 7155,
      "▁أَخَذ": 7156,
      "َحَد": 7157,
      "▁وَمن": 7158,
      "▁الكف": 7159,
      "▁المحر": 7160,
      "▁لِص": 7161,
      "▁(صلى": 7162,
      "▁شرب": 7163,
      "▁\nوما": 7164,
      "▁بو": 7165,
      "▁\nوح": 7166,
      "▁خارج": 7167,
      "▁سلف": 7168,
      "▁قاضي": 7169,
      "حدّ": 7170,
      "▁إذن": 7171,
      "عار": 7172,
      "▁معهم": 7173,
      "▁البغدادي": 7174,
      "▁نصيب": 7175,
      "▁النبلاء": 7176,
      "▁بالفتح": 7177,
      "جرح": 7178,
      "▁«ل": 7179,
      "▁القيم": 7180,
      "مين": 7181,
      "ُمْهُورُ": 7182,
      "▁عبدِ": 7183,
      "▁الفض": 7184,
      "▁الشَّع": 7185,
      "▁الصَّالِح": 7186,
      "َاقَ": 7187,
      "▁خَلَق": 7188,
      "▁المهملة": 7189,
      "َاهِل": 7190,
      "ج،": 7191,
      "▁الساعة": 7192,
      "▁يَمِين": 7193,
      "َمِّ": 7194,
      "▁\nوس": 7195,
      "▁وكتاب": 7196,
      "▁مروان": 7197,
      "▁يَنْب": 7198,
      "▁صنع": 7199,
      "▁سَق": 7200,
      "َوْر": 7201,
      "آي": 7202,
      "▁عندنا": 7203,
      "▁الْمُض": 7204,
      "َأْتِي": 7205,
      "َوَاب": 7206,
      "▁الْعِب": 7207,
      "قوا": 7208,
      "▁كت": 7209,
      "▁الحرام": 7210,
      "وّل": 7211,
      "اءَ": 7212,
      "▁فَلَيْسَ": 7213,
      "▁السَّف": 7214,
      "ُصُول": 7215,
      "▁صاحبه": 7216,
      "▁«٤»": 7217,
      "ئه": 7218,
      "▁الحس": 7219,
      "▁المرو": 7220,
      "▁إلاّ": 7221,
      "▁محمّد": 7222,
      "▁آن": 7223,
      "▁[الأ": 7224,
      "▁طائفة": 7225,
      "▁أريد": 7226,
      "▁\n١٥": 7227,
      "▁وقر": 7228,
      "▁\"،": 7229,
      "ُولَى": 7230,
      "ربية": 7231,
      "▁سَي": 7232,
      "ز،": 7233,
      "طأ": 7234,
      "▁أولاد": 7235,
      "ُ)": 7236,
      "▁أَتَى": 7237,
      "▁ببعض": 7238,
      "▁أصح": 7239,
      "▁الشريعة": 7240,
      "َذِّب": 7241,
      "▁الْقِيَامَةِ": 7242,
      "▁خلقه": 7243,
      "▁\nالْم": 7244,
      "ٍّ،": 7245,
      "ُورٌ": 7246,
      "▁بَابِ": 7247,
      "▁بها.": 7248,
      "▁وَالز": 7249,
      "▁الأندل": 7250,
      "ِبْ": 7251,
      "▁الطالبين": 7252,
      "▁التقدير": 7253,
      "▁بحر": 7254,
      "ّف": 7255,
      "ِرٌ": 7256,
      "ثُمَّ": 7257,
      "كُمُ": 7258,
      "▁بطن": 7259,
      "▁يشهد": 7260,
      "فهوم": 7261,
      "▁\"إذا": 7262,
      "▁نفسي": 7263,
      "▁لَز": 7264,
      "ْطِ": 7265,
      "▁تَكُونُ": 7266,
      "حمه": 7267,
      "▁العهد": 7268,
      "▁عَشَرَ": 7269,
      "فاد": 7270,
      "▁أَهْلُ": 7271,
      "▁بلفظ:": 7272,
      "▁المعاني": 7273,
      "▁فَفِي": 7274,
      "▁يَزِيدَ": 7275,
      "▁جَب": 7276,
      "شيد": 7277,
      "ضو": 7278,
      "ائهم": 7279,
      "▁ويحتمل": 7280,
      "▁نشر": 7281,
      "؟!": 7282,
      "▁تسم": 7283,
      "▁الأَْر": 7284,
      "▁الْبَائ": 7285,
      "▁عِنْدَهُمْ": 7286,
      "▁لَعَلَّ": 7287,
      "َثْبُتُ": 7288,
      "▁يصلح": 7289,
      "▁الأَْم": 7290,
      "▁طَرِيق": 7291,
      "▁حياة": 7292,
      "▁َ": 7293,
      "▁يُرِيدُ": 7294,
      "▁والتح": 7295,
      "ّار": 7296,
      "▁وخرج": 7297,
      "▁فأخبر": 7298,
      "▁نه": 7299,
      "▁المُ": 7300,
      "َاطِ": 7301,
      "▁\nوَذَهَبَ": 7302,
      "الية": 7303,
      "▁وَلَهُ": 7304,
      "▁وَتَع": 7305,
      "▁الدم": 7306,
      "▁الْوُضُو": 7307,
      "▁الاعت": 7308,
      "▁داود،": 7309,
      "▁مِثْلُ": 7310,
      "▁النخ": 7311,
      "▁المي": 7312,
      "▁الْقُرْآن": 7313,
      "▁ستة": 7314,
      "َتِي": 7315,
      "▁الانت": 7316,
      "ور.": 7317,
      "َصْد": 7318,
      "▁وَجَبَ": 7319,
      "▁أولئك": 7320,
      "قاء": 7321,
      "▁النَّظ": 7322,
      "▁حنيف": 7323,
      "َتَانِ": 7324,
      "▁الترك": 7325,
      "▁طرف": 7326,
      "▁شا": 7327,
      "▁٥٤": 7328,
      "َلْب": 7329,
      "ضَ": 7330,
      "▁ورأ": 7331,
      "▁شهادة": 7332,
      "▁شَك": 7333,
      "▁أنتم": 7334,
      "▁مولا": 7335,
      "ُّلُث": 7336,
      "▁مواضع": 7337,
      "▁تَن": 7338,
      "▁يخفى": 7339,
      "▁الشريف": 7340,
      "▁وجع": 7341,
      "صلاح": 7342,
      "▁وأكثر": 7343,
      "▁بِمَعْنَى": 7344,
      "▁بحسب": 7345,
      "▁القرن": 7346,
      "▁يُل": 7347,
      "▁أُج": 7348,
      "▁أَنْز": 7349,
      "دخل": 7350,
      "▁«من": 7351,
      "مائة.": 7352,
      "ري:": 7353,
      "َرْش": 7354,
      "جاء": 7355,
      "َوْت": 7356,
      "▁الوقف": 7357,
      "▁النبيّ": 7358,
      "▁العامة": 7359,
      "بالغة": 7360,
      "▁رَبِّكَ": 7361,
      "▁والصواب": 7362,
      "ْقَ": 7363,
      "ْرِيف": 7364,
      "▁نكاح": 7365,
      "▁أذن": 7366,
      "▁\nأَخ": 7367,
      "▁الفكر": 7368,
      "▁بِالْف": 7369,
      "▁تزوج": 7370,
      "▁[الم": 7371,
      "▁فَيَكُونُ": 7372,
      "▁...\"": 7373,
      "▁فِى": 7374,
      "▁[الن": 7375,
      "▁عُي": 7376,
      "▁تَط": 7377,
      "ُهَا،": 7378,
      "▁عج": 7379,
      "▁يَوْمِ": 7380,
      "آت": 7381,
      "▁تأويل": 7382,
      "▁وكانوا": 7383,
      "▁هلال": 7384,
      "▁للط": 7385,
      "▁{ك": 7386,
      "▁يضر": 7387,
      "▁حرام": 7388,
      "▁غيرها": 7389,
      "▁شَيْب": 7390,
      "▁عُمَرَ،": 7391,
      "ونهم": 7392,
      "ِرًا": 7393,
      "▁وَجْهِ": 7394,
      "▁(قال": 7395,
      "وضأ": 7396,
      "▁ومات": 7397,
      "َرْع": 7398,
      "ناك": 7399,
      "زاب": 7400,
      "تني": 7401,
      "▁الباء": 7402,
      "ُرُّ": 7403,
      "نساء:": 7404,
      "َبَتْ": 7405,
      "▁شيء،": 7406,
      "▁سعيد،": 7407,
      "٩٥": 7408,
      "▁خليفة": 7409,
      "▁تُس": 7410,
      "▁عَاد": 7411,
      "▁الْمَيِّ": 7412,
      "▁نك": 7413,
      "▁صفات": 7414,
      "فْسِهِ": 7415,
      "َاهُمَا": 7416,
      "بَ": 7417,
      "ْتِق": 7418,
      "َلَّم": 7419,
      "▁عِبَاد": 7420,
      "▁النَّه": 7421,
      "▁الأربع": 7422,
      "▁الْمَسْأَل": 7423,
      "▁فذكره.": 7424,
      "▁مُك": 7425,
      "▁١١/": 7426,
      "▁(ز)": 7427,
      "▁وَالْحَنَابِلَةُ": 7428,
      "▁الْأَعْم": 7429,
      "▁يض": 7430,
      "ِيقُ": 7431,
      "▁آلاف": 7432,
      "َابِع": 7433,
      "▁أَرْس": 7434,
      "▁ثواب": 7435,
      "▁أَخْذ": 7436,
      "َرُونَ": 7437,
      "▁التَّح": 7438,
      "▁هَد": 7439,
      "ْعُو": 7440,
      "▁الزمخشري": 7441,
      "▁الآية.": 7442,
      "▁عِ": 7443,
      "ول:": 7444,
      "▁يَمْلِك": 7445,
      "▁بنفس": 7446,
      "▁النهاية": 7447,
      "▁مَعْنَاهُ": 7448,
      "▁يَدَيْهِ": 7449,
      "▁لبعض": 7450,
      "▁عقبة": 7451,
      "▁ولعل": 7452,
      "▁شَهِد": 7453,
      "▁إِبْرَاهِيم": 7454,
      "▁الشَّا": 7455,
      "▁المفعول": 7456,
      "ْئ": 7457,
      "▁رسولُ": 7458,
      "▁تَقْد": 7459,
      "ُبُ": 7460,
      "▁للد": 7461,
      "▁الثَّم": 7462,
      "▁[٦": 7463,
      "▁حَدث": 7464,
      "▁بَيْنَهُمْ": 7465,
      "ثْب": 7466,
      "▁سنة،": 7467,
      "▁شئت": 7468,
      "▁لِأَنَّهَا": 7469,
      "▁\"ر": 7470,
      "on": 7471,
      "َاقُ": 7472,
      "▁بف": 7473,
      "امعة": 7474,
      "واق": 7475,
      "▁المعارف": 7476,
      "▁النحو": 7477,
      "َةٌ.": 7478,
      "▁عباس،": 7479,
      "▁العدو": 7480,
      "▁وَلَكِنَّ": 7481,
      "▁سئل": 7482,
      "▁جرى": 7483,
      "▁ألم": 7484,
      "▁عُثْمَانَ": 7485,
      "▁الخامس": 7486,
      "▁النبى": 7487,
      "َدَل": 7488,
      "▁{وَمَا": 7489,
      "▁شَرِي": 7490,
      "▁رجاله": 7491,
      "▁الْعُلَم": 7492,
      "▁فذلك": 7493,
      "▁والحسن": 7494,
      "راً،": 7495,
      "نبي": 7496,
      "َيْرٍ": 7497,
      "َامِ،": 7498,
      "ْقُط": 7499,
      "▁القتل": 7500,
      "همَا": 7501,
      "▁سبعة": 7502,
      "رة.": 7503,
      "▁القلوب": 7504,
      "▁الحيوان": 7505,
      "▁«ع": 7506,
      "▁المب": 7507,
      "▁(ح)": 7508,
      "▁لين": 7509,
      "▁والآ": 7510,
      "تكم": 7511,
      "▁الأنعام": 7512,
      "▁الْعَل": 7513,
      "وسي": 7514,
      "حاك": 7515,
      "▁الْحَقِّ": 7516,
      "▁الضَّ": 7517,
      "▁ء": 7518,
      "▁أُر": 7519,
      "▁الْقَاسِمِ": 7520,
      "▁[٣": 7521,
      "ْحُ": 7522,
      "▁مغني": 7523,
      "▁الْجِن": 7524,
      "ْظُرْ": 7525,
      "▁دِرْهَم": 7526,
      "▁الرَّب": 7527,
      "▁لِأَن": 7528,
      "▁نار": 7529,
      "▁(٢٠": 7530,
      "ْتَضِي": 7531,
      "س:": 7532,
      "َلَمْ": 7533,
      "▁\n[ال": 7534,
      "▁جده": 7535,
      "▁القاهرة": 7536,
      "▁الفقيه": 7537,
      "▁انْق": 7538,
      "▁السير": 7539,
      "▁العرا": 7540,
      "تهاد": 7541,
      "٧٦": 7542,
      "▁وسلم-:": 7543,
      "▁أرى": 7544,
      "▁بالا": 7545,
      "مشقي": 7546,
      "▁أُمِّ": 7547,
      "▁ثَبَتَ": 7548,
      "▁سَف": 7549,
      "اموس": 7550,
      "بغداد": 7551,
      "▁الْمُك": 7552,
      "▁متفق": 7553,
      "▁لأهل": 7554,
      "مَنْ": 7555,
      "▁الآثار": 7556,
      "▁الأول،": 7557,
      "▁كنتم": 7558,
      "▁عَدَمِ": 7559,
      "▁العراق": 7560,
      "▁بالحق": 7561,
      "▁الْحَك": 7562,
      "▁بِث": 7563,
      "سى": 7564,
      "▁أنكر": 7565,
      "تَيْنِ": 7566,
      "▁يرج": 7567,
      "طبعة": 7568,
      "▁وكيف": 7569,
      "▁أَخَذَ": 7570,
      "املة": 7571,
      "ُوز": 7572,
      "▁جُم": 7573,
      "▁يراد": 7574,
      "▁كثيرا": 7575,
      "▁هو:": 7576,
      "َقَالَ": 7577,
      "▁أشبه": 7578,
      "ف:": 7579,
      "▁وَيَت": 7580,
      "ِيمٍ": 7581,
      "▁مقاتل": 7582,
      "▁السف": 7583,
      "▁\nوَه": 7584,
      "▁لَأ": 7585,
      "▁إِحْد": 7586,
      "غرب": 7587,
      "َارَةُ": 7588,
      "▁المشتري": 7589,
      "▁الْخَب": 7590,
      "ْجَم": 7591,
      "َالِم": 7592,
      "▁الهاء": 7593,
      "▁واد": 7594,
      "▁الْحَاج": 7595,
      "َرْي": 7596,
      "ُدْر": 7597,
      "▁مُجَاهِد": 7598,
      "▁الإجماع": 7599,
      "ِبًا": 7600,
      "▁\nوقرأ": 7601,
      "▁التأويل": 7602,
      "رخ": 7603,
      "▁يَذْك": 7604,
      "▁\n{ف": 7605,
      "▁اللهَ": 7606,
      "▁حمد": 7607,
      "َبُو": 7608,
      "ب.": 7609,
      "▁السَّمَاو": 7610,
      "▁واله": 7611,
      "▁اختيار": 7612,
      "▁تُب": 7613,
      "▁المجموع": 7614,
      "نو": 7615,
      "▁الفس": 7616,
      "واهد": 7617,
      "▁\nوَإِنْ": 7618,
      "▁الأرض،": 7619,
      "▁فإنّ": 7620,
      "▁بذكر": 7621,
      "▁يكره": 7622,
      "▁وأش": 7623,
      "▁استئ": 7624,
      "▁فَأَت": 7625,
      "▁كَو": 7626,
      "سبه": 7627,
      "▁أنبأنا": 7628,
      "▁عَبد": 7629,
      "َالِي": 7630,
      "طفى": 7631,
      "▁دخول": 7632,
      "▁ركعت": 7633,
      "▁المغيرة": 7634,
      "▁أحق": 7635,
      "▁\"الإ": 7636,
      "َرَى": 7637,
      "▁سوء": 7638,
      "وافق": 7639,
      "▁الزجاج": 7640,
      "▁وَأَنَا": 7641,
      "▁يشاء": 7642,
      "عة،": 7643,
      "ِيهِمْ": 7644,
      "▁الدعوة": 7645,
      "▁أهم": 7646,
      "▁\nوَر": 7647,
      "▁لعدم": 7648,
      "▁ذَلِكَ.": 7649,
      "▁بِذ": 7650,
      "▁الطَّع": 7651,
      "▁الْكَب": 7652,
      "ْفِي": 7653,
      "▁سُفْيَان": 7654,
      "▁قائم": 7655,
      "▁جَعَلَ": 7656,
      "▁ومج": 7657,
      "▁التقريب": 7658,
      "▁مَثَل": 7659,
      "▁بِسَب": 7660,
      "لة،": 7661,
      "زول": 7662,
      "▁الْإِي": 7663,
      "َارَك": 7664,
      "▁(٩/": 7665,
      "▁يسير": 7666,
      "▁لُغ": 7667,
      "▁بَاط": 7668,
      "▁\"تفسير": 7669,
      "▁نقله": 7670,
      "▁أخيه": 7671,
      "▁شَيْخ": 7672,
      "▁عَلِيِّ": 7673,
      "▁قلوبهم": 7674,
      "▁تعلق": 7675,
      "▁الْمَاءِ": 7676,
      "▁بَن": 7677,
      "زو": 7678,
      "*)": 7679,
      "▁نش": 7680,
      "▁باعتبار": 7681,
      "▁قائل": 7682,
      "▁(وال": 7683,
      "▁أَرْض": 7684,
      "▁قرية": 7685,
      "▁هذ": 7686,
      "ذرات": 7687,
      "▁١.": 7688,
      "َرًا": 7689,
      "▁رض": 7690,
      "▁والجمع": 7691,
      "▁١٤٠": 7692,
      "لية،": 7693,
      "فك": 7694,
      "انظر": 7695,
      "َفَعَ": 7696,
      "▁لا،": 7697,
      "▁وَالط": 7698,
      "▁يدعو": 7699,
      "▁تُن": 7700,
      "َاحَ": 7701,
      "▁اللهِ،": 7702,
      "▁ولفظ": 7703,
      "ِسْع": 7704,
      "▁إسلام": 7705,
      "▁التَّم": 7706,
      "▁دَيْن": 7707,
      "▁الاِسْت": 7708,
      "غْنِي": 7709,
      "▁إِلَيْكَ": 7710,
      "▁\nالر": 7711,
      "▁مرسل": 7712,
      "▁يَأْت": 7713,
      "اوز": 7714,
      "▁«الم": 7715,
      "\n[": 7716,
      "▁جهل": 7717,
      "▁يقطع": 7718,
      "ّان": 7719,
      "▁مَه": 7720,
      "طاع": 7721,
      "ْعَث": 7722,
      "▁قالا:": 7723,
      "▁عليهم،": 7724,
      "▁بالف": 7725,
      "▁المحت": 7726,
      "ِّينَ": 7727,
      "▁فرد": 7728,
      "▁الْحَال": 7729,
      "▁الرد": 7730,
      "▁معلوم": 7731,
      "ْرَب": 7732,
      "▁سفر": 7733,
      "▁لها،": 7734,
      "دعاء": 7735,
      "▁خَاص": 7736,
      "له:": 7737,
      "وع،": 7738,
      "ئر": 7739,
      "▁اللَّفْظ": 7740,
      "وسى": 7741,
      "▁يتب": 7742,
      "▁ذِكْر": 7743,
      "▁عطية": 7744,
      "▁وتهذيب": 7745,
      "▁الجميع": 7746,
      "سَ": 7747,
      "▁أَض": 7748,
      "▁الْحَسَنُ": 7749,
      "▁الأعراب": 7750,
      "ور:": 7751,
      "▁جَائِز": 7752,
      "تة": 7753,
      "▁حسان": 7754,
      "▁ظهور": 7755,
      "▁وانت": 7756,
      "ِلُونَ": 7757,
      "▁أهلها": 7758,
      "َجُل": 7759,
      "▁الظَّاهِر": 7760,
      "▁طول": 7761,
      "▁يوما": 7762,
      "▁مَنْصُور": 7763,
      "ورة،": 7764,
      "\n(": 7765,
      "▁صوت": 7766,
      "▁الأخبار": 7767,
      "▁الاحت": 7768,
      "▁\"في": 7769,
      "▁ثَوْب": 7770,
      "▁مشت": 7771,
      "َسْرِ": 7772,
      "ُوتِ": 7773,
      "▁المظ": 7774,
      "▁اللَّيْث": 7775,
      "▁قِب": 7776,
      "تمام": 7777,
      "▁الخروج": 7778,
      "▁السلط": 7779,
      "▁ط/": 7780,
      "أنيث": 7781,
      "▁السَّر": 7782,
      "▁الثلث": 7783,
      "واري": 7784,
      "ْيَةِ": 7785,
      "▁يَنْق": 7786,
      "نَعُ": 7787,
      "الا": 7788,
      "▁قَامَ": 7789,
      "▁وَات": 7790,
      "َرْق": 7791,
      "▁فرو": 7792,
      "▁وغيره.": 7793,
      "▁لئلا": 7794,
      "▁كُنْتُ": 7795,
      "▁قُرَيْ": 7796,
      "▁التابع": 7797,
      "▁مسائل": 7798,
      "▁إنك": 7799,
      "▁فيقول:": 7800,
      "▁\nولو": 7801,
      "▁يفت": 7802,
      "▁٢.": 7803,
      "▁اف": 7804,
      "▁صدقة": 7805,
      "▁(ما": 7806,
      "▁أسباب": 7807,
      "▁تَض": 7808,
      "▁الْعَرَب": 7809,
      "▁فَاع": 7810,
      "▁الأغ": 7811,
      "▁عَلَيْنَا": 7812,
      "▁ذكرت": 7813,
      "بته": 7814,
      "▁أَيْضا": 7815,
      "َافِق": 7816,
      "▁زكريا": 7817,
      "معت": 7818,
      "٥٢": 7819,
      "▁فَلَهُ": 7820,
      "▁ش:": 7821,
      "ثى": 7822,
      "▁لولا": 7823,
      "َّتِهِ": 7824,
      "▁سبي": 7825,
      "▁فإنهم": 7826,
      "▁علمت": 7827,
      "ليك": 7828,
      "▁نُس": 7829,
      "▁الْمُشْرِك": 7830,
      "حوا": 7831,
      "٨٣": 7832,
      "▁والمت": 7833,
      "▁وروي": 7834,
      "نار": 7835,
      "▁بمكة": 7836,
      "▁هاشم": 7837,
      "▁يسلم": 7838,
      "ّع": 7839,
      "▁يستحق": 7840,
      "▁بنا": 7841,
      "▁الأست": 7842,
      "▁ولأ": 7843,
      "▁العرب،": 7844,
      "▁التاء": 7845,
      "▁كذ": 7846,
      "▁غَس": 7847,
      "▁عياض": 7848,
      "▁«لا": 7849,
      "▁مجموع": 7850,
      "▁ثمن": 7851,
      "هر،": 7852,
      "▁المطلق": 7853,
      "ْلَمْ": 7854,
      "والي": 7855,
      "▁\"كان": 7856,
      "▁مكتبة": 7857,
      "▁الأمم": 7858,
      "▁اعتبار": 7859,
      "▁درهم": 7860,
      "▁الوجود": 7861,
      "ولده": 7862,
      "▁تجد": 7863,
      "▁نِك": 7864,
      "داب": 7865,
      "▁خب": 7866,
      "▁بدائع": 7867,
      "َدِيثِ": 7868,
      "▁الْكَر": 7869,
      "دد": 7870,
      "▁ضَعِيف": 7871,
      "▁كِتَابِ": 7872,
      "ْتِب": 7873,
      "▁\nوذكر": 7874,
      "ورِ": 7875,
      "▁ومائ": 7876,
      "٥١": 7877,
      "ِّه": 7878,
      "َّارِ": 7879,
      "▁الهداية": 7880,
      "▁الْمُط": 7881,
      "▁رَأَى": 7882,
      "َهِ": 7883,
      "▁كافر": 7884,
      "▁البائع": 7885,
      "▁حُس": 7886,
      "▁وَعَلَيْهِ": 7887,
      "ذم": 7888,
      "▁الشَّه": 7889,
      "▁ماجة": 7890,
      "▁أمية": 7891,
      "▁ابنِ": 7892,
      "راسة": 7893,
      "ُّ:": 7894,
      "▁سؤال": 7895,
      "▁الْوُج": 7896,
      "▁الجنس": 7897,
      "ْدٍ": 7898,
      "▁[النساء:": 7899,
      "▁وقعت": 7900,
      "▁وَظ": 7901,
      "▁تقت": 7902,
      "▁بِالد": 7903,
      "▁التَّأ": 7904,
      "▁أعم": 7905,
      "خلاص": 7906,
      "بقى": 7907,
      "▁تكر": 7908,
      "قية": 7909,
      "▁أَنْب": 7910,
      "▁تل": 7911,
      "٥٤": 7912,
      "▁وتوفي": 7913,
      "وكل": 7914,
      "غار": 7915,
      "▁سُو": 7916,
      "▁للز": 7917,
      "َيْنِ:": 7918,
      "يراث": 7919,
      "▁يبقى": 7920,
      "▁العبادة": 7921,
      "▁أخبرَنا": 7922,
      "▁مَوْضِع": 7923,
      "▁بِشَيْ": 7924,
      "▁حما": 7925,
      "َّص": 7926,
      "َنْصَار": 7927,
      "▁\nالع": 7928,
      "▁الْمَلِك": 7929,
      "▁يزل": 7930,
      "▁الإك": 7931,
      "َاسِ": 7932,
      "٥٣": 7933,
      "▁يأت": 7934,
      "قرب": 7935,
      "▁بنفسه": 7936,
      "▁نُع": 7937,
      "▁بُر": 7938,
      "▁رَبِّي": 7939,
      "▁غلب": 7940,
      "▁أربعين": 7941,
      "▁جميعا": 7942,
      "سلمين": 7943,
      "هدى": 7944,
      "▁واللفظ": 7945,
      "▁واب": 7946,
      "▁وغيره،": 7947,
      "▁والشافع": 7948,
      "َائِف": 7949,
      "ذِينَ": 7950,
      "▁يسمى": 7951,
      "َدَّر": 7952,
      "▁يَقُولُونَ": 7953,
      "▁الصفات": 7954,
      "▁الثالثة": 7955,
      "ِيط": 7956,
      "▁إح": 7957,
      "▁(٨)": 7958,
      "▁لعبد": 7959,
      "▁صغير": 7960,
      "▁عامة": 7961,
      "ْلُوم": 7962,
      "▁الذِّم": 7963,
      "▁وغيرها": 7964,
      "▁أمه": 7965,
      "▁وأبا": 7966,
      "▁التوراة": 7967,
      "▁قَيْس": 7968,
      "▁الوحي": 7969,
      "ويد": 7970,
      "وَط": 7971,
      "٨/": 7972,
      "ِحُ": 7973,
      "▁النح": 7974,
      "فوظ": 7975,
      "▁الثوري": 7976,
      "َةَ.": 7977,
      "▁النصر": 7978,
      "كملة": 7979,
      "▁وَالإِ": 7980,
      "▁تقوم": 7981,
      "▁شِئ": 7982,
      "▁العدل": 7983,
      "▁مَلَك": 7984,
      "ْتِر": 7985,
      "▁ظرف": 7986,
      "▁لاب": 7987,
      "▁الحلبي)": 7988,
      "▁فكل": 7989,
      "▁تعرف": 7990,
      "▁الإح": 7991,
      "▁غَف": 7992,
      "▁بدليل": 7993,
      "ل\"": 7994,
      "▁فَاس": 7995,
      "غيب": 7996,
      "▁ميت": 7997,
      "▁جزاء": 7998,
      "▁هَؤُلَاءِ": 7999,
      "▁النَّق": 8000,
      "ِدِينَ": 8001,
      "▁قبي": 8002,
      "▁الصفة": 8003,
      "▁ليل": 8004,
      "▁\nرواه": 8005,
      "▁المعرفة": 8006,
      "▁المتقدم": 8007,
      "همْ": 8008,
      "لاط": 8009,
      "▁الْعَقْدِ": 8010,
      "َكِّل": 8011,
      "راش": 8012,
      "ون)": 8013,
      "َيَّد": 8014,
      "▁عَلَيْهِ.": 8015,
      "ون}": 8016,
      "ْرَائ": 8017,
      "▁قَلِيل": 8018,
      "▁لنفسه": 8019,
      "▁\nوَا": 8020,
      "▁{ت": 8021,
      "▁وربما": 8022,
      "▁رسالة": 8023,
      "▁-ع": 8024,
      "▁وثلاثين": 8025,
      "▁الشهادة": 8026,
      "▁لقي": 8027,
      "حاب": 8028,
      "▁دَاوُدَ": 8029,
      "ّت": 8030,
      "▁ثِق": 8031,
      "▁الأثير": 8032,
      "▁\nوَمِنْ": 8033,
      "َّلَاث": 8034,
      "▁سُم": 8035,
      "▁-و": 8036,
      "▁مهر": 8037,
      "تيان": 8038,
      "▁محا": 8039,
      "َنَّا": 8040,
      "▁ببغداد": 8041,
      "▁اكت": 8042,
      "▁المفرد": 8043,
      "▁يطلق": 8044,
      "▁حَقِيق": 8045,
      "ُولَ": 8046,
      "▁بنحو": 8047,
      "ذاهب": 8048,
      "▁عِد": 8049,
      "▁الْجَنَّةِ": 8050,
      "بض": 8051,
      "▁نوا": 8052,
      "ْتَبَرُ": 8053,
      "▁الترا": 8054,
      "▁مُسْلِمٍ": 8055,
      "...": 8056,
      "▁تصانيف": 8057,
      "▁يَعْلَمُ": 8058,
      "▁يعبد": 8059,
      "٧٩": 8060,
      "▁لِلْق": 8061,
      "▁الدنيا،": 8062,
      "َانَا": 8063,
      "▁الوصف": 8064,
      "اصي": 8065,
      "الله": 8066,
      "▁الفي": 8067,
      "▁فاح": 8068,
      "َبْدُ": 8069,
      "حدثني": 8070,
      "▁١-": 8071,
      "ماً،": 8072,
      "▁أذ": 8073,
      "▁حتّى": 8074,
      "▁عني": 8075,
      "▁حض": 8076,
      "▁أحدا": 8077,
      "▁إِلَيَّ": 8078,
      "بيين": 8079,
      "فعله": 8080,
      "▁كَقَوْل": 8081,
      "٦٩": 8082,
      "َرَّحَ": 8083,
      "▁للخ": 8084,
      "▁الأصل،": 8085,
      "ُرَيْج": 8086,
      "▁يشترط": 8087,
      "▁فسر": 8088,
      "▁الصحاب": 8089,
      "▁يحرم": 8090,
      "▁فَار": 8091,
      "▁صَاحِبُ": 8092,
      "▁أَعْط": 8093,
      "▁يَنْبَغِي": 8094,
      "َا:": 8095,
      "إنسان": 8096,
      "جال": 8097,
      "▁كثرة": 8098,
      "▁\nورواه": 8099,
      "فرع": 8100,
      "▁فقام": 8101,
      "▁السبب": 8102,
      "▁أقام": 8103,
      "▁الصَّف": 8104,
      "صلحة": 8105,
      "زد": 8106,
      "▁حاز": 8107,
      "▁ته": 8108,
      "ثي": 8109,
      "▁بات": 8110,
      "▁الْحَرْب": 8111,
      "▁الْحُر": 8112,
      "▁الكذب": 8113,
      "▁قيمة": 8114,
      "▁الْعَام": 8115,
      "درسة": 8116,
      "▁الخوف": 8117,
      "▁ربي": 8118,
      "▁موقوف": 8119,
      "ُونَهُ": 8120,
      "ِيَةُ": 8121,
      "▁وَالله": 8122,
      "▁إِلَيْهَا": 8123,
      "▁خل": 8124,
      "▁إِسْمَاعِيل": 8125,
      "َرَأَ": 8126,
      "▁البعث": 8127,
      "▁\n١٨": 8128,
      "▁الصوم": 8129,
      "▁\nوالثاني:": 8130,
      "َيْث": 8131,
      "▁يَوْمٍ": 8132,
      "كمة": 8133,
      "▁مجلس": 8134,
      "ئِلَ": 8135,
      "▁الرَّأ": 8136,
      "▁حافظ": 8137,
      "▁إلينا": 8138,
      "دي.": 8139,
      "▁التَّن": 8140,
      "َدْرِ": 8141,
      "▁زهير": 8142,
      "▁(أن": 8143,
      "ِمْر": 8144,
      "▁صـ": 8145,
      "▁النق": 8146,
      "جاع": 8147,
      "َابٍ": 8148,
      "▁الْحُسَيْن": 8149,
      "▁طاعة": 8150,
      "▁يشبه": 8151,
      "َةٍ.": 8152,
      "▁\nالص": 8153,
      "▁فَات": 8154,
      "▁صفحة": 8155,
      "▁فأنزل": 8156,
      "▁حَدِيثٌ": 8157,
      "▁مخلو": 8158,
      "▁تجب": 8159,
      "ُبَّ": 8160,
      "َبَةِ": 8161,
      "سبح": 8162,
      "▁[٤": 8163,
      "فية": 8164,
      "▁قصر": 8165,
      "▁المنت": 8166,
      "▁المل": 8167,
      "▁القطع": 8168,
      "▁ضد": 8169,
      "▁فقالت": 8170,
      "٥-": 8171,
      "▁الكاف": 8172,
      "َاجِ": 8173,
      "▁الموضوع": 8174,
      "▁إياه": 8175,
      "زِل": 8176,
      "▁وَحْد": 8177,
      "▁يدفع": 8178,
      "▁\n١٩": 8179,
      "▁ثقة،": 8180,
      "▁الفتاوى": 8181,
      "▁\nالن": 8182,
      "فقة": 8183,
      "▁سيأتي": 8184,
      "جموعة": 8185,
      "▁الْأَمْر": 8186,
      "▁الطّ": 8187,
      "▁السَّمَاءِ": 8188,
      "احة": 8189,
      "▁زائدة": 8190,
      "▁الْبَح": 8191,
      "▁يحكم": 8192,
      "ْرِهِ": 8193,
      "▁الأعمش": 8194,
      "▁الْمَالِ": 8195,
      "▁كه": 8196,
      "▁النَّفْس": 8197,
      "▁عَلِم": 8198,
      "▁بمح": 8199,
      "َّاهُ": 8200,
      "هاً": 8201,
      "▁الأموال": 8202,
      "▁عصر": 8203,
      "▁خلال": 8204,
      "es": 8205,
      "▁وجل:": 8206,
      "▁يترك": 8207,
      "▁قضى": 8208,
      "َامًا": 8209,
      "▁السَّاع": 8210,
      "▁السِّ": 8211,
      "َاتِ،": 8212,
      "ِينٍ": 8213,
      "▁\"ص": 8214,
      "ايا": 8215,
      "تبه": 8216,
      "▁الإسلامي": 8217,
      "▁بِالْج": 8218,
      "كف": 8219,
      "▁الْأَوَّلِ": 8220,
      "▁شرك": 8221,
      "▁فَهَذَا": 8222,
      "ئن": 8223,
      "en": 8224,
      "▁١٢/": 8225,
      "▁جَل": 8226,
      "▁الحفاظ": 8227,
      "▁السمع": 8228,
      "▁تبارك": 8229,
      "▁عُل": 8230,
      "َمْرِ": 8231,
      "▁لِلْو": 8232,
      "▁يَوْمًا": 8233,
      "▁مقال": 8234,
      "كتور": 8235,
      "الث:": 8236,
      "▁البصر": 8237,
      "جري": 8238,
      "حمر": 8239,
      "▁قتله": 8240,
      "▁يَنْف": 8241,
      "▁بِه": 8242,
      "▁بتح": 8243,
      "▁الصَّلَاةُ": 8244,
      "▁يختلف": 8245,
      "▁مشهور": 8246,
      "ْكَ": 8247,
      "ْطِلا": 8248,
      "▁مَكَّةَ": 8249,
      "▁يدرك": 8250,
      "▁(أ)": 8251,
      "ُنَ": 8252,
      "▁القرشي": 8253,
      "َرْس": 8254,
      "▁لهم،": 8255,
      "َارِهِ": 8256,
      "َجْهُ": 8257,
      "ِهَا.": 8258,
      "▁شيوخ": 8259,
      "َّةَ،": 8260,
      "ُونِي": 8261,
      "يمان،": 8262,
      "▁فط": 8263,
      "▁وَالِ": 8264,
      "ثه": 8265,
      "▁الزوائد": 8266,
      "ْلُغ": 8267,
      "ِيمَةِ": 8268,
      "▁للف": 8269,
      "ُدُ": 8270,
      "▁تَفْس": 8271,
      "ثق": 8272,
      "▁يُشْتَرَطُ": 8273,
      "▁حظ": 8274,
      "▁جَمَاع": 8275,
      "ِعْم": 8276,
      "▁ويحيى": 8277,
      "▁\nولم": 8278,
      "▁الإي": 8279,
      "▁الْإِمَامُ": 8280,
      "▁رجب": 8281,
      "▁بَص": 8282,
      "▁سَع": 8283,
      "َّج": 8284,
      "▁عوض": 8285,
      "▁فعلت": 8286,
      "▁الشَّار": 8287,
      "▁انق": 8288,
      "َرَّم": 8289,
      "ْزِئ": 8290,
      "▁لهذه": 8291,
      "ُدُّ": 8292,
      "▁المتوفى": 8293,
      "▁-صَلَّى": 8294,
      "▁نزول": 8295,
      "▁ففيه": 8296,
      "▁حسنا": 8297,
      "▁طَو": 8298,
      "▁رَأَيْت": 8299,
      "▁الروايات": 8300,
      "َرْتُ": 8301,
      "▁ياء": 8302,
      "ذيفة": 8303,
      "▁سار": 8304,
      "▁أحي": 8305,
      "▁يَخْرُجُ": 8306,
      "ِيحُ": 8307,
      "▁لاست": 8308,
      "ليت": 8309,
      "▁ذكرها": 8310,
      "▁نعت": 8311,
      "▁ذَر": 8312,
      "▁فرغ": 8313,
      "▁واضح": 8314,
      "▁مراد": 8315,
      "هِ،": 8316,
      "ِتْنَ": 8317,
      "▁العلم،": 8318,
      "▁الحميد": 8319,
      "▁وَالسَّل": 8320,
      "▁الألفاظ": 8321,
      "صحف": 8322,
      "تعليق": 8323,
      "ارئ": 8324,
      "هـ)": 8325,
      "▁زوجها": 8326,
      "▁ريح": 8327,
      "▁القط": 8328,
      "▁خُل": 8329,
      "▁كشاف": 8330,
      "▁المدني": 8331,
      "صم": 8332,
      "ِيَّةٌ": 8333,
      "▁إسحاق،": 8334,
      "▁فيها.": 8335,
      "انية،": 8336,
      "▁\nأحدهما:": 8337,
      "▁قِرَاء": 8338,
      "▁تخرج": 8339,
      "روط": 8340,
      "▁أَحْك": 8341,
      "▁يصير": 8342,
      "قوط": 8343,
      "▁نعم،": 8344,
      "▁لِلش": 8345,
      "▁نفع": 8346,
      "ْتَهُ": 8347,
      "ُرُوا": 8348,
      "▁صرف": 8349,
      "▁بعضهم:": 8350,
      "▁فارس": 8351,
      "▁قَائِم": 8352,
      "َعْط": 8353,
      "َته": 8354,
      "▁وجماعة": 8355,
      "▁الأَْوَّل": 8356,
      "ْرَبُ": 8357,
      "وة،": 8358,
      "▁كُف": 8359,
      "َالِهِ": 8360,
      "َافِي": 8361,
      "▁عمران:": 8362,
      "▁استع": 8363,
      "ِتاب": 8364,
      "َيْش": 8365,
      "ةَ،": 8366,
      "▁الأيام": 8367,
      "▁تُص": 8368,
      "▁المحدث": 8369,
      "▁وعلم": 8370,
      "▁يقصد": 8371,
      "▁أَمَرَ": 8372,
      "▁الخلا": 8373,
      "ْنى": 8374,
      "▁المذكورة": 8375,
      "▁[و": 8376,
      "افت": 8377,
      "ِلاَفِ": 8378,
      "▁إِلَيْهِمْ": 8379,
      "طعام": 8380,
      "▁الجبل": 8381,
      "▁الثُّلُث": 8382,
      "▁وَلِل": 8383,
      "▁المنكر": 8384,
      "▁ماض": 8385,
      "▁الدمشقي": 8386,
      "▁وَأَق": 8387,
      "▁الصَّلاة": 8388,
      "▁ابتداء": 8389,
      "▁يلزمه": 8390,
      "أَنَّهُ": 8391,
      "لاع": 8392,
      "▁بِالْخ": 8393,
      "صوص": 8394,
      "▁بَعْدَهُ": 8395,
      "▁هلك": 8396,
      "▁\nالمسألة": 8397,
      "▁النوا": 8398,
      "▁بطل": 8399,
      "▁يعتبر": 8400,
      "▁\nط": 8401,
      "▁ومس": 8402,
      "▁لِلتَّ": 8403,
      "َلَم": 8404,
      "▁\nا": 8405,
      "▁وام": 8406,
      "قبول": 8407,
      "ِفْظ": 8408,
      "▁الطَّي": 8409,
      "▁سُبْحَانَهُ": 8410,
      "▁الْعَزِيزِ": 8411,
      "َغْد": 8412,
      "▁فرج": 8413,
      "▁المشت": 8414,
      "▁البغوي": 8415,
      "▁(١٩": 8416,
      "▁بان": 8417,
      "▁شرف": 8418,
      "▁أعرف": 8419,
      "▁وَالْغ": 8420,
      "▁شعبان": 8421,
      "▁بِالْو": 8422,
      "ِيَارِ": 8423,
      "بدل": 8424,
      "▁العامل": 8425,
      "لة:": 8426,
      "فساد": 8427,
      "▁\"(": 8428,
      "▁يذهب": 8429,
      "َهُمُ": 8430,
      "▁واعت": 8431,
      "▁مَسْعُودٍ": 8432,
      "ذير": 8433,
      "▁جعلت": 8434,
      "▁كَوْن": 8435,
      "واضع": 8436,
      "▁عاش": 8437,
      "▁بِإِذ": 8438,
      "▁الْعَذ": 8439,
      "▁الرِّب": 8440,
      "▁يفيد": 8441,
      "با،": 8442,
      "▁عَص": 8443,
      "ذِي": 8444,
      "▁وَهْب": 8445,
      "▁من:": 8446,
      "▁بقدر": 8447,
      "▁الإشارة": 8448,
      "▁غر": 8449,
      "▁التوفي": 8450,
      "ُوعُ": 8451,
      "▁حذ": 8452,
      "جْمَاع": 8453,
      "يل.": 8454,
      "▁مظ": 8455,
      "▁الزِّي": 8456,
      "▁[أ": 8457,
      "▁هريرة،": 8458,
      "ُّج": 8459,
      "▁\nه": 8460,
      "ها؛": 8461,
      "ودي": 8462,
      "▁إبراهيم،": 8463,
      "َالَةُ": 8464,
      "▁حَفْص": 8465,
      "▁فَيَج": 8466,
      "▁فإنما": 8467,
      "▁الحكمة": 8468,
      "▁الريح": 8469,
      "▁حكيم": 8470,
      "▁هُمُ": 8471,
      "▁مضارع": 8472,
      "ناهم": 8473,
      "َرْد": 8474,
      "▁قولهم:": 8475,
      "▁يمت": 8476,
      "▁التِّرْمِذ": 8477,
      "نُ": 8478,
      "ركات": 8479,
      "▁وسم": 8480,
      "▁لَم": 8481,
      "▁عباده": 8482,
      "▁الْإِنْس": 8483,
      "▁حقه": 8484,
      "زاد": 8485,
      "▁المقام": 8486,
      "▁\nثُمَّ": 8487,
      "▁موص": 8488,
      "▁صرح": 8489,
      "▁عمرو،": 8490,
      "▁الاختلاف": 8491,
      "▁أصب": 8492,
      "▁وَلِهَذَا": 8493,
      "عداد": 8494,
      "▁عدل": 8495,
      "تا": 8496,
      "عيان": 8497,
      "ئم": 8498,
      "▁يموت": 8499,
      "٨-": 8500,
      "َرْضُ": 8501,
      "▁لمع": 8502,
      "▁يضرب": 8503,
      "▁عُبَيْدِ": 8504,
      "▁الشَّافِعِيَّةِ": 8505,
      "َمَرَ": 8506,
      "▁الْأَنْ": 8507,
      "▁ضعيف.": 8508,
      "صاص": 8509,
      "▁العس": 8510,
      "ؤمنين": 8511,
      "▁جُز": 8512,
      "ُلِ": 8513,
      "َلَفُوا": 8514,
      "▁إِخ": 8515,
      "in": 8516,
      "▁[٤]،": 8517,
      "▁حلب": 8518,
      "▁الثوب": 8519,
      "بان": 8520,
      "▁السُّلْط": 8521,
      "▁بمثل": 8522,
      "َلَى": 8523,
      "▁[٧": 8524,
      "▁ومثله": 8525,
      "▁منهم،": 8526,
      "▁لَق": 8527,
      "▁أض": 8528,
      "▁أخت": 8529,
      "▁واشت": 8530,
      "َهَب": 8531,
      "▁تُؤ": 8532,
      "▁علي،": 8533,
      "▁فاج": 8534,
      "▁وأح": 8535,
      "▁الْأَج": 8536,
      "▁\nوَت": 8537,
      "▁[من": 8538,
      "▁صلاح": 8539,
      "▁قالَ:": 8540,
      "▁بَيِّنَ": 8541,
      "▁الْمَذْكُور": 8542,
      "▁١،": 8543,
      "▁بقول": 8544,
      "▁شدة": 8545,
      "▁بذلك،": 8546,
      "▁يقر": 8547,
      "▁سه": 8548,
      "▁مجهول": 8549,
      "▁تدع": 8550,
      "اتٍ": 8551,
      "):": 8552,
      "َحْس": 8553,
      "تها،": 8554,
      "▁رَأَيْتُ": 8555,
      "▁أصبح": 8556,
      "▁وأه": 8557,
      "▁الفا": 8558,
      "▁أُب": 8559,
      "َمِ،": 8560,
      "شا": 8561,
      "▁وَأَبِي": 8562,
      "▁الغيب": 8563,
      "يان": 8564,
      "▁وَمُحَمَّد": 8565,
      "▁الجوه": 8566,
      "▁سِو": 8567,
      "▁\n(١٠)": 8568,
      "▁الْأُولَى": 8569,
      "َلِّم": 8570,
      "▁وَرَدَ": 8571,
      "▁السَّمَاوَاتِ": 8572,
      "▁اثْن": 8573,
      "▁مادة": 8574,
      "▁المسلمين،": 8575,
      "▁٢)": 8576,
      "▁التر": 8577,
      "▁المسيب": 8578,
      "يك": 8579,
      "\nال": 8580,
      "▁استعمال": 8581,
      "▁فَقُلْتُ:": 8582,
      "ْرُو": 8583,
      "▁قبر": 8584,
      "▁والشر": 8585,
      "▁قياس": 8586,
      "▁السبع": 8587,
      "▁فَوَج": 8588,
      "▁النفي": 8589,
      "َعِ": 8590,
      "▁المطر": 8591,
      "ُمَا": 8592,
      "▁القتال": 8593,
      "ْفَاظ": 8594,
      "فذ": 8595,
      "▁أُع": 8596,
      "▁نقول": 8597,
      "رشاد": 8598,
      "▁مأ": 8599,
      "▁يضع": 8600,
      "فَقَ": 8601,
      "▁يعنى": 8602,
      "▁جَهَنَّ": 8603,
      "▁واح": 8604,
      "▁طَلْح": 8605,
      "▁برد": 8606,
      "▁المعجمة": 8607,
      "▁غسل": 8608,
      "▁مَالِكٌ": 8609,
      "▁اللَّه،": 8610,
      "▁الجوزي": 8611,
      "▁صلاته": 8612,
      "▁فقالت:": 8613,
      "▁كتاب:": 8614,
      "▁النوع": 8615,
      "▁\nوقيل": 8616,
      "▁مقر": 8617,
      "َدًا": 8618,
      "▁الأخر": 8619,
      "▁\nالأَ": 8620,
      "▁الدال": 8621,
      "▁وسط": 8622,
      "▁تقديم": 8623,
      "▁والفر": 8624,
      "▁مقدم": 8625,
      "▁رُك": 8626,
      "باحة": 8627,
      "▁الْقَت": 8628,
      "▁ثقة.": 8629,
      "▁عمله": 8630,
      "زله": 8631,
      "▁إِلَهَ": 8632,
      "▁أطلق": 8633,
      "َئِذٍ": 8634,
      "ْقَوْل": 8635,
      "َرَك": 8636,
      "ون\"": 8637,
      "▁التج": 8638,
      "ليمان": 8639,
      "▁هاهنا": 8640,
      "ْكِ": 8641,
      "▁مالك:": 8642,
      "▁منت": 8643,
      "ينة،": 8644,
      "▁أسامة": 8645,
      "▁السَّلَام": 8646,
      "ذاء": 8647,
      "▁فَش": 8648,
      "▁يقتل": 8649,
      "ضيف": 8650,
      "▁فَلا": 8651,
      "هز": 8652,
      "لى،": 8653,
      "ُوتُ": 8654,
      "▁الأعراف": 8655,
      "َأُ": 8656,
      "▁مُش": 8657,
      "▁عشرين": 8658,
      "ثَ": 8659,
      "▁ارت": 8660,
      "▁الْمُخ": 8661,
      "▁علوم": 8662,
      "شق": 8663,
      "َأْج": 8664,
      "٨٤": 8665,
      "▁جَمِيعًا": 8666,
      "▁وَبِال": 8667,
      "▁لِلْأ": 8668,
      "راز": 8669,
      "▁ذِم": 8670,
      "▁خالف": 8671,
      "▁لِلَّ": 8672,
      "دة.": 8673,
      "▁الْإِس": 8674,
      "َرَ،": 8675,
      "▁جهنم": 8676,
      "▁«٥": 8677,
      "▁آخر،": 8678,
      "▁حُمَيْد": 8679,
      "َادَةُ": 8680,
      "ٌ\"": 8681,
      "▁\"تاريخ": 8682,
      "▁الزه": 8683,
      "▁حَرْب": 8684,
      "▁قُب": 8685,
      "▁واس": 8686,
      "فاعة": 8687,
      "َةً.": 8688,
      "ضمير": 8689,
      "▁باطل": 8690,
      "َالَف": 8691,
      "تُمْ": 8692,
      "▁يَتَع": 8693,
      "▁الْحسن": 8694,
      "▁كره": 8695,
      "▁عَنْهُ:": 8696,
      "▁٢-": 8697,
      "▁القصة": 8698,
      "إِذْ": 8699,
      "▁زيد،": 8700,
      "▁المخطوط": 8701,
      "َاعَةِ": 8702,
      "▁حاتم:": 8703,
      "▁١)": 8704,
      "▁الطبعة": 8705,
      "ْخَذ": 8706,
      "▁قُرَيْش": 8707,
      "▁داخل": 8708,
      "▁السموات": 8709,
      "▁{يَا": 8710,
      "▁تميم": 8711,
      "▁لام": 8712,
      "▁يسر": 8713,
      "▁السلم": 8714,
      "َوَاتِ": 8715,
      "▁\n١٤": 8716,
      "خف": 8717,
      "▁\nذ": 8718,
      "اقة": 8719,
      "َصْب": 8720,
      "ْرَةُ": 8721,
      "▁يفر": 8722,
      "▁إم": 8723,
      "هان": 8724,
      "َلِف": 8725,
      "▁بَعْدِ": 8726,
      "▁رَجَعَ": 8727,
      "▁زرعة": 8728,
      "▁زال": 8729,
      "▁وَالَّذِينَ": 8730,
      "▁أَيْد": 8731,
      "▁\nمُ": 8732,
      "▁بحق": 8733,
      "قيب": 8734,
      "▁عَبْدَ": 8735,
      "ِدٍ": 8736,
      "كنت": 8737,
      "▁قَول": 8738,
      "▁اك": 8739,
      "▁أورد": 8740,
      "▁يُمْكِنُ": 8741,
      "▁ويق": 8742,
      "▁ونحوه": 8743,
      "▁وَمِنْهُ": 8744,
      "▁الفرج": 8745,
      "▁لحم": 8746,
      "▁وَالْإِ": 8747,
      "▁وزن": 8748,
      "▁الْبَيْعِ": 8749,
      "ع.": 8750,
      "ليلة": 8751,
      "▁الصدقة": 8752,
      "▁فَإِنَّهَا": 8753,
      "َانِهِ": 8754,
      "▁لَكِنَّ": 8755,
      "وية،": 8756,
      "▁\nوكذلك": 8757,
      "▁هَار": 8758,
      "▁كبار": 8759,
      "لا.": 8760,
      "▁مَسْج": 8761,
      "▁هُرَيْرَةَ،": 8762,
      "ْنٍ": 8763,
      "▁فائدة": 8764,
      "▁بالكسر": 8765,
      "▁الصبح": 8766,
      "▁فقالوا": 8767,
      "ليغ": 8768,
      "٨١": 8769,
      "▁ولده": 8770,
      "▁الشَّهَاد": 8771,
      "▁كذلك،": 8772,
      "َيْبِ": 8773,
      "▁العرش": 8774,
      "▁طيب": 8775,
      "▁ويك": 8776,
      "▁الْمُصَنِّف": 8777,
      "ناق": 8778,
      "▁صحيحه": 8779,
      "ِمَار": 8780,
      "حمن": 8781,
      "ُتُب": 8782,
      "ْضِي": 8783,
      "▁امرأته": 8784,
      "▁\nالتَّ": 8785,
      "▁وَعَم": 8786,
      "َمِع": 8787,
      "▁تصح": 8788,
      "▁النَّف": 8789,
      "▁اللَّيْل": 8790,
      "▁أَيْض": 8791,
      "▁مَعْلُوم": 8792,
      "▁ومالك": 8793,
      "▁فإني": 8794,
      "▁الرُّك": 8795,
      "▁بحديث": 8796,
      "▁سف": 8797,
      "خال": 8798,
      "▁بعضه": 8799,
      "وصل": 8800,
      "▁ظل": 8801,
      "▁حدود": 8802,
      "ْمُر": 8803,
      "▁كلما": 8804,
      "▁البزار": 8805,
      "▁يُعْط": 8806,
      "درس": 8807,
      "▁الولي": 8808,
      "▁ولذا": 8809,
      "▁المجاز": 8810,
      "▁لِج": 8811,
      "ِيبَ": 8812,
      "َّتْ": 8813,
      "▁مَم": 8814,
      "ِيل:": 8815,
      "▁رق": 8816,
      "▁وَاللَّهِ": 8817,
      "ِي:": 8818,
      "▁يجري": 8819,
      "▁يفهم": 8820,
      "▁الكعبة": 8821,
      "▁جَمِيعِ": 8822,
      "▁الصَّلاَةِ": 8823,
      "ْبَةَ": 8824,
      "▁الحروف": 8825,
      "َقْد": 8826,
      "▁الأي": 8827,
      "▁الخطأ": 8828,
      "▁العا": 8829,
      "عوا": 8830,
      "▁وَجَد": 8831,
      "▁الشهر": 8832,
      "▁مفر": 8833,
      "▁أرج": 8834,
      "▁[١٠]": 8835,
      "▁والمس": 8836,
      "▁اتخذ": 8837,
      "▁٧٠": 8838,
      "َيْرٍ،": 8839,
      "▁\n٣٠": 8840,
      "▁مَسْأَل": 8841,
      "دريس": 8842,
      "▁الشاعر:": 8843,
      "▁العدد": 8844,
      "▁وجدت": 8845,
      "▁الصَّي": 8846,
      "َيْسَتْ": 8847,
      "▁القاف": 8848,
      "▁سنة.": 8849,
      "▁والأم": 8850,
      "▁حَدِيثُ": 8851,
      "▁الحنفي": 8852,
      "▁\"وال": 8853,
      "▁لف": 8854,
      "▁الْحَجِّ": 8855,
      "▁٦٦": 8856,
      "▁بَقِيَ": 8857,
      "▁رح": 8858,
      "ِكْرِم": 8859,
      "▁كلم": 8860,
      "▁الله\"": 8861,
      "▁وَبِهِ": 8862,
      "▁مُؤْمِن": 8863,
      "▁يَدُلُّ": 8864,
      "كم.": 8865,
      "٨٢": 8866,
      "▁حبي": 8867,
      "َرَتْ": 8868,
      "▁الصَّدَق": 8869,
      "▁البناء": 8870,
      "▁أصحابنا": 8871,
      "ْعًا": 8872,
      "وجيه": 8873,
      "▁\nوإ": 8874,
      "▁أ.": 8875,
      "▁مف": 8876,
      "قبال": 8877,
      "واص": 8878,
      "ثَّانِي:": 8879,
      "▁نَحْنُ": 8880,
      "▁بار": 8881,
      "▁مَب": 8882,
      "ئات": 8883,
      "▁هذين": 8884,
      "▁عزّ": 8885,
      "وجوب": 8886,
      "َحْي": 8887,
      "▁مترو": 8888,
      "▁وَالْي": 8889,
      "▁نعمة": 8890,
      "▁علة": 8891,
      "ْرَأُ": 8892,
      "▁السياق": 8893,
      "▁٦٧": 8894,
      "▁٣:": 8895,
      "سف": 8896,
      "▁سفيان،": 8897,
      "▁عجز": 8898,
      "ِيَّةِ:": 8899,
      "▁بخط": 8900,
      "▁وَإِس": 8901,
      "▁وأربعين": 8902,
      "ُنِي": 8903,
      "▁داود:": 8904,
      "▁احمد": 8905,
      "▁تَرَك": 8906,
      "رضى": 8907,
      "▁خروج": 8908,
      "▁الماضي": 8909,
      "▁نَفَق": 8910,
      "▁نَك": 8911,
      "ناول": 8912,
      "▁غلام": 8913,
      "▁حكى": 8914,
      "َيِّب": 8915,
      "▁الأربعة": 8916,
      "فلة": 8917,
      "▁ساقطة": 8918,
      "▁السَّم": 8919,
      "▁وَاَل": 8920,
      "▁الكلبي": 8921,
      "▁\n[٤]": 8922,
      "▁النِّكَاحِ": 8923,
      "▁باست": 8924,
      "▁أَنا": 8925,
      "▁تقي": 8926,
      "▁الوك": 8927,
      "حرير": 8928,
      "قياس": 8929,
      "َسَّ": 8930,
      "▁النِّي": 8931,
      "▁عتق": 8932,
      "▁شِهَا": 8933,
      "▁السلام،": 8934,
      "▁\nقُل": 8935,
      "▁عَو": 8936,
      "▁النفوس": 8937,
      "▁[ي": 8938,
      "▁وَاللَّ": 8939,
      "▁جاه": 8940,
      "▁رزق": 8941,
      "▁الْبَل": 8942,
      "▁الْوَاق": 8943,
      "لوغ": 8944,
      "▁بكر،": 8945,
      "▁إف": 8946,
      "▁أَمْوَال": 8947,
      "▁غيرهم": 8948,
      "ِهِ)": 8949,
      "▁إنهم": 8950,
      "▁الشافعية": 8951,
      "▁ذُكِرَ": 8952,
      "▁رَمَضَانَ": 8953,
      "▁جيد": 8954,
      "▁والمص": 8955,
      "▁{ع": 8956,
      "▁الشُّر": 8957,
      "▁الجماع": 8958,
      "▁رِوَايَةِ": 8959,
      "▁مضم": 8960,
      "َعْج": 8961,
      "ْبَ": 8962,
      "▁لَه": 8963,
      "راسان": 8964,
      "▁النسب": 8965,
      "اخ": 8966,
      "▁العلامة": 8967,
      "ستان": 8968,
      "لَّى": 8969,
      "▁\nوب": 8970,
      "ذاك": 8971,
      "▁ذُو": 8972,
      "▁وغيرهما": 8973,
      "▁فَأَمَّا": 8974,
      "▁سُفْيَانَ": 8975,
      "▁المدينة،": 8976,
      "▁أنهما": 8977,
      "ُونُوا": 8978,
      "▁وأد": 8979,
      "▁دينه": 8980,
      "▁الغني": 8981,
      "▁وَالأ": 8982,
      "▁غيره.": 8983,
      "▁لازم": 8984,
      "▁الآية،": 8985,
      "ِيحِ": 8986,
      "▁فهذه": 8987,
      "▁بمصر": 8988,
      "▁بِيَدِهِ": 8989,
      "رام،": 8990,
      "دلالة": 8991,
      "▁ربنا": 8992,
      "ْهَدُ": 8993,
      "ٍ\"": 8994,
      "▁كُ": 8995,
      "▁قتيبة": 8996,
      "▁فكذلك": 8997,
      "َما": 8998,
      "ْبَل": 8999,
      "▁وَهِي": 9000,
      "▁[١]:": 9001,
      "▁العز": 9002,
      "▁بالز": 9003,
      "▁أرب": 9004,
      "ِيعَ": 9005,
      "▁جُرَيْج": 9006,
      "▁خَلَقَ": 9007,
      "▁نعلم": 9008,
      "َاهُمْ": 9009,
      "▁\nقلت": 9010,
      "▁رَحْم": 9011,
      "▁العيد": 9012,
      "▁لِلْ": 9013,
      "▁وانظر:": 9014,
      "▁خليل": 9015,
      "▁قَرِيب": 9016,
      "▁اتفق": 9017,
      "▁التَّي": 9018,
      "▁مخالف": 9019,
      "▁الّذي": 9020,
      "▁المف": 9021,
      "▁وعم": 9022,
      "شب": 9023,
      "▁وسعيد": 9024,
      "▁الطَّبَر": 9025,
      "▁وَذَكَرَ": 9026,
      "َيْهَا": 9027,
      "َوْس": 9028,
      "امي": 9029,
      "▁بالث": 9030,
      "حج": 9031,
      "ْنَب": 9032,
      "▁بإسناد": 9033,
      "ْقِي": 9034,
      "▁مَف": 9035,
      "▁فكانت": 9036,
      "▁عيينة": 9037,
      "▁وصار": 9038,
      "▁تفسيره": 9039,
      "عدد": 9040,
      "ِيئ": 9041,
      "▁طاع": 9042,
      "▁خرجت": 9043,
      "▁الترمذي:": 9044,
      "ْسَل": 9045,
      "▁قوي": 9046,
      "▁وَيُقَال": 9047,
      "▁يَزِيدُ": 9048,
      "ْمَلُ": 9049,
      "▁النصف": 9050,
      "▁قُلْتُ": 9051,
      "نوا": 9052,
      "▁الْعُم": 9053,
      "▁البعض": 9054,
      "َائِع": 9055,
      "▁الواقع": 9056,
      "ِمْ": 9057,
      "▁دَلِيل": 9058,
      "َبْ": 9059,
      "بسوط": 9060,
      "▁فَط": 9061,
      "ِمٍ،": 9062,
      "▁للنبي": 9063,
      "▁جَوَازِ": 9064,
      "▁أَخْرَجَهُ": 9065,
      "▁سيبويه": 9066,
      "▁إِسْرَائ": 9067,
      "▁والمش": 9068,
      "▁الأه": 9069,
      "▁كفروا": 9070,
      "▁الرفع": 9071,
      "▁نح": 9072,
      "▁بِالر": 9073,
      "▁اثنتين": 9074,
      "َحَبُّ": 9075,
      "▁حَدَّثَنا": 9076,
      "▁فاطمة": 9077,
      "▁عَس": 9078,
      "▁اللَّيْلِ": 9079,
      "اصد": 9080,
      "▁سلطان": 9081,
      "▁وَاع": 9082,
      "مائة،": 9083,
      "▁الظن": 9084,
      "▁الْقَاسِم": 9085,
      "▁الحاجة": 9086,
      "▁يسار": 9087,
      "َرِيض": 9088,
      "▁أخو": 9089,
      "▁هَكَذَا": 9090,
      "▁(س)": 9091,
      "▁الثَّلَاث": 9092,
      "▁الدهر": 9093,
      "▁القادر": 9094,
      "َامَةَ": 9095,
      "▁الرجوع": 9096,
      "▁\nرَوَاهُ": 9097,
      "▁بالمدينة": 9098,
      "▁\nوالأ": 9099,
      "ٌّ،": 9100,
      "▁يزال": 9101,
      "▁ووجه": 9102,
      "ِيَّةٍ": 9103,
      "▁دُخ": 9104,
      "▁إِمَّا": 9105,
      "▁واللَّه": 9106,
      "ِيِّ.": 9107,
      "▁الراب": 9108,
      "خراج": 9109,
      "▁الْيَهُود": 9110,
      "▁العارف": 9111,
      "ْقُطُ": 9112,
      "▁المحرم": 9113,
      "▁رسولَ": 9114,
      "▁تيمية": 9115,
      "▁الام": 9116,
      "▁\n(قَوْلُهُ:": 9117,
      "ِقٌ": 9118,
      "▁ثُلُث": 9119,
      "▁يَلْزَمُ": 9120,
      "▁رَ": 9121,
      "▁معها": 9122,
      "▁أيّ": 9123,
      "▁الأشع": 9124,
      "▁واللام": 9125,
      "▁يعطي": 9126,
      "▁الرحمن،": 9127,
      "▁[٥": 9128,
      "وره": 9129,
      "▁أَي:": 9130,
      "▁ساعة": 9131,
      "مادى": 9132,
      "▁العاق": 9133,
      "ِيمٌ}": 9134,
      "▁الفاس": 9135,
      "▁إش": 9136,
      "▁يحسن": 9137,
      "▁العلي": 9138,
      "▁وَأَنَّهُ": 9139,
      "▁فدخل": 9140,
      "غت": 9141,
      "ا)": 9142,
      "ُوا،": 9143,
      "▁الحص": 9144,
      "▁الصحيحة": 9145,
      "▁فكأن": 9146,
      "▁بَيْت": 9147,
      "▁المهاجر": 9148,
      "▁رو": 9149,
      "▁شَدِيد": 9150,
      "▁تَجِبُ": 9151,
      "▁(١٠/": 9152,
      "َعْنَ": 9153,
      "وانين": 9154,
      "ان)": 9155,
      "▁التخ": 9156,
      "▁وخمسين": 9157,
      "▁عاط": 9158,
      "▁النبوة": 9159,
      "َالٌ": 9160,
      "▁الأبي": 9161,
      "▁الله)": 9162,
      "▁الظالم": 9163,
      "▁فيت": 9164,
      "▁تُج": 9165,
      "ْمَلُونَ": 9166,
      "▁الْعَر": 9167,
      "َلَّف": 9168,
      "َارٌ": 9169,
      "▁الأولي": 9170,
      "▁حَدثنَا": 9171,
      "خذه": 9172,
      "▁سياق": 9173,
      "يتين": 9174,
      "ِيَّةً": 9175,
      "بدو": 9176,
      "▁الهدى": 9177,
      "▁خطاب": 9178,
      "وْ": 9179,
      "▁\"إِنَّ": 9180,
      "ّك": 9181,
      "▁طريقه": 9182,
      "▁\nوفيها": 9183,
      "▁مناف": 9184,
      "تهن": 9185,
      "ح.": 9186,
      "▁القاموس": 9187,
      "راغ": 9188,
      "َرَث": 9189,
      "▁كُر": 9190,
      "▁يَدْخُل": 9191,
      "▁١٣/": 9192,
      "▁أَلا": 9193,
      "ضد": 9194,
      "▁المخلو": 9195,
      "يّة": 9196,
      "▁وأخبر": 9197,
      "سبق": 9198,
      "▁فإنَّ": 9199,
      "▁تُك": 9200,
      "▁تَسْت": 9201,
      "▁يبين": 9202,
      "▁قَوْله:": 9203,
      "▁أَهْلَ": 9204,
      "▁عموم": 9205,
      "ِيُّ.": 9206,
      "▁جِنْس": 9207,
      "َحِّ": 9208,
      "َابِ،": 9209,
      "َامِس": 9210,
      "▁الجر": 9211,
      "▁•": 9212,
      "ضت": 9213,
      "▁وحكم": 9214,
      "▁فَوْ": 9215,
      "▁صن": 9216,
      "▁ورفع": 9217,
      "▁هذا.": 9218,
      "▁\"خ": 9219,
      "▁كراه": 9220,
      "َنْد": 9221,
      "▁أعلى": 9222,
      "رب،": 9223,
      "▁بِهَا،": 9224,
      "▁الإِْس": 9225,
      "▁الصورة": 9226,
      "▁الكه": 9227,
      "▁\nالخ": 9228,
      "▁تدخل": 9229,
      "ري.": 9230,
      "َظْهَرُ": 9231,
      "▁وَسَلَّمَ-": 9232,
      "سوب": 9233,
      "▁ناصر": 9234,
      "رسال": 9235,
      "▁وأق": 9236,
      "▁وَالشَّافِعِيَّةُ": 9237,
      "▁البخاري:": 9238,
      "▁\n١٢": 9239,
      "▁دُونِ": 9240,
      "▁وفيه:": 9241,
      "▁السَّاب": 9242,
      "ِها": 9243,
      "▁مبا": 9244,
      "▁ونقل": 9245,
      "▁دعاء": 9246,
      "تقاد": 9247,
      "َدَّى": 9248,
      "َّ،": 9249,
      "ِّرَ": 9250,
      "▁القدرة": 9251,
      "▁لَقَدْ": 9252,
      "٦-": 9253,
      "▁كَانَت": 9254,
      "ق:": 9255,
      "▁ليكون": 9256,
      "▁الرَّزَّاق": 9257,
      "▁عوان": 9258,
      "▁وَيَقُول": 9259,
      "▁يلي": 9260,
      "خلت": 9261,
      "▁الظَّال": 9262,
      "َيْض": 9263,
      "▁الأخير": 9264,
      "▁هـ،": 9265,
      "▁الإع": 9266,
      "▁خَرَج": 9267,
      "▁حَض": 9268,
      "▁الْمَرْأَةِ": 9269,
      "قاط": 9270,
      "▁قَلْب": 9271,
      "▁تَحْتَ": 9272,
      "ِعُونَ": 9273,
      "َعَلَّقُ": 9274,
      "▁الْفُر": 9275,
      "▁\nالْح": 9276,
      "▁البحث": 9277,
      "اتها": 9278,
      "▁سلمة،": 9279,
      "▁تقبل": 9280,
      "▁\nأو": 9281,
      "▁مرت": 9282,
      "▁الصحاح": 9283,
      "َةُ.": 9284,
      "▁سنين": 9285,
      "▁غزوة": 9286,
      "▁مصنف": 9287,
      "▁الجد": 9288,
      "ائص": 9289,
      "َاكَ": 9290,
      "▁ألفاظ": 9291,
      "▁الْقَط": 9292,
      "▁المرجع": 9293,
      "▁ينكر": 9294,
      "▁وُجُوبِ": 9295,
      "▁لكونه": 9296,
      "▁شِهَاب": 9297,
      "جاد": 9298,
      "▁الرِّي": 9299,
      "▁الميزان": 9300,
      "فْصِيل": 9301,
      "▁الرُّج": 9302,
      "▁الأقوال": 9303,
      "▁تلا": 9304,
      "▁أبلغ": 9305,
      "▁مرس": 9306,
      "▁الكريمة": 9307,
      "رائض": 9308,
      "ْتِن": 9309,
      "▁أمثال": 9310,
      "▁فقت": 9311,
      "▁الْمُل": 9312,
      "▁متع": 9313,
      "▁السك": 9314,
      "▁خد": 9315,
      "▁أَصَاب": 9316,
      "٩-": 9317,
      "▁طريقة": 9318,
      "َتُهَا": 9319,
      "▁عِل": 9320,
      "▁ليت": 9321,
      "▁الخلف": 9322,
      "▁ربما": 9323,
      "▁السادس": 9324,
      "▁جدا": 9325,
      "َتْ،": 9326,
      "▁الْفَس": 9327,
      "▁أمرهم": 9328,
      "▁دَم": 9329,
      "▁\nعَنْ": 9330,
      "ذبح": 9331,
      "طُ": 9332,
      "▁البخاري،": 9333,
      "٩٤": 9334,
      "▁النصب": 9335,
      "▁إقامة": 9336,
      "▁سيما": 9337,
      "ْنِهِ": 9338,
      "وحة": 9339,
      "صيل": 9340,
      "▁تصانيفه:": 9341,
      "▁أَنَسٍ": 9342,
      "▁والذين": 9343,
      "وى،": 9344,
      "▁عنها،": 9345,
      "علوم": 9346,
      "▁عظم": 9347,
      "▁والبخاري": 9348,
      "▁سَج": 9349,
      "▁***": 9350,
      "▁رُو": 9351,
      "▁الاشت": 9352,
      "▁مختص": 9353,
      "▁جمال": 9354,
      "▁الدرد": 9355,
      "▁الأفعال": 9356,
      "▁ترتيب": 9357,
      "صفه": 9358,
      "▁الْإِب": 9359,
      "▁شد": 9360,
      "وري،": 9361,
      "ُوطِ": 9362,
      "؟»": 9363,
      "▁الثَّوْر": 9364,
      "▁قال،": 9365,
      "▁فِيهِمَا": 9366,
      "دَى": 9367,
      "▁يَقَعُ": 9368,
      "▁يكونوا": 9369,
      "▁قُو": 9370,
      "▁ومثل": 9371,
      "َّلا": 9372,
      "▁الْأَب": 9373,
      "زة،": 9374,
      "▁حُكْمِ": 9375,
      "ْبَرُ": 9376,
      "▁وَالثَّ": 9377,
      "▁خَلْق": 9378,
      "▁بعين": 9379,
      "▁للاست": 9380,
      "▁ونهاية": 9381,
      "▁فَقَال:": 9382,
      "▁جلال": 9383,
      "▁ذكرناه": 9384,
      "▁تَرَكَ": 9385,
      "▁لِلنَّاسِ": 9386,
      "▁وسائر": 9387,
      "▁قراء": 9388,
      "▁الْخَل": 9389,
      "▁الوط": 9390,
      "َوِي": 9391,
      "▁الخليل": 9392,
      "ْتِم": 9393,
      "▁لهم:": 9394,
      "▁مؤلف": 9395,
      "ِلاَي": 9396,
      "▁دَل": 9397,
      "▁عَبَّاسٍ،": 9398,
      "▁الكون": 9399,
      "==": 9400,
      "▁وَابْنِ": 9401,
      "ائط": 9402,
      "▁[آل": 9403,
      "▁رَدَّ": 9404,
      "▁آخر:": 9405,
      "▁الثالث:": 9406,
      "َا،": 9407,
      "▁حذيفة": 9408,
      "▁\"مع": 9409,
      "لائك": 9410,
      "▁إنكار": 9411,
      "▁الشَّرْع": 9412,
      "▁الآْخ": 9413,
      "▁نفسها": 9414,
      "▁\nز": 9415,
      "▁الْخَطَّابِ": 9416,
      "وهر": 9417,
      "تقى": 9418,
      "▁ضم": 9419,
      "▁قَالَتْ": 9420,
      "▁أَغ": 9421,
      "▁الشِّر": 9422,
      "▁التعريف": 9423,
      "يمي": 9424,
      "▁الرَّد": 9425,
      "▁يَرَى": 9426,
      "▁حُكْمُ": 9427,
      "▁الطَّو": 9428,
      "▁يقولون:": 9429,
      "ْبَلُ": 9430,
      "حط": 9431,
      "▁روايته": 9432,
      "▁أَصْحَابِ": 9433,
      "▁الجبال": 9434,
      "يحة": 9435,
      "َّنَ": 9436,
      "▁الحسن،": 9437,
      "ُوهُنَّ": 9438,
      "لقة": 9439,
      "▁لَهُمَا": 9440,
      "َائِط": 9441,
      "ِعٌ": 9442,
      "قي،": 9443,
      "▁\nقَوْلُهُ:": 9444,
      "▁«٥»": 9445,
      "▁عَلِمَ": 9446,
      "▁ملكه": 9447,
      "▁سبحانه:": 9448,
      "لبه": 9449,
      "▁الهجرة": 9450,
      "▁واحدة،": 9451,
      "حاد": 9452,
      "▁أَز": 9453,
      "ربه": 9454,
      "▁المطبوع": 9455,
      "▁عُيَيْنَ": 9456,
      "▁الأوز": 9457,
      "▁\n{ق": 9458,
      "▁بِالْإِ": 9459,
      "▁\n٢٧": 9460,
      "ّاً": 9461,
      "▁فكأنه": 9462,
      "▁تقع": 9463,
      "▁الذَّه": 9464,
      "ْعَلْ": 9465,
      "مَار": 9466,
      "▁(رقم": 9467,
      "▁بِالْحَقِّ": 9468,
      "▁(ت)": 9469,
      "حاس": 9470,
      "▁(٩)": 9471,
      "َائِر": 9472,
      "▁قِيلَ:": 9473,
      "هَاج": 9474,
      "إِي": 9475,
      "▁عيا": 9476,
      "▁لرسول": 9477,
      "▁سكن": 9478,
      "▁التب": 9479,
      "▁مَد": 9480,
      "قدمة": 9481,
      "▁هن": 9482,
      "ِيِّ:": 9483,
      "▁بشير": 9484,
      "يتها": 9485,
      "▁الْحُكْمِ": 9486,
      "▁وَقَوْلُهُ": 9487,
      "▁\"قال": 9488,
      "▁فِيهِمْ": 9489,
      "▁الخليفة": 9490,
      "▁الثواب": 9491,
      "▁ذلِكَ": 9492,
      "▁صَارَ": 9493,
      "▁لنفس": 9494,
      "▁مصعب": 9495,
      "ْمٍ": 9496,
      "ti": 9497,
      "▁\nوجملة": 9498,
      "تقريب": 9499,
      "▁محرم": 9500,
      "َرْح": 9501,
      "▁رسم": 9502,
      "ِنَاي": 9503,
      "داة": 9504,
      "▁يخالف": 9505,
      "▁مُطْلَقًا": 9506,
      "▁وسبعين": 9507,
      "أخوذ": 9508,
      "▁تُف": 9509,
      "▁وَعَد": 9510,
      "▁وردت": 9511,
      "▁نحوه": 9512,
      "▁كثير،": 9513,
      "▁سهم": 9514,
      "▁المسائل": 9515,
      "▁سَعِيدٍ،": 9516,
      "ف.": 9517,
      "▁مُعَاذ": 9518,
      "الهم": 9519,
      "▁النِّسَاءِ": 9520,
      "▁زَادَ": 9521,
      "هَق": 9522,
      "ايخ": 9523,
      "▁الشَّيْء": 9524,
      "▁الصديق": 9525,
      "وادث": 9526,
      "َهْدِ": 9527,
      "▁الأعلام": 9528,
      "▁النَّخ": 9529,
      "▁وبا": 9530,
      "▁يسقط": 9531,
      "▁الأف": 9532,
      "▁تُخ": 9533,
      "▁كَعْب": 9534,
      "▁وَالت": 9535,
      "ْتَز": 9536,
      "▁ماذا": 9537,
      "▁قَرَأَ": 9538,
      "▁الْمَالِكِيَّةِ": 9539,
      "ُطْل": 9540,
      "مني": 9541,
      "▁موسى،": 9542,
      "ّما": 9543,
      "ِكْرُ": 9544,
      "لَ": 9545,
      "قاً": 9546,
      "▁سجد": 9547,
      "سطة": 9548,
      "▁خطب": 9549,
      "عراف": 9550,
      "▁بالفعل": 9551,
      "▁الْعُق": 9552,
      "َئِم": 9553,
      "لقاء": 9554,
      "▁الدخول": 9555,
      "▁خف": 9556,
      "▁القصاص": 9557,
      "▁لقول": 9558,
      "▁يَقْتَضِي": 9559,
      "▁قبول": 9560,
      "▁لأمر": 9561,
      "▁والسنة": 9562,
      "▁\nوله": 9563,
      "▁شيخنا": 9564,
      "▁الْمُز": 9565,
      "▁الشَّافِعِيُّ": 9566,
      "ياطين": 9567,
      "▁بالض": 9568,
      "▁إِسْحَاقَ،": 9569,
      "فاوت": 9570,
      "قة.": 9571,
      "وده": 9572,
      "▁وذهب": 9573,
      "▁والعمل": 9574,
      "▁فَقَطْ": 9575,
      "▁بالاست": 9576,
      "▁المجتمع": 9577,
      "▁سل": 9578,
      "ْوِ": 9579,
      "▁النّاس": 9580,
      "▁خر": 9581,
      "▁الإِمام": 9582,
      "َبَهُ": 9583,
      "▁خيرا": 9584,
      "٩١": 9585,
      "▁نَصَّ": 9586,
      "▁وأقام": 9587,
      "▁أئمة": 9588,
      "▁\nوأن": 9589,
      "ِيمًا": 9590,
      "▁الصَّحِيحِ": 9591,
      "▁الموطأ": 9592,
      "▁الْفَج": 9593,
      "▁يقدم": 9594,
      "▁واض": 9595,
      "▁مَنَا": 9596,
      "▁الغالب": 9597,
      "يعاب": 9598,
      "▁\nالثاني:": 9599,
[...]
