{
  "version": "1.0",
  "truncation": null,
  "padding": null,
  "added_tokens": [
    {
      "id": 0,
      "content": "<|begin_of_text|>",
      "single_word": false,
      "lstrip": false,
      "rstrip": false,
      "normalized": false,
      "special": true
    },
    {
      "id": 1,
      "content": "<|eot_id|>",
      "single_word": false,
      "lstrip": false,
      "rstrip": false,
      "normalized": false,
      "special": true
    },
    {
      "id": 2,
      "content": "<|start_header_id|>",
      "single_word": false,
      "lstrip": false,
      "rstrip": false,
      "normalized": false,
      "special": true
    },
    {
      "id": 3,
      "content": "<|end_header_id|>",
      "single_word": false,
      "lstrip": false,
      "rstrip": false,
      "normalized": false,
      "special": true
    },
    {
      "id": 4,
      "content": "system",
      "single_word": false,
      "lstrip": false,
      "rstrip": false,
      "normalized": false,
      "special": true
    },
    {
      "id": 5,
      "content": "user",
      "single_word": false,
      "lstrip": false,
      "rstrip": false,
      "normalized": false,
      "special": true
    },
    {
      "id": 6,
      "content": "assistant",
      "single_word": false,
      "lstrip": false,
      "rstrip": false,
      "normalized": false,
      "special": true
    },
    {
      "id": 7,
      "content": "<unk>",
      "single_word": false,
      "lstrip": false,
      "rstrip": false,
      "normalized": false,
      "special": true
    },
    {
      "id": 8,
      "content": "<pad>",
      "single_word": false,
      "lstrip": false,
      "rstrip": false,
      "normalized": false,
      "special": true
    },
    {
      "id": 9,
      "content": "<mask>",
      "single_word": false,
      "lstrip": false,
      "rstrip": false,
      "normalized": false,
      "special": true
    }
  ],
  "normalizer": {
    "type": "NFKC"
  },
  "pre_tokenizer": {
    "type": "Metaspace",
    "replacement": "▁",
    "prepend_scheme": "always",
    "split": true
  },
  "post_processor": null,
  "decoder": {
    "type": "Metaspace",
    "replacement": "▁",
    "prepend_scheme": "always",
    "split": true
  },
  "model": {
    "type": "BPE",
    "dropout": null,
    "unk_token": "<unk>",
    "continuing_subword_prefix": null,
    "end_of_word_suffix": null,
    "fuse_unk": false,
    "byte_fallback": false,
    "ignore_merges": false,
    "vocab": {
      "<|begin_of_text|>": 0,
      "<|eot_id|>": 1,
      "<|start_header_id|>": 2,
      "<|end_header_id|>": 3,
      "system": 4,
      "user": 5,
      "assistant": 6,
      "<unk>": 7,
      "<pad>": 8,
      "<mask>": 9,
      "\u0001": 10,
      "\u0002": 11,
      "\u0007": 12,
      "\t": 13,
      "\r": 14,
      "\u0010": 15,
      "\u001e": 16,
      "!": 17,
      "\"": 18,
      "#": 19,
      "$": 20,
      "%": 21,
      "&": 22,
      "'": 23,
      "(": 24,
      ")": 25,
      "*": 26,
      "+": 27,
      ",": 28,
      "-": 29,
      ".": 30,
      "/": 31,
      "0": 32,
      "1": 33,
      "2": 34,
      "3": 35,
      "4": 36,
      "5": 37,
      "6": 38,
      "7": 39,
      "8": 40,
      "9": 41,
      ":": 42,
      ";": 43,
      "<": 44,
      "=": 45,
      ">": 46,
      "?": 47,
      "@": 48,
      "A": 49,
      "B": 50,
      "C": 51,
      "D": 52,
      "E": 53,
      "F": 54,
      "G": 55,
      "H": 56,
      "I": 57,
      "J": 58,
      "K": 59,
      "L": 60,
      "M": 61,
      "N": 62,
      "O": 63,
      "P": 64,
      "Q": 65,
      "R": 66,
      "S": 67,
      "T": 68,
      "U": 69,
      "V": 70,
      "W": 71,
      "X": 72,
      "Y": 73,
      "Z": 74,
      "[": 75,
      "\\": 76,
      "]": 77,
      "^": 78,
      "_": 79,
      "`": 80,
      "a": 81,
      "b": 82,
      "c": 83,
      "d": 84,
      "e": 85,
      "f": 86,
      "g": 87,
      "h": 88,
      "i": 89,
      "j": 90,
      "k": 91,
      "l": 92,
      "m": 93,
      "n": 94,
      "o": 95,
      "p": 96,
      "q": 97,
      "r": 98,
      "s": 99,
      "t": 100,
      "u": 101,
      "v": 102,
      "w": 103,
      "x": 104,
      "y": 105,
      "z": 106,
      "{": 107,
      "}": 108,
      "~": 109,
      "¢": 110,
      "£": 111,
      "¤": 112,
      "¥": 113,
      "¦": 114,
      "§": 115,
      "©": 116,
      "«": 117,
      "­": 118,
      "®": 119,
      "°": 120,
      "±": 121,
      "¶": 122,
      "·": 123,
      "»": 124,
      "×": 125,
      "÷": 126,
      "Œ": 127,
      "œ": 128,
      "ˆ": 129,
      "́": 130,
      "̄": 131,
      "̈": 132,
      "̧": 133,
      "μ": 134,
      "،": 135,
      "؍": 136,
      "؎": 137,
      "ؑ": 138,
      "ؓ": 139,
      "؛": 140,
      "؟": 141,
      "ء": 142,
      "آ": 143,
      "أ": 144,
      "ؤ": 145,
      "إ": 146,
      "ئ": 147,
      "ا": 148,
      "ب": 149,
      "ة": 150,
      "ت": 151,
      "ث": 152,
      "ج": 153,
      "ح": 154,
      "خ": 155,
      "د": 156,
      "ذ": 157,
      "ر": 158,
      "ز": 159,
      "س": 160,
      "ش": 161,
      "ص": 162,
      "ض": 163,
      "ط": 164,
      "ظ": 165,
      "ع": 166,
      "غ": 167,
      "ـ": 168,
      "ف": 169,
      "ق": 170,
      "ك": 171,
      "ل": 172,
      "م": 173,
      "ن": 174,
      "ه": 175,
      "و": 176,
      "ى": 177,
      "ي": 178,
      "ً": 179,
      "ٌ": 180,
      "ٍ": 181,
      "َ": 182,
      "ُ": 183,
      "ِ": 184,
      "ّ": 185,
      "ْ": 186,
      "٠": 187,
      "١": 188,
      "٢": 189,
      "٣": 190,
      "٤": 191,
      "٥": 192,
      "٦": 193,
      "٧": 194,
      "٨": 195,
      "٩": 196,
      "ٰ": 197,
      "ٹ": 198,
      "پ": 199,
      "چ": 200,
      "ڈ": 201,
      "ڑ": 202,
      "ژ": 203,
      "ک": 204,
      "گ": 205,
      "ں": 206,
      "ھ": 207,
      "ہ": 208,
      "ۂ": 209,
      "ۃ": 210,
      "ی": 211,
      "ے": 212,
      "۔": 213,
      "۱": 214,
      "۲": 215,
      "۳": 216,
      "۴": 217,
      "​": 218,
      "‌": 219,
      "‍": 220,
      "‏": 221,
      "–": 222,
      "—": 223,
      "‘": 224,
      "’": 225,
      "‚": 226,
      "“": 227,
      "”": 228,
      "„": 229,
      "†": 230,
      "‡": 231,
      "•": 232,
      "‫": 233,
      "‰": 234,
      "‹": 235,
      "›": 236,
      "⁄": 237,
      "€": 238,
      "←": 239,
      "∞": 240,
      "∣": 241,
      "∴": 242,
      "≥": 243,
      "⊂": 244,
      "⌖": 245,
      "▁": 246,
      "□": 247,
      "⟨": 248,
      "⦗": 249,
      "⦘": 250,
      "⮙": 251,
      "﷜": 252,
      "﷤": 253,
      "ال": 254,
      "▁ال": 255,
      "▁و": 256,
      "▁م": 257,
      "▁أ": 258,
      "▁ف": 259,
      "▁ب": 260,
      "▁ع": 261,
      "َا": 262,
      "َّ": 263,
      "▁ل": 264,
      "▁ي": 265,
      "ِي": 266,
      "▁ق": 267,
      "َل": 268,
      "▁إ": 269,
      "▁وَ": 270,
      "ان": 271,
      "▁في": 272,
      "▁ت": 273,
      "▁الْ": 274,
      "َن": 275,
      "له": 276,
      "▁ك": 277,
      "▁(": 278,
      "هُ": 279,
      "▁من": 280,
      "▁ح": 281,
      "لا": 282,
      "اب": 283,
      "ما": 284,
      "لى": 285,
      "َي": 286,
      "▁الم": 287,
      "ُو": 288,
      "ين": 289,
      "▁ر": 290,
      "ها": 291,
      "هِ": 292,
      "لي": 293,
      "نَ": 294,
      "▁وال": 295,
      "▁س": 296,
      "َة": 297,
      "َيْ": 298,
      "▁.": 299,
      "▁بن": 300,
      "َر": 301,
      "َم": 302,
      "نا": 303,
      "▁ه": 304,
      "ِن": 305,
      "▁الله": 306,
      "وا": 307,
      "▁ص": 308,
      "▁عن": 309,
      "َال": 310,
      "َب": 311,
      "َو": 312,
      "▁-": 313,
      "ير": 314,
      "ار": 315,
      "▁أن": 316,
      "هم": 317,
      "َد": 318,
      "َع": 319,
      "لم": 320,
      "بي": 321,
      "▁ج": 322,
      "▁الأ": 323,
      "ِّ": 324,
      "ذا": 325,
      "ْت": 326,
      "▁،": 327,
      "ون": 328,
      "َى": 329,
      "▁على": 330,
      "ول": 331,
      "َنْ": 332,
      "▁بِ": 333,
      "ية": 334,
      "▁ش": 335,
      "▁ن": 336,
      "▁فِي": 337,
      "ْن": 338,
      "را": 339,
      "ْر": 340,
      "▁قال": 341,
      "ْل": 342,
      "ًا": 343,
      "▁ذ": 344,
      "▁١": 345,
      "▁ا": 346,
      "لَّ": 347,
      "َق": 348,
      "▁علي": 349,
      "ِنْ": 350,
      "▁الن": 351,
      "▁الح": 352,
      "ُّ": 353,
      "▁\"": 354,
      "▁عَل": 355,
      "▁ث": 356,
      "ْم": 357,
      "لك": 358,
      "▁الت": 359,
      "َت": 360,
      "▁خ": 361,
      "ــ": 362,
      "▁وق": 363,
      "▁[": 364,
      "ري": 365,
      "▁الع": 366,
      "دي": 367,
      "ِل": 368,
      "▁لا": 369,
      "▁اب": 370,
      "▁وأ": 371,
      "هَا": 372,
      "▁ما": 373,
      "▁الس": 374,
      "▁د": 375,
      "حم": 376,
      "َك": 377,
      "ام": 378,
      "اء": 379,
      "▁بال": 380,
      "▁الْم": 381,
      "َهُ": 382,
      "▁الق": 383,
      "مْ": 384,
      "▁اللَّ": 385,
      "▁الر": 386,
      "ات": 387,
      "▁عليه": 388,
      "َس": 389,
      "▁٢": 390,
      "▁الش": 391,
      "َالَ": 392,
      "مر": 393,
      "ِهِ": 394,
      "▁:": 395,
      "ست": 396,
      "من": 397,
      "ور": 398,
      "كر": 399,
      "▁غ": 400,
      "َح": 401,
      "بد": 402,
      "▁{": 403,
      "سلم": 404,
      "▁ابن": 405,
      "▁وه": 406,
      "ته": 407,
      "▁الص": 408,
      "اد": 409,
      "▁مِنْ": 410,
      "في": 411,
      "▁إلى": 412,
      "إن": 413,
      "ائ": 414,
      "ة،": 415,
      "َةِ": 416,
      "ْد": 417,
      "▁أو": 418,
      "أن": 419,
      "▁ط": 420,
      "َوْ": 421,
      "َلَّ": 422,
      "خر": 423,
      "▁وَال": 424,
      "بو": 425,
      "▁بْن": 426,
      "َذ": 427,
      "▁مُ": 428,
      "ِك": 429,
      "مع": 430,
      "▁كان": 431,
      "عد": 432,
      "▁الب": 433,
      "▁(١": 434,
      "ه،": 435,
      "▁الد": 436,
      "يد": 437,
      "▁مع": 438,
      "َج": 439,
      "َنَّ": 440,
      "مَا": 441,
      "َف": 442,
      "ُل": 443,
      "َّا": 444,
      "حمد": 445,
      "ْب": 446,
      "▁٣": 447,
      "يل": 448,
      "▁يُ": 449,
      "ني": 450,
      "▁أي": 451,
      "▁الج": 452,
      "َيْهِ": 453,
      "▁الك": 454,
      "▁عَنْ": 455,
      "وله": 456,
      "▁قَالَ": 457,
      "اً": 458,
      "▁الإ": 459,
      "َأ": 460,
      "▁«": 461,
      "حد": 462,
      "يم": 463,
      "وم": 464,
      "كم": 465,
      "▁ز": 466,
      "قد": 467,
      "▁عبد": 468,
      "▁إِ": 469,
      "ُهُ": 470,
      "▁أبي": 471,
      "بر": 472,
      "▁وَل": 473,
      "ــــ": 474,
      "ُم": 475,
      "َّة": 476,
      "ود": 477,
      "▁إن": 478,
      "▁الف": 479,
      "َاء": 480,
      "▁لل": 481,
      "▁الذ": 482,
      "ِر": 483,
      "قال": 484,
      "ِم": 485,
      "ِ،": 486,
      "▁عَلَى": 487,
      "َاب": 488,
      "▁ذلك": 489,
      "▁عَلَيْهِ": 490,
      "اف": 491,
      "▁آ": 492,
      "َانَ": 493,
      "لام": 494,
      "▁هذا": 495,
      "▁تع": 496,
      "ديث": 497,
      "ُر": 498,
      "َار": 499,
      "با": 500,
      "▁أَب": 501,
      "▁قال:": 502,
      "ْع": 503,
      "▁به": 504,
      "عل": 505,
      "▁وك": 506,
      "▁لم": 507,
      "رب": 508,
      "▁الخ": 509,
      "َص": 510,
      "َان": 511,
      "َه": 512,
      "ُوا": 513,
      "▁(٢": 514,
      "▁له": 515,
      "ُول": 516,
      "▁٤": 517,
      "▁وسلم": 518,
      "ِع": 519,
      "ِب": 520,
      "▁وي": 521,
      "▁وع": 522,
      "▁أبو": 523,
      "▁ولا": 524,
      "شر": 525,
      "▁..": 526,
      "حي": 527,
      "▁وت": 528,
      "لف": 529,
      "عة": 530,
      "َام": 531,
      "▁الْح": 532,
      "اه": 533,
      "▁/": 534,
      "جه": 535,
      "َةَ": 536,
      "▁صلى": 537,
      "ذه": 538,
      "رف": 539,
      "لة": 540,
      "وَ": 541,
      "َمْ": 542,
      "َخ": 543,
      "▁ثم": 544,
      "ُونَ": 545,
      "قي": 546,
      "سن": 547,
      "▁وهو": 548,
      "▁الث": 549,
      "▁وا": 550,
      "▁مَا": 551,
      "▁الْمُ": 552,
      "كون": 553,
      "▁الط": 554,
      "▁لِ": 555,
      "▁...": 556,
      "ِنَّ": 557,
      "▁(١)": 558,
      "ِد": 559,
      "فر": 560,
      "اني": 561,
      "▁هو": 562,
      "مَ": 563,
      "▁وَق": 564,
      "الى": 565,
      "ِينَ": 566,
      "▁وقال": 567,
      "َةُ": 568,
      "يب": 569,
      "فس": 570,
      "▁ان": 571,
      "▁أَنَّ": 572,
      "َنَا": 573,
      "▁نَ": 574,
      "▁يق": 575,
      "سم": 576,
      "▁وم": 577,
      "لت": 578,
      "▁الز": 579,
      "▁اللَّهُ": 580,
      "رو": 581,
      "َرْ": 582,
      "▁لأن": 583,
      "ِكَ": 584,
      "▁يع": 585,
      "▁بِال": 586,
      "َض": 587,
      "▁محمد": 588,
      "▁ول": 589,
      "جل": 590,
      "اق": 591,
      "▁الْع": 592,
      "▁تعالى": 593,
      "صل": 594,
      "ٍ،": 595,
      "▁إِل": 596,
      "▁قوله": 597,
      "رة": 598,
      "َدَّ": 599,
      "َوْل": 600,
      "َاد": 601,
      "▁٥": 602,
      "▁وَس": 603,
      "▁وَأ": 604,
      "ُمْ": 605,
      "ْف": 606,
      "ضي": 607,
      "▁بع": 608,
      "▁الآ": 609,
      "وب": 610,
      "ْح": 611,
      "▁إذا": 612,
      "▁فيه": 613,
      "رج": 614,
      "▁اللَّهِ": 615,
      "نة": 616,
      "▁(٣": 617,
      "▁فإن": 618,
      "▁الو": 619,
      "سول": 620,
      "نى": 621,
      "▁مِ": 622,
      "▁الْأ": 623,
      "اع": 624,
      "▁بْنُ": 625,
      "▁أَنْ": 626,
      "تاب": 627,
      "بل": 628,
      "▁غير": 629,
      "▁وفي": 630,
      "▁قَالَ:": 631,
      "▁قد": 632,
      "َيْر": 633,
      "▁لي": 634,
      "▁ض": 635,
      "َط": 636,
      "َذَا": 637,
      "▁فقال": 638,
      "إِ": 639,
      "▁بعد": 640,
      "▁أَوْ": 641,
      "هما": 642,
      "ْي": 643,
      "َش": 644,
      "▁الْق": 645,
      "مة": 646,
      "▁(٢)": 647,
      "لق": 648,
      "▁كَانَ": 649,
      "▁أنه": 650,
      "▁إلا": 651,
      "▁لَا": 652,
      "▁بين": 653,
      "ْو": 654,
      "▁عمر": 655,
      "َلَّى": 656,
      "َلِكَ": 657,
      "رك": 658,
      "هُوَ": 659,
      "خت": 660,
      "ْق": 661,
      "ذلك": 662,
      "تب": 663,
      "وي": 664,
      "▁النَّ": 665,
      "ْس": 666,
      "صر": 667,
      "▁لَهُ": 668,
      "وس": 669,
      "▁وب": 670,
      "ه.": 671,
      "▁وج": 672,
      "▁والم": 673,
      "ِيل": 674,
      "▁حد": 675,
      "َات": 676,
      "نِ": 677,
      "▁وقد": 678,
      "رض": 679,
      "▁}": 680,
      "اري": 681,
      "▁عَن": 682,
      "سب": 683,
      "▁كما": 684,
      "▁الذي": 685,
      "اج": 686,
      "كن": 687,
      "فع": 688,
      "مي": 689,
      "▁بْنِ": 690,
      "لب": 691,
      "ُن": 692,
      "ْك": 693,
      "تى": 694,
      "▁صَلَّى": 695,
      "هل": 696,
      "ِير": 697,
      "▁رسول": 698,
      "ظر": 699,
      "ــــــــ": 700,
      "قة": 701,
      "عم": 702,
      "ِيُّ": 703,
      "هر": 704,
      "اح": 705,
      "َتْ": 706,
      "ذَا": 707,
      "▁وَسَلَّ": 708,
      "▁عَب": 709,
      "تح": 710,
      "▁وإن": 711,
      "▁\"ال": 712,
      "غير": 713,
      "▁فَق": 714,
      "دة": 715,
      "▁عند": 716,
      "َرَ": 717,
      "َائ": 718,
      "▁فأ": 719,
      "▁فَ": 720,
      "▁وَسَلَّمَ": 721,
      "َّل": 722,
      "▁ومن": 723,
      "▁٦": 724,
      "َّد": 725,
      "▁إلي": 726,
      "▁أخ": 727,
      "وف": 728,
      "▁النا": 729,
      "▁عنه": 730,
      "ابن": 731,
      "▁لأ": 732,
      "وج": 733,
      "سْت": 734,
      "▁كل": 735,
      "▁ذكر": 736,
      "َز": 737,
      "▁هذه": 738,
      "ِّي": 739,
      "▁المع": 740,
      "وع": 741,
      "▁إِلَى": 742,
      "▁أم": 743,
      "▁وإ": 744,
      "تم": 745,
      "▁وس": 746,
      "ة.": 747,
      "ْرِ": 748,
      "عي": 749,
      "▁فَل": 750,
      "ِيَّة": 751,
      "▁الا": 752,
      "▁الَّ": 753,
      "▁مِنَ": 754,
      "ِيَ": 755,
      "ها،": 756,
      "▁حديث": 757,
      "ثنا": 758,
      "وق": 759,
      "٤)": 760,
      "َّر": 761,
      "َدَّث": 762,
      "جر": 763,
      "ُب": 764,
      "ُك": 765,
      "صح": 766,
      "َهَا": 767,
      "َدْ": 768,
      "▁[١": 769,
      "▁*": 770,
      "َاف": 771,
      "َعْ": 772,
      "مان": 773,
      "وى": 774,
      "▁شي": 775,
      "▁ظ": 776,
      "▁أَبِي": 777,
      "َاع": 778,
      "▁ابْن": 779,
      "▁يكون": 780,
      "▁يج": 781,
      "راء": 782,
      "تي": 783,
      "▁ين": 784,
      "ده": 785,
      "▁بِهِ": 786,
      "مُ": 787,
      "▁يت": 788,
      "▁وَي": 789,
      "▁ور": 790,
      "▁بعض": 791,
      "▁حَدَّث": 792,
      "▁(٣)": 793,
      "▁أَح": 794,
      "َاح": 795,
      "▁الْب": 796,
      "لّ": 797,
      "ماء": 798,
      "َسُول": 799,
      "فة": 800,
      "يا": 801,
      "ِيد": 802,
      "▁أع": 803,
      "ُ:": 804,
      "▁ون": 805,
      "▁عَبْد": 806,
      "ورة": 807,
      "▁أحمد": 808,
      "بت": 809,
      "▁اللَّه": 810,
      "▁٧": 811,
      "▁لِل": 812,
      "ضع": 813,
      "ِيِّ": 814,
      "▁است": 815,
      "▁الغ": 816,
      "ذكر": 817,
      "إِنْ": 818,
      "حيح": 819,
      "َ،": 820,
      "ُق": 821,
      "▁وكان": 822,
      "▁حتى": 823,
      "َةٌ": 824,
      "ُ،": 825,
      "▁أخر": 826,
      "حا": 827,
      "▁ذَلِكَ": 828,
      "خل": 829,
      "َةً": 830,
      "▁أحد": 831,
      "َث": 832,
      "▁التي": 833,
      "▁الْج": 834,
      "وز": 835,
      "▁رَسُول": 836,
      "▁التَّ": 837,
      "هد": 838,
      "▁وما": 839,
      "▁مُح": 840,
      "رق": 841,
      "▁)": 842,
      "ِق": 843,
      "▁الرَّ": 844,
      "به": 845,
      "مس": 846,
      "▁أَبُو": 847,
      "ُمَّ": 848,
      "يت": 849,
      "هُمْ": 850,
      "▁الْو": 851,
      "ّا": 852,
      "َاق": 853,
      "▁مَع": 854,
      "مل": 855,
      "▁بل": 856,
      "▁الحديث": 857,
      "قول": 858,
      "در": 859,
      "▁النبي": 860,
      "ين،": 861,
      "ًا،": 862,
      "▁الْف": 863,
      "سان": 864,
      "▁الَّذ": 865,
      "ُد": 866,
      "ْج": 867,
      "▁لَمْ": 868,
      "▁روا": 869,
      "وه": 870,
      "ُس": 871,
      "▁إس": 872,
      "حت": 873,
      "٥)": 874,
      "▁فى": 875,
      "▁القر": 876,
      "▁أَن": 877,
      "▁وَك": 878,
      "إِنَّ": 879,
      "وت": 880,
      "ْتُ": 881,
      "ْط": 882,
      "▁والت": 883,
      "▁نا": 884,
      "▁وَع": 885,
      "ثر": 886,
      "▁سب": 887,
      "قت": 888,
      "ِهَا": 889,
      "ِف": 890,
      "▁مَنْ": 891,
      "رأ": 892,
      "رم": 893,
      "َوْم": 894,
      "بة": 895,
      "▁تَع": 896,
      "▁٨": 897,
      "َمَّد": 898,
      "مام": 899,
      "راد": 900,
      "▁مث": 901,
      "▁فه": 902,
      "▁حَدَّثَنَا": 903,
      "▁الْك": 904,
      "▁كتاب": 905,
      "▁وح": 906,
      "▁أهل": 907,
      "أَنَّ": 908,
      "▁مت": 909,
      "ليل": 910,
      "▁سنة": 911,
      "الك": 912,
      "ثير": 913,
      "سر": 914,
      "قط": 915,
      "▁هَذَا": 916,
      "▁فل": 917,
      "قل": 918,
      "اص": 919,
      "َغ": 920,
      "لاث": 921,
      "ريق": 922,
      "▁وَم": 923,
      "▁يقول": 924,
      "ِح": 925,
      "▁فِيهِ": 926,
      "َةٍ": 927,
      "َدِي": 928,
      "َمَا": 929,
      "▁والأ": 930,
      "▁مس": 931,
      "▁منه": 932,
      "لَّا": 933,
      "َيْنِ": 934,
      "وال": 935,
      "▁ولم": 936,
      "▁أَيْ": 937,
      "▁المن": 938,
      "▁مُحَمَّد": 939,
      "ْص": 940,
      "▁وَهُوَ": 941,
      "لها": 942,
      "عت": 943,
      "شي": 944,
      "ِس": 945,
      "٢]": 946,
      "ِيم": 947,
      "▁الْخ": 948,
      "▁ثُمَّ": 949,
      "َاءِ": 950,
      "▁[١]": 951,
      "▁مح": 952,
      "از": 953,
      "بير": 954,
      "ِت": 955,
      "▁يد": 956,
      "▁يَق": 957,
      "سي": 958,
      "قر": 959,
      "الم": 960,
      "▁أَخ": 961,
      "كان": 962,
      "ْه": 963,
      "▁بها": 964,
      "ِنْد": 965,
      "▁وأن": 966,
      "آن": 967,
      "▁فيها": 968,
      "َّى": 969,
      "▁بَيْ": 970,
      "▁وابن": 971,
      "▁فلا": 972,
      "ُف": 973,
      "ْنَ": 974,
      "▁الناس": 975,
      "َمَّا": 976,
      "هم،": 977,
      "▁وَلَا": 978,
      "ُون": 979,
      "▁الل": 980,
      "ه:": 981,
      "▁حدثنا": 982,
      "لاة": 983,
      "ُج": 984,
      "▁بأ": 985,
      "▁٩": 986,
      "ُور": 987,
      "٦)": 988,
      "ُع": 989,
      "▁قَال": 990,
      "َعْد": 991,
      "دين": 992,
      "ادة": 993,
      "▁يا": 994,
      "راه": 995,
      "َّاس": 996,
      "▁الض": 997,
      "َاهُ": 998,
      "كل": 999,
      "ِ.": 1000,
      "رد": 1001,
      "▁يح": 1002,
      "▁بد": 1003,
      "▁عَنِ": 1004,
      "فا": 1005,
      "جم": 1006,
      "▁يوم": 1007,
      "ٌ،": 1008,
      "▁الي": 1009,
      "ْخ": 1010,
      "▁الشي": 1011,
      "▁السَّ": 1012,
      "▁باب": 1013,
      "▁[ال": 1014,
      "ذي": 1015,
      "رح": 1016,
      "▁أَنَّهُ": 1017,
      "اط": 1018,
      "قدم": 1019,
      "▁{و": 1020,
      "سل": 1021,
      "صف": 1022,
      "سلام": 1023,
      "▁فَأ": 1024,
      "لاف": 1025,
      "▁عِنْد": 1026,
      "▁قَوْل": 1027,
      "▁هُوَ": 1028,
      "▁يَك": 1029,
      "كَ": 1030,
      "▁قوله:": 1031,
      "▁(ال": 1032,
      "▁وَف": 1033,
      "▁١٠": 1034,
      "▁(٤)": 1035,
      "قم": 1036,
      "باس": 1037,
      "▁الآية": 1038,
      "َلَ": 1039,
      "زل": 1040,
      "▁قول": 1041,
      "▁الصَّ": 1042,
      "▁لما": 1043,
      "▁إل": 1044,
      "لاً": 1045,
      "▁واحد": 1046,
      "زم": 1047,
      "▁والن": 1048,
      "خرج": 1049,
      "بار": 1050,
      "▁المؤ": 1051,
      "▁وهذا": 1052,
      "عيد": 1053,
      "فق": 1054,
      "▁الظ": 1055,
      "ماع": 1056,
      "٧)": 1057,
      "جد": 1058,
      "▁غَيْر": 1059,
      "▁المس": 1060,
      "زي": 1061,
      "بع": 1062,
      "▁رضي": 1063,
      "▁رأ": 1064,
      "َدِيث": 1065,
      "▁بم": 1066,
      "َاج": 1067,
      "▁وَج": 1068,
      "٣]": 1069,
      "▁ليس": 1070,
      "▁مو": 1071,
      "▁(و": 1072,
      "▁الشَّ": 1073,
      "ية،": 1074,
      "يس": 1075,
      "▁فَقَالَ": 1076,
      "▁إِنَّ": 1077,
      "▁الوا": 1078,
      "▁قبل": 1079,
      "▁المت": 1080,
      "واب": 1081,
      "حة": 1082,
      "شت": 1083,
      "▁أح": 1084,
      "فت": 1085,
      "دا": 1086,
      "▁بي": 1087,
      "ضل": 1088,
      "▁١١": 1089,
      "َانِ": 1090,
      "َاة": 1091,
      "▁ثنا": 1092,
      "َنِي": 1093,
      "▁لو": 1094,
      "▁فقال:": 1095,
      "▁أخرجه": 1096,
      "▁تح": 1097,
      "▁لاَ": 1098,
      "▁أيض": 1099,
      "▁إليه": 1100,
      "▁,": 1101,
      "▁النَّب": 1102,
      "▁أمر": 1103,
      "▁كثير": 1104,
      "الة": 1105,
      "▁البي": 1106,
      "يف": 1107,
      "رير": 1108,
      "▁أس": 1109,
      "يات": 1110,
      "وان": 1111,
      "خذ": 1112,
      "▁بكر": 1113,
      "حو": 1114,
      "▁وقيل": 1115,
      "▁مسلم": 1116,
      "▁آخر": 1117,
      "▁نفس": 1118,
      "▁[٢]": 1119,
      "ْلِ": 1120,
      "▁وغير": 1121,
      "٨)": 1122,
      "ْأ": 1123,
      "▁وَه": 1124,
      "▁١٢": 1125,
      "▁تعالى:": 1126,
      "يث": 1127,
      "▁بأن": 1128,
      "َلْ": 1129,
      "َيْس": 1130,
      "نَّ": 1131,
      "تَّ": 1132,
      "▁فَي": 1133,
      "▁فت": 1134,
      "▁قلت": 1135,
      "▁رج": 1136,
      "▁القرآن": 1137,
      "لاء": 1138,
      "قوله": 1139,
      "خاري": 1140,
      "▁وَت": 1141,
      "▁١٣": 1142,
      "ِيع": 1143,
      "َالَى": 1144,
      "ُود": 1145,
      "َاس": 1146,
      "▁فال": 1147,
      "▁١٩": 1148,
      "▁لِأَنَّ": 1149,
      "▁إِذَا": 1150,
      "ة:": 1151,
      "▁لأنه": 1152,
      "ــــــــــــــــ": 1153,
      "▁دا": 1154,
      "▁رقم": 1155,
      "رى": 1156,
      "َيْن": 1157,
      "▁يس": 1158,
      "َتَّى": 1159,
      "▁وف": 1160,
      "▁إب": 1161,
      "▁وهي": 1162,
      "َرَّ": 1163,
      "▁عَنْهُ": 1164,
      "صد": 1165,
      "▁مِنْهُ": 1166,
      "َرِي": 1167,
      "▁أب": 1168,
      "عا": 1169,
      "▁وَر": 1170,
      "▁أي:": 1171,
      "َرُ": 1172,
      "ارة": 1173,
      "اَ": 1174,
      "▁كانت": 1175,
      "▁اللهُ": 1176,
      "▁بَعْد": 1177,
      "صب": 1178,
      "ان،": 1179,
      "ِث": 1180,
      "▁لهم": 1181,
      "ْنَا": 1182,
      "▁الرحم": 1183,
      "▁شَيْ": 1184,
      "▁يَع": 1185,
      "اهر": 1186,
      "تها": 1187,
      "٩)": 1188,
      "٠)": 1189,
      "ضِ": 1190,
      "▁الَّذِي": 1191,
      "▁وَب": 1192,
      "▁تَعَالَى": 1193,
      "▁قَب": 1194,
      "▁الحسن": 1195,
      "ند": 1196,
      "▁صحيح": 1197,
      "▁أَو": 1198,
      "وة": 1199,
      "▁وَقَالَ": 1200,
      "▁وخ": 1201,
      "قات": 1202,
      "١)": 1203,
      "ُوب": 1204,
      "▁طريق": 1205,
      "▁بما": 1206,
      "▁حَتَّى": 1207,
      "▁اله": 1208,
      "▁١٤": 1209,
      "َبَ": 1210,
      "راهيم": 1211,
      "طي": 1212,
      "كُمْ": 1213,
      "▁سعيد": 1214,
      "عر": 1215,
      "▁كَمَا": 1216,
      "▁جاء": 1217,
      "حق": 1218,
      "َاي": 1219,
      "▁المص": 1220,
      "▁للم": 1221,
      "▁عد": 1222,
      "تُ": 1223,
      "▁هي": 1224,
      "ليس": 1225,
      "ِهِمْ": 1226,
      "▁القا": 1227,
      "▁بَيْنَ": 1228,
      "▁عَبْدِ": 1229,
      "▁انظر": 1230,
      "َنِ": 1231,
      "ٍّ": 1232,
      "▁وَفِي": 1233,
      "▁سمع": 1234,
      "إذا": 1235,
      "▁البخاري": 1236,
      "َيِّ": 1237,
      "اس": 1238,
      "▁شيء": 1239,
      "عب": 1240,
      "▁١/": 1241,
      "حر": 1242,
      "▁قت": 1243,
      "▁مج": 1244,
      "٢)": 1245,
      "َيَّ": 1246,
      "▁يست": 1247,
      "وح": 1248,
      "▁مثل": 1249,
      "ِين": 1250,
      "ضر": 1251,
      "َاءَ": 1252,
      "َعَ": 1253,
      "▁يَح": 1254,
      "▁الدين": 1255,
      "▁الأَ": 1256,
      "▁إذ": 1257,
      "▁مالك": 1258,
      "▁هـ": 1259,
      "▁منها": 1260,
      "خْت": 1261,
      "▁فهو": 1262,
      "ُهَا": 1263,
      "▁يَج": 1264,
      "٤]": 1265,
      "معنى": 1266,
      "▁ثلاث": 1267,
      "ى،": 1268,
      "ِ:": 1269,
      "▁يم": 1270,
      "امة": 1271,
      "▁٢/": 1272,
      "▁أخبر": 1273,
      "▁الأول": 1274,
      "▁كُل": 1275,
      "▁يَت": 1276,
      "ْتَ": 1277,
      "▁الأم": 1278,
      "٣)": 1279,
      "▁مر": 1280,
      "▁الثَّ": 1281,
      "▁وَالْم": 1282,
      "ِهِ،": 1283,
      "قص": 1284,
      "ِيّ": 1285,
      "▁داود": 1286,
      "▁رَب": 1287,
      "فظ": 1288,
      "▁كال": 1289,
      "صحاب": 1290,
      "▁والع": 1291,
      "▁الأن": 1292,
      "ئة": 1293,
      "▁وَإِنْ": 1294,
      "▁الرحمن": 1295,
      "▁والح": 1296,
      "م،": 1297,
      "▁فق": 1298,
      "▁لها": 1299,
      "▁عَم": 1300,
      "▁؛": 1301,
      "جب": 1302,
      "ينا": 1303,
      "▁أك": 1304,
      "▁فَإِنَّ": 1305,
      "▁إِلَّا": 1306,
      "▁عباس": 1307,
      "▁سورة": 1308,
      "▁يأ": 1309,
      "َاو": 1310,
      "▁وص": 1311,
      "▁عشر": 1312,
      "▁الإسلام": 1313,
      "د،": 1314,
      "نت": 1315,
      "▁فقد": 1316,
      "ذهب": 1317,
      "فسير": 1318,
      "َهُمْ": 1319,
      "▁ولك": 1320,
      "ًّا": 1321,
      "▁أش": 1322,
      "▁عمرو": 1323,
      "َرِ": 1324,
      "▁أص": 1325,
      "وفي": 1326,
      "الح": 1327,
      "▁(٤": 1328,
      "ي،": 1329,
      "▁وأبو": 1330,
      "▁ابْنُ": 1331,
      "▁علم": 1332,
      "ٌّ": 1333,
      "▁مك": 1334,
      "رع": 1335,
      "ميع": 1336,
      "▁يز": 1337,
      "▁عُم": 1338,
      "▁الذين": 1339,
      "تق": 1340,
      "َمُ": 1341,
      "▁١٥": 1342,
      "▁روى": 1343,
      "تْ": 1344,
      "ائل": 1345,
      "▁[٣]": 1346,
      "ُص": 1347,
      "▁رواه": 1348,
      "▁مَال": 1349,
      "نه": 1350,
      "َابِ": 1351,
      "▁قب": 1352,
      "▁حم": 1353,
      "اة": 1354,
      "▁يحي": 1355,
      "اريخ": 1356,
      "▁أق": 1357,
      "َاز": 1358,
      "َيْد": 1359,
      "انه": 1360,
      "▁إبراهيم": 1361,
      "▁١٨": 1362,
      "راً": 1363,
      "▁وجه": 1364,
      "َّةِ": 1365,
      "فتح": 1366,
      "يّ": 1367,
      "ذر": 1368,
      "مه": 1369,
      "هب": 1370,
      "ُوس": 1371,
      "وض": 1372,
      "ُخ": 1373,
      "طر": 1374,
      "ْبَر": 1375,
      "َيْسَ": 1376,
      "▁وقوله": 1377,
      "▁هنا": 1378,
      "ولى": 1379,
      "▁رجل": 1380,
      "▁يَوْم": 1381,
      "ْمِ": 1382,
      "فْس": 1383,
      "▁النس": 1384,
      "▁١٦": 1385,
      "▁لَك": 1386,
      "▁يَس": 1387,
      "▁بك": 1388,
      "َةِ،": 1389,
      "ها.": 1390,
      "▁رب": 1391,
      "▁١٧": 1392,
      "ُه": 1393,
      "▁هُ": 1394,
      "▁بح": 1395,
      "▁زيد": 1396,
      "▁وأما": 1397,
      "▁(٥)": 1398,
      "ذب": 1399,
      "▁السلام": 1400,
      "▁تن": 1401,
      "ابة": 1402,
      "▁فع": 1403,
      "وات": 1404,
      "ين.": 1405,
      "َةَ،": 1406,
      "ِه": 1407,
      "▁(أ": 1408,
      "▁وان": 1409,
      "ِّر": 1410,
      "▁عِنْدَ": 1411,
      "▁يش": 1412,
      "▁العلم": 1413,
      "▁أَي": 1414,
      "وص": 1415,
      "▁أَه": 1416,
      "لال": 1417,
      "غة": 1418,
      "َدَ": 1419,
      "سْل": 1420,
      "َارِ": 1421,
      "َاهِ": 1422,
      "▁اسْت": 1423,
      "▁يقال": 1424,
      "▁الاست": 1425,
      "▁قيل": 1426,
      "ْث": 1427,
      "َِنَّ": 1428,
      "ْض": 1429,
      "ِيح": 1430,
      "▁مَعَ": 1431,
      "مت": 1432,
      "▁وث": 1433,
      "طل": 1434,
      "▁ولو": 1435,
      "ِص": 1436,
      "قه": 1437,
      "َلا": 1438,
      "َاتِ": 1439,
      "▁فا": 1440,
      "▁الصلاة": 1441,
      "▁تقدم": 1442,
      "▁اخت": 1443,
      "إِذَا": 1444,
      "▁أنا": 1445,
      "▁يَقُول": 1446,
      "٥]": 1447,
      "َاض": 1448,
      "▁فيما": 1449,
      "رط": 1450,
      "ا،": 1451,
      "الب": 1452,
      "صار": 1453,
      "ُح": 1454,
      "نف": 1455,
      "ماً": 1456,
      "▁يعني": 1457,
      "▁اللهِ": 1458,
      "▁تأ": 1459,
      "ِيب": 1460,
      "▁أَص": 1461,
      "▁أَم": 1462,
      "عين": 1463,
      "▁أج": 1464,
      "▁حال": 1465,
      "َظ": 1466,
      "اش": 1467,
      "▁اسم": 1468,
      "▁الشيخ": 1469,
      "قب": 1470,
      "▁فإذا": 1471,
      "لهم": 1472,
      "▁مص": 1473,
      "حاق": 1474,
      "َامِ": 1475,
      "▁منهم": 1476,
      "▁صاح": 1477,
      "ريب": 1478,
      "▁يك": 1479,
      "َاص": 1480,
      "▁الخط": 1481,
      "ته،": 1482,
      "▁أد": 1483,
      "غني": 1484,
      "▁•": 1485,
      "وك": 1486,
      "َعْض": 1487,
      "ْز": 1488,
      "ِبُ": 1489,
      "▁الدَّ": 1490,
      "▁الأرض": 1491,
      "ْهُ": 1492,
      "نَا": 1493,
      "▁موس": 1494,
      "رائ": 1495,
      "قَوْل": 1496,
      "ناه": 1497,
      "▁المسلم": 1498,
      "▁أَحْم": 1499,
      "▁قَبْل": 1500,
      "فِع": 1501,
      "▁الكتاب": 1502,
      "▁عم": 1503,
      "▁دون": 1504,
      "▁لك": 1505,
      "▁مما": 1506,
      "▁يحيى": 1507,
      "ريد": 1508,
      "وط": 1509,
      "ُهُمْ": 1510,
      "▁يخ": 1511,
      "▁وَح": 1512,
      "▁ها": 1513,
      "▁وَمَا": 1514,
      "ِيق": 1515,
      "ْرٍ": 1516,
      "▁عليهم": 1517,
      "تِ": 1518,
      "▁والله": 1519,
      "▁٢٠": 1520,
      "▁النَّاس": 1521,
      "▁سَم": 1522,
      "ِيَّةِ": 1523,
      "▁ترج": 1524,
      "انية": 1525,
      "َاه": 1526,
      "طلق": 1527,
      "ضم": 1528,
      "▁الإِ": 1529,
      "▁تق": 1530,
      "ذيب": 1531,
      "▁وش": 1532,
      "غَيْر": 1533,
      "▁عَلَيْ": 1534,
      "▁قل": 1535,
      "▁أَحَد": 1536,
      "▁رَج": 1537,
      "▁تَق": 1538,
      "▁قُل": 1539,
      "▁مست": 1540,
      "▁رحم": 1541,
      "▁ود": 1542,
      "َلَا": 1543,
      "▁سن": 1544,
      "▁الْإِ": 1545,
      "▁فِيهَا": 1546,
      "لفظ": 1547,
      "▁(ف": 1548,
      "الث": 1549,
      "▁الآخر": 1550,
      "▁يُق": 1551,
      "تِي": 1552,
      "▁رَض": 1553,
      "▁حسن": 1554,
      "▁والإ": 1555,
      "▁بِأ": 1556,
      "مال": 1557,
      "▁أما": 1558,
      "▁فعل": 1559,
      "▁عام": 1560,
      "▁بت": 1561,
      "▁المح": 1562,
      "▁الإن": 1563,
      "َّب": 1564,
      "▁بإ": 1565,
      "ِيلَ": 1566,
      "َاحِد": 1567,
      "▁الإمام": 1568,
      "▁إنما": 1569,
      "▁الحق": 1570,
      "اهد": 1571,
      "َرْب": 1572,
      "▁حق": 1573,
      "ربي": 1574,
      "▁الحج": 1575,
      "ظم": 1576,
      "رس": 1577,
      "ُوع": 1578,
      "َاط": 1579,
      "▁«ال": 1580,
      "شْت": 1581,
      "اء،": 1582,
      "تد": 1583,
      "▁فك": 1584,
      "لمة": 1585,
      "▁\"أ": 1586,
      "▁يجوز": 1587,
      "▁بَعْدَ": 1588,
      "نيا": 1589,
      "بيد": 1590,
      "▁يكن": 1591,
      "ضى": 1592,
      "▁الله،": 1593,
      "طع": 1594,
      "▁يَا": 1595,
      "▁وعن": 1596,
      "▁عز": 1597,
      "▁ابْنِ": 1598,
      "▁فلم": 1599,
      "ًا.": 1600,
      "▁لابن": 1601,
      "▁خال": 1602,
      "ّة": 1603,
      "ديد": 1604,
      "▁أف": 1605,
      "▁٢١": 1606,
      "▁جمع": 1607,
      "▁مِن": 1608,
      "خص": 1609,
      "يمان": 1610,
      "▁لأَِنَّ": 1611,
      "ْنِ": 1612,
      "ُونُ": 1613,
      "َمِ": 1614,
      "▁الْغ": 1615,
      "٢،": 1616,
      "▁بالم": 1617,
      "▁قلت:": 1618,
      "▁يَد": 1619,
      "صلى": 1620,
      "لاق": 1621,
      "▁الأصل": 1622,
      "▁وز": 1623,
      "ْذ": 1624,
      "▁(٥": 1625,
      "َمَ": 1626,
      "▁الَّذِينَ": 1627,
      "٣،": 1628,
      "▁الثاني": 1629,
      "▁]": 1630,
      "▁إِنْ": 1631,
      "▁رَسُولُ": 1632,
      "يه": 1633,
      "▁وَقَدْ": 1634,
      "▁الأمر": 1635,
      "َذِهِ": 1636,
      "▁أَخْبَر": 1637,
      "إِن": 1638,
      "▁إِس": 1639,
      "جز": 1640,
      "▁الرجل": 1641,
      "▁أبا": 1642,
      "▁إلَى": 1643,
      "لط": 1644,
      "▁فإنه": 1645,
      "▁جع": 1646,
      "٥،": 1647,
      "هـ": 1648,
      "ِيَّ": 1649,
      "▁بِم": 1650,
      "▁فَإِنْ": 1651,
      "٤،": 1652,
      "▁معنى": 1653,
      "اً،": 1654,
      "١،": 1655,
      "َكَ": 1656,
      "تهى": 1657,
      "».": 1658,
      "تَ": 1659,
      "٦،": 1660,
      "▁٢٢": 1661,
      "روف": 1662,
      "عه": 1663,
      "▁دار": 1664,
      "▁رواية": 1665,
      "طب": 1666,
      "ةِ": 1667,
      "٩،": 1668,
      "تين": 1669,
      "ائر": 1670,
      "▁عل": 1671,
      "▁الملك": 1672,
      "ِيَّةُ": 1673,
      "▁أَع": 1674,
      "▁ولكن": 1675,
      "٧،": 1676,
      "▁كلام": 1677,
      "ْرُ": 1678,
      "ْظ": 1679,
      "▁المؤمن": 1680,
      "▁يؤ": 1681,
      "َّافِع": 1682,
      "▁موسى": 1683,
      "▁وذلك": 1684,
      "▁حَدِيث": 1685,
      "▁سبح": 1686,
      "٠،": 1687,
      "٨،": 1688,
      "▁وإنما": 1689,
      "تهم": 1690,
      "▁دين": 1691,
      "ريم": 1692,
      "▁حب": 1693,
      "▁عليها": 1694,
      "▁حيث": 1695,
      "واء": 1696,
      "ْمُ": 1697,
      "ائي": 1698,
      "▁لَوْ": 1699,
      "ْتِ": 1700,
      "طف": 1701,
      "▁(١/": 1702,
      "َالِ": 1703,
      "▁٢٣": 1704,
      "▁سعد": 1705,
      "▁تس": 1706,
      "٦]": 1707,
      "َاءُ": 1708,
      "▁[٤]": 1709,
      "▁قَدْ": 1710,
      "افظ": 1711,
      "ك،": 1712,
      "▁سَب": 1713,
      "ذك": 1714,
      "ْلُ": 1715,
      "▁أصحاب": 1716,
      "وية": 1717,
      "قيق": 1718,
      "▁حين": 1719,
      "ُوف": 1720,
      "ره": 1721,
      "▁سلي": 1722,
      "نس": 1723,
      "َعَل": 1724,
      "▁القول": 1725,
      "▁الرَّح": 1726,
      "▁مش": 1727,
      "ثمان": 1728,
      "زة": 1729,
      "ُط": 1730,
      "ُذ": 1731,
      "ْنِي": 1732,
      "▁عب": 1733,
      "▁حكم": 1734,
      "▁مق": 1735,
      "▁أعلم": 1736,
      "▁وقال:": 1737,
      "▁فلما": 1738,
      "▁سي": 1739,
      "لائ": 1740,
      "▁جميع": 1741,
      "▁بذلك": 1742,
      "▁إِن": 1743,
      "كام": 1744,
      "▁بخ": 1745,
      "▁أول": 1746,
      "لية": 1747,
      "كت": 1748,
      "َدُ": 1749,
      "▁ذا": 1750,
      "▁والث": 1751,
      "▁واست": 1752,
      "▁لت": 1753,
      "رمذي": 1754,
      "فعل": 1755,
      "▁صاحب": 1756,
      "▁أرب": 1757,
      "▁وعلى": 1758,
      "▁مَس": 1759,
      "▁وَلاَ": 1760,
      "▁لِي": 1761,
      "▁إسحاق": 1762,
      "▁ذكره": 1763,
      "علم": 1764,
      "ملة": 1765,
      "اية": 1766,
      "▁يقول:": 1767,
      "▁بَعْض": 1768,
      "ناد": 1769,
      "▁إِلا": 1770,
      "ُت": 1771,
      "▁وإذا": 1772,
      "▁نس": 1773,
      "زُ": 1774,
      "▁شرح": 1775,
      "▁العرب": 1776,
      "ءِ": 1777,
      "سين": 1778,
      "▁يب": 1779,
      "▁بني": 1780,
      "▁اللَّهَ": 1781,
      "▁٢٤": 1782,
      "▁بق": 1783,
      "دل": 1784,
      "ثبت": 1785,
      "ويل": 1786,
      "▁ومع": 1787,
      "َبِ": 1788,
      "▁الحكم": 1789,
      "ع،": 1790,
      "▁شيئ": 1791,
      "رت": 1792,
      "▁هم": 1793,
      "فه": 1794,
      "بيه": 1795,
      "▁العل": 1796,
      "ر،": 1797,
      "▁الزَّ": 1798,
      "ّه": 1799,
      "▁(٢/": 1800,
      "ِيف": 1801,
      "ُض": 1802,
      "▁الْي": 1803,
      "ِش": 1804,
      "▁وليس": 1805,
      "دع": 1806,
      "▁فَت": 1807,
      "▁خير": 1808,
      "▁والش": 1809,
      "▁٢٥": 1810,
      "اله": 1811,
      "هم.": 1812,
      "مش": 1813,
      "▁يَنْ": 1814,
      "▁٣/": 1815,
      "ذَلِكَ": 1816,
      "ُرْ": 1817,
      "▁ورو": 1818,
      "▁ات": 1819,
      "▁رَضِيَ": 1820,
      "▁تص": 1821,
      "▁فس": 1822,
      "▁صد": 1823,
      "▁تكون": 1824,
      "َلُ": 1825,
      "▁وقيل:": 1826,
      "▁جَم": 1827,
      "َّع": 1828,
      "نب": 1829,
      "فار": 1830,
      "َتِهِ": 1831,
      "ِئ": 1832,
      "▁هرير": 1833,
      "▁٢٧": 1834,
      "▁السُّ": 1835,
      "▁الكلام": 1836,
      "▁يص": 1837,
      "▁الْآ": 1838,
      "ثل": 1839,
      "▁الدنيا": 1840,
      "▁لكن": 1841,
      "▁المج": 1842,
      "▁فَلَا": 1843,
      "▁المست": 1844,
      "▁وَكَانَ": 1845,
      "▁لع": 1846,
      "▁وذكر": 1847,
      "سْلِم": 1848,
      "َّار": 1849,
      "▁شَيْء": 1850,
      "▁رَأ": 1851,
      "▁نحو": 1852,
      "رات": 1853,
      "دم": 1854,
      "▁٢٨": 1855,
      "ِط": 1856,
      "▁الأس": 1857,
      "ُث": 1858,
      "▁يُع": 1859,
      "ُهُ:": 1860,
      "داد": 1861,
      "▁والب": 1862,
      "َرْض": 1863,
      "ٍ:": 1864,
      "--": 1865,
      "▁بِهَا": 1866,
      "َعِيد": 1867,
      "▁أَس": 1868,
      "▁خلق": 1869,
      "▁وَا": 1870,
      "▁قوم": 1871,
      "▁إِلَيْهِ": 1872,
      "▁وَاحِد": 1873,
      "▁حدث": 1874,
      "▁قالوا": 1875,
      "حدث": 1876,
      "ذاب": 1877,
      "▁(٦": 1878,
      "ِيُّ،": 1879,
      "ُوم": 1880,
      "▁أَك": 1881,
      "مات": 1882,
      "أل": 1883,
      "▁٢٦": 1884,
      "نع": 1885,
      "▁فَقَالَ:": 1886,
      "▁عَبْدُ": 1887,
      "▁كَال": 1888,
      "▁أَق": 1889,
      "▁تَح": 1890,
      "يام": 1891,
      "▁إذَا": 1892,
      "▁كتب": 1893,
      "ظهر": 1894,
      "ؤْم": 1895,
      "▁والج": 1896,
      "▁وسلم-": 1897,
      "شد": 1898,
      "عود": 1899,
      "▁وَنَ": 1900,
      "▁{ف": 1901,
      "▁والك": 1902,
      "▁سَمِع": 1903,
      "سند": 1904,
      "انِي": 1905,
      "َّه": 1906,
      "▁مُع": 1907,
      "كة": 1908,
      "▁=": 1909,
      "اذ": 1910,
      "▁الرا": 1911,
      "▁مؤ": 1912,
      "▁وَلَوْ": 1913,
      "نَى": 1914,
      "ْتُمْ": 1915,
      "ونه": 1916,
      "َعُ": 1917,
      "▁مات": 1918,
      "ْدِ": 1919,
      "▁حَق": 1920,
      "ضاء": 1921,
      "واه": 1922,
      "▁(ب": 1923,
      "ان:": 1924,
      "وء": 1925,
      "سة": 1926,
      "َدِ": 1927,
      "اك": 1928,
      "▁لله": 1929,
      "▁(٦)": 1930,
      "▁فَك": 1931,
      "لَّهِ": 1932,
      "مير": 1933,
      "▁هَذِهِ": 1934,
      "▁المد": 1935,
      "▁يزيد": 1936,
      "▁والخ": 1937,
      "لاح": 1938,
      "▁رَو": 1939,
      "▁ترك": 1940,
      "ظيم": 1941,
      "حتاج": 1942,
      "عيف": 1943,
      "▁والق": 1944,
      "▁٢٩": 1945,
      "يع": 1946,
      "▁والص": 1947,
      "لاد": 1948,
      "▁وبين": 1949,
      "▁عائ": 1950,
      "َدِّ": 1951,
      "بيل": 1952,
      "▁تك": 1953,
      "▁خَل": 1954,
      "▁وسلم:": 1955,
      "▁انتهى": 1956,
      "▁٣٠": 1957,
      "جة": 1958,
      "َقَ": 1959,
      "▁به.": 1960,
      "تك": 1961,
      "▁الَّتِي": 1962,
      "ٍ.": 1963,
      "▁ألف": 1964,
      "▁وط": 1965,
      "▁فن": 1966,
      "▁أخبرنا": 1967,
      "▁وَلَمْ": 1968,
      "▁رِ": 1969,
      "٧]": 1970,
      "▁كذا": 1971,
      "▁نع": 1972,
      "▁عبيد": 1973,
      "وائ": 1974,
      "مائ": 1975,
      "▁وله": 1976,
      "افر": 1977,
      "▁يَأ": 1978,
      "▁(ع": 1979,
      "َابُ": 1980,
      "▁أكثر": 1981,
      "▁الشاف": 1982,
      "ناء": 1983,
      "▁الأولى": 1984,
      "ضاف": 1985,
      "َاك": 1986,
      "دينة": 1987,
      "▁((": 1988,
      "▁بالأ": 1989,
      "ألة": 1990,
      "ُز": 1991,
      "شة": 1992,
      "ذن": 1993,
      "▁وآ": 1994,
      "▁بمعنى": 1995,
      "ماعة": 1996,
      "َيْل": 1997,
      "▁بِمَا": 1998,
      "▁أَج": 1999,
      "▁الِ": 2000,
      "▁والس": 2001,
      "عام": 2002,
      "▁المش": 2003,
      "▁أنها": 2004,
      "▁وَص": 2005,
      "امع": 2006,
      "▁مِث": 2007,
      "▁كانوا": 2008,
      "ختلف": 2009,
      "▁عُمَرَ": 2010,
      "فص": 2011,
      "اتم": 2012,
      "َبُ": 2013,
      "▁\"و": 2014,
      "س،": 2015,
      "▁رَسُولَ": 2016,
      "▁الْحَن": 2017,
      "▁الأص": 2018,
      "▁))": 2019,
      "▁بَك": 2020,
      "▁الأع": 2021,
      "اعة": 2022,
      "ِلَ": 2023,
      "ِرِ": 2024,
      "▁الرَّحْم": 2025,
      "▁ملك": 2026,
      "▁بقوله": 2027,
      "▁وهم": 2028,
      "▁إِب": 2029,
      "▁المعنى": 2030,
      "يرة": 2031,
      "▁وَالْح": 2032,
      "▁زي": 2033,
      "▁النِّ": 2034,
      "▁وكذلك": 2035,
      "▁٣١": 2036,
      "▁جعفر": 2037,
      "▁تفسير": 2038,
      "▁مُحَمَّدُ": 2039,
      "▁الصح": 2040,
      "ؤْمِن": 2041,
      "ِّب": 2042,
      "ابت": 2043,
      "▁القاسم": 2044,
      "غي": 2045,
      "هور": 2046,
      "▁انظر:": 2047,
      "ثُ": 2048,
      "َلِك": 2049,
      "▁عق": 2050,
      "َامُ": 2051,
      "أنه": 2052,
      "▁تت": 2053,
      "▁مد": 2054,
      "ابع": 2055,
      "▁تَك": 2056,
      "▁تج": 2057,
      "▁أَخْبَرَنَا": 2058,
      "بيع": 2059,
      "▁فج": 2060,
      "َادَ": 2061,
      "▁نز": 2062,
      "▁بط": 2063,
      "بري": 2064,
      "له،": 2065,
      "▁٤/": 2066,
      "▁خط": 2067,
      "▁جعل": 2068,
      "▁سبحانه": 2069,
      "َفَ": 2070,
      "▁مِم": 2071,
      "▁نَفْس": 2072,
      "▁به،": 2073,
      "▁أه": 2074,
      "ِلا": 2075,
      "▁بالن": 2076,
      "ب،": 2077,
      "▁نص": 2078,
      "▁(م": 2079,
      "َامَ": 2080,
      "▁الدُّ": 2081,
      "وسف": 2082,
      "ٌ.": 2083,
      "▁تلك": 2084,
      "ون،": 2085,
      "رام": 2086,
      "َانُ": 2087,
      "▁وجل": 2088,
      "هود": 2089,
      "▁تخ": 2090,
      "عمال": 2091,
      "▁رحمه": 2092,
      "▁أبى": 2093,
      "▁إنه": 2094,
      "▁سليمان": 2095,
      "يز": 2096,
      "▁نفسه": 2097,
      "فَ": 2098,
      "خرجه": 2099,
      "▁عثمان": 2100,
      "ّ،": 2101,
      "ية.": 2102,
      "▁والد": 2103,
      "هار": 2104,
      "ْرَ": 2105,
      "ق،": 2106,
      "▁لَيْسَ": 2107,
      "يبة": 2108,
      "▁كذلك": 2109,
      "هن": 2110,
      "▁رَجُل": 2111,
      "▁موضع": 2112,
      "▁صالح": 2113,
      "▁وَإِ": 2114,
      "▁الْمَال": 2115,
      "▁ذلك،": 2116,
      "َذَلِكَ": 2117,
      "رفة": 2118,
      "َمَّ": 2119,
      "▁با": 2120,
      "َافِ": 2121,
      "▁إِلاَّ": 2122,
      "▁(ص": 2123,
      "▁لِأَنَّهُ": 2124,
      "▁٣٢": 2125,
      "ينة": 2126,
      "▁٣٣": 2127,
      "ماعيل": 2128,
      "▁ذَك": 2129,
      "راج": 2130,
      "▁خمس": 2131,
      "▁امر": 2132,
      "▁أخذ": 2133,
      "▁الحافظ": 2134,
      "قدير": 2135,
      "▁يُح": 2136,
      "▁قر": 2137,
      "▁صف": 2138,
      "▁عَد": 2139,
      "▁بالت": 2140,
      "راءة": 2141,
      "َتِ": 2142,
      "▁الأخ": 2143,
      "▁يل": 2144,
      "دت": 2145,
      "▁لفظ": 2146,
      "شرح": 2147,
      "▁وَقَال": 2148,
      "صور": 2149,
      "▁أُم": 2150,
      ".\"": 2151,
      "راف": 2152,
      "ْرَاه": 2153,
      "ُوزُ": 2154,
      "▁\"م": 2155,
      "▁الشَّي": 2156,
      "▁-صلى": 2157,
      "حن": 2158,
      "َلِّ": 2159,
      "▁فما": 2160,
      "▁إلَّا": 2161,
      "َهُوَ": 2162,
      "َهُ،": 2163,
      "زيز": 2164,
      "▁يَص": 2165,
      "فل": 2166,
      "َيْب": 2167,
      "▁التع": 2168,
      "ريف": 2169,
      "ليه": 2170,
      "▁سَعِيد": 2171,
      "▁الْمَس": 2172,
      "ِرُ": 2173,
      "ِيهِ": 2174,
      "▁كُن": 2175,
      "▁وقت": 2176,
      "٨]": 2177,
      "▁مال": 2178,
      "▁مخ": 2179,
      "▁الكبير": 2180,
      "▁المنا": 2181,
      "مته": 2182,
      "▁فض": 2183,
      "ْنُ": 2184,
      "▁٣٤": 2185,
      "▁الحا": 2186,
      "▁اس": 2187,
      "▁وفيه": 2188,
      "ِذ": 2189,
      "▁الصحيح": 2190,
      "▁[٥]": 2191,
      "يلة": 2192,
      "▁لن": 2193,
      "بات": 2194,
      "▁وَهَذَا": 2195,
      "َرَج": 2196,
      "▁لِم": 2197,
      "▁الشَّافِع": 2198,
      "ان.": 2199,
      "فاء": 2200,
      "▁فمن": 2201,
      "ُوهُ": 2202,
      "مار": 2203,
      "َفْع": 2204,
      "علق": 2205,
      "قول:": 2206,
      "▁(٧": 2207,
      "ونَ": 2208,
      "ْش": 2209,
      "▁النَّبِيِّ": 2210,
      "ؤلاء": 2211,
      "▁مِنْهَا": 2212,
      "هي": 2213,
      "▁بش": 2214,
      "▁أنس": 2215,
      "ْرَأ": 2216,
      "١.": 2217,
      "▁فَال": 2218,
      "▁٣٥": 2219,
      "حب": 2220,
      "▁بنُ": 2221,
      "▁ار": 2222,
      "▁يَخ": 2223,
      "ضا": 2224,
      "ِيرِ": 2225,
      "امل": 2226,
      "▁أَر": 2227,
      "▁اج": 2228,
      "ِز": 2229,
      "رقم": 2230,
      "ماد": 2231,
      "ولي": 2232,
      "▁الماء": 2233,
      "َعْنَى": 2234,
      "▁عليه،": 2235,
      "يار": 2236,
      "▁بغ": 2237,
      "َ:": 2238,
      "▁سفي": 2239,
      "▁أيضا": 2240,
      "▁وتع": 2241,
      "ِّل": 2242,
      "ذف": 2243,
      "▁سمعت": 2244,
      "▁الجمع": 2245,
      "▁أَمْ": 2246,
      "ُمُ": 2247,
      "سط": 2248,
      "▁لمن": 2249,
      "َاةِ": 2250,
      "▁ـ": 2251,
      "صة": 2252,
      "قرة": 2253,
      "ها:": 2254,
      "▁جز": 2255,
      "َسَن": 2256,
      "▁هل": 2257,
      "▁أراد": 2258,
      "▁تم": 2259,
      "▁آخ": 2260,
      "راب": 2261,
      "▁خبر": 2262,
      "وّ": 2263,
      "ِلْك": 2264,
      "▁المق": 2265,
      "▁فتح": 2266,
      "▁فكان": 2267,
      "ْتَم": 2268,
      "ِّين": 2269,
      "▁الإنسان": 2270,
      "ابر": 2271,
      "▁ير": 2272,
      "▁لَهُمْ": 2273,
      "▁الجز": 2274,
      "▁بهذا": 2275,
      "٢.": 2276,
      "حل": 2277,
      "ارث": 2278,
      "▁اع": 2279,
      "▁[١].": 2280,
      "▁حاتم": 2281,
      "▁المط": 2282,
      "▁شع": 2283,
      "▁إِذا": 2284,
      "▁مَالِك": 2285,
      "سبة": 2286,
      "ال،": 2287,
      "▁هريرة": 2288,
      "َّن": 2289,
      "ءُ": 2290,
      "▁أَش": 2291,
      "▁خرج": 2292,
      "سا": 2293,
      "▁بر": 2294,
      "▁(قَوْل": 2295,
      "▁يوسف": 2296,
      "وجه": 2297,
      "َارَ": 2298,
      "ري،": 2299,
      "▁وَسَلَّمَ:": 2300,
      "▁آية": 2301,
      "▁؟": 2302,
      "▁(ت": 2303,
      "َّةَ": 2304,
      "▁اهـ": 2305,
      "ِّف": 2306,
      "▁وَمِنْ": 2307,
      "ِبِ": 2308,
      "▁ولي": 2309,
      "▁أت": 2310,
      "▁٣٦": 2311,
      "▁لنا": 2312,
      "▁الدار": 2313,
      "ُونَ}": 2314,
      "▁ضعيف": 2315,
      "ِرَ": 2316,
      "٣.": 2317,
      "▁محم": 2318,
      "ى:": 2319,
      "▁لَهَا": 2320,
      "▁شيخ": 2321,
      "فرد": 2322,
      "ي:": 2323,
      "▁المراد": 2324,
      "▁يعلم": 2325,
      "..": 2326,
      "ْرِي": 2327,
      "▁بعضهم": 2328,
      "▁ولد": 2329,
      "حاديث": 2330,
      "ُؤ": 2331,
      "ضًا": 2332,
      "رجع": 2333,
      "▁الثالث": 2334,
      "▁أر": 2335,
      "ين:": 2336,
      "ضة": 2337,
      "ولا": 2338,
      "▁لب": 2339,
      "َّي": 2340,
      "رّ": 2341,
      "قدر": 2342,
      "وَاي": 2343,
      "▁الأح": 2344,
      "▁الساب": 2345,
      "▁فَهُوَ": 2346,
      "ِيرُ": 2347,
      "▁الصَّل": 2348,
      "▁ام": 2349,
      "▁وحد": 2350,
      "▁الرُّ": 2351,
      "شام": 2352,
      "ِى": 2353,
      "َيْت": 2354,
      "▁بِح": 2355,
      "ُنْ": 2356,
      "▁إنْ": 2357,
      "▁يَكُونَ": 2358,
      "▁العزيز": 2359,
      "▁الترمذي": 2360,
      "▁بِع": 2361,
      "ْهِ": 2362,
      "٥.": 2363,
      "▁فَم": 2364,
      "تمل": 2365,
      "▁عط": 2366,
      "▁تَر": 2367,
      "مَن": 2368,
      "لّى": 2369,
      "▁تاريخ": 2370,
      "▁سَل": 2371,
      "ّي": 2372,
      "٩]": 2373,
      "▁الجنة": 2374,
      "ِمَ": 2375,
      "٧.": 2376,
      "▁اخْت": 2377,
      "٨.": 2378,
      "▁العربي": 2379,
      "▁فَإِنَّهُ": 2380,
      "َابِل": 2381,
      "٩.": 2382,
      "▁المك": 2383,
      "▁وَإِنَّ": 2384,
      "َئ": 2385,
      "▁إِبْرَاه": 2386,
      "٤.": 2387,
      "▁عنها": 2388,
      "▁أحدهما": 2389,
      "▁وَالْأ": 2390,
      "واز": 2391,
      "▁دع": 2392,
      "▁مَك": 2393,
      "بلغ": 2394,
      "قَ": 2395,
      "قوب": 2396,
      "َيْنَ": 2397,
      "٦.": 2398,
      "▁فَس": 2399,
      "فى": 2400,
      "▁عَبَّاس": 2401,
      "ُقَهَا": 2402,
      "▁أنهم": 2403,
      "٠.": 2404,
      "ِّهِ": 2405,
      "َى،": 2406,
      "▁مُت": 2407,
      "▁نعم": 2408,
      "▁حك": 2409,
      "▁غيره": 2410,
      "حْو": 2411,
      "َدُّ": 2412,
      "▁فر": 2413,
      "باح": 2414,
      "▁شاء": 2415,
      "شرك": 2416,
      "▁أَل": 2417,
      "▁أَت": 2418,
      "▁تَعَالَى:": 2419,
      "يمة": 2420,
      "حمل": 2421,
      "قا": 2422,
      "▁صلّى": 2423,
      "ِعُ": 2424,
      "َرْضِ": 2425,
      "مِ": 2426,
      "▁إسماعيل": 2427,
      "▁يَش": 2428,
      "فعول": 2429,
      "▁يَب": 2430,
      "▁قاله": 2431,
      "▁الشافعي": 2432,
      "ائع": 2433,
      "ريح": 2434,
      "قى": 2435,
      "▁مب": 2436,
      "َكُمْ": 2437,
      "▁\"ت": 2438,
      "▁الشَّر": 2439,
      "َلَاث": 2440,
      "هذيب": 2441,
      "▁يُر": 2442,
      "ولة": 2443,
      "ِيدُ": 2444,
      "▁الأش": 2445,
      "هاد": 2446,
      "ِج": 2447,
      "▁بالإ": 2448,
      "▁مَح": 2449,
      "ْغ": 2450,
      "▁بَل": 2451,
      "مد": 2452,
      "▁البيت": 2453,
      "▁اللّ": 2454,
      "▁ست": 2455,
      "هاء": 2456,
      "▁صح": 2457,
      "قِ": 2458,
      "عون": 2459,
      "▁غَيْرِ": 2460,
      "كذا": 2461,
      "▁والط": 2462,
      "▁أَف": 2463,
      "▁٣٧": 2464,
      "▁يغ": 2465,
      "▁قرأ": 2466,
      "وضع": 2467,
      "سه": 2468,
      "▁فِيمَا": 2469,
      "▁النار": 2470,
      "▁(٣/": 2471,
      "١]": 2472,
      "ُوج": 2473,
      "٠]": 2474,
      "ير،": 2475,
      "َابَ": 2476,
      "▁يجب": 2477,
      "ِلُ": 2478,
      "الي": 2479,
      "َرْج": 2480,
      "خبر": 2481,
      "عمل": 2482,
      "▁ومسلم": 2483,
      "▁ثلاثة": 2484,
      "َهَبَ": 2485,
      "▁معا": 2486,
      "ُّب": 2487,
      "▁وعبد": 2488,
      "▁الإس": 2489,
      "ْلَ": 2490,
      "▁امرأ": 2491,
      "▁قَت": 2492,
      "▁اعت": 2493,
      "َاش": 2494,
      "ْأَل": 2495,
      "▁صَح": 2496,
      "عُ": 2497,
      "▁المغ": 2498,
      "قُ": 2499,
      "عِ": 2500,
      "▁بنت": 2501,
      "▁خلاف": 2502,
      "َالُ": 2503,
      "▁لح": 2504,
      "ْحَاق": 2505,
      "▁إنَّ": 2506,
      "▁عيس": 2507,
      "▁اث": 2508,
      "▁العلماء": 2509,
      "▁بِالْم": 2510,
      "َوَّل": 2511,
      "شْر": 2512,
      "▁تش": 2513,
      "ناده": 2514,
      "ادر": 2515,
      "▁وكذا": 2516,
      "▁كَث": 2517,
      "ْفِ": 2518,
      "▁فَإِذَا": 2519,
      "▁رك": 2520,
      "▁وَأَب": 2521,
      "▁٣٨": 2522,
      "▁ترجمته": 2523,
      "▁القاضي": 2524,
      "▁الروا": 2525,
      "است": 2526,
      "▁وغ": 2527,
      "▁رس": 2528,
      "قيقة": 2529,
      "يح": 2530,
      "ِيٍّ": 2531,
      "▁§": 2532,
      "▁(٧)": 2533,
      "▁يذكر": 2534,
      "▁آل": 2535,
      "ْبِ": 2536,
      "▁كيف": 2537,
      "▁الإيمان": 2538,
      "▁وأخرجه": 2539,
      "▁مُوس": 2540,
      "ت:": 2541,
      "ُّه": 2542,
      "▁اليوم": 2543,
      "▁السنة": 2544,
      "هاية": 2545,
      "▁أنّ": 2546,
      "▁بالح": 2547,
      "▁يَسْت": 2548,
      "▁لِأ": 2549,
      "ةَ": 2550,
      "▁الحسين": 2551,
      "▁بفتح": 2552,
      "▁وَأَمَّا": 2553,
      "▁الرِّ": 2554,
      "▁(٨": 2555,
      "▁مسعود": 2556,
      "▁بغير": 2557,
      "▁بص": 2558,
      "▁وَعَل": 2559,
      "▁يريد": 2560,
      "▁فان": 2561,
      "▁صلاة": 2562,
      "ار،": 2563,
      "▁الجن": 2564,
      "▁الثَّانِي": 2565,
      "ُلُ": 2566,
      "▁رفع": 2567,
      "َوَّ": 2568,
      "ّر": 2569,
      "▁المسلمين": 2570,
      "▁الْفُقَهَا": 2571,
      "▁معه": 2572,
      "▁نَص": 2573,
      "▁يط": 2574,
      "ِمِ": 2575,
      "يته": 2576,
      "▁٣٩": 2577,
      "▁له:": 2578,
      "▁وعد": 2579,
      "▁يَم": 2580,
      "َاهِر": 2581,
      "▁بالك": 2582,
      "▁يدل": 2583,
      "▁وُج": 2584,
      "ُهُ،": 2585,
      "أم": 2586,
      "تمع": 2587,
      "▁بنِ": 2588,
      "▁عُب": 2589,
      "ْلَمُ": 2590,
      "▁جَع": 2591,
      "▁جه": 2592,
      "▁يقت": 2593,
      "▁كَانَتْ": 2594,
      "ِبَ": 2595,
      "ْلَم": 2596,
      "▁المؤلف": 2597,
      "▁ورد": 2598,
      "ضح": 2599,
      "▁بهم": 2600,
      "وبة": 2601,
      "ْدُ": 2602,
      "ٌ:": 2603,
      "▁قتل": 2604,
      "َّةُ": 2605,
      "▁وقوله:": 2606,
      "طان": 2607,
      "▁المؤمنين": 2608,
      "ّى": 2609,
      "لّم": 2610,
      "▁تَب": 2611,
      "▁يَز": 2612,
      "▁يَر": 2613,
      "▁حجر": 2614,
      "▁وصف": 2615,
      "▁وَالْع": 2616,
      "▁الْحَنَف": 2617,
      "▁مِمَّا": 2618,
      "▁ويقال": 2619,
      "▁يَكُونُ": 2620,
      "▁{أ": 2621,
      "▁فَر": 2622,
      "▁إي": 2623,
      "▁جرير": 2624,
      "ِيلِ": 2625,
      "▁وروى": 2626,
      "▁الآيات": 2627,
      "ِنَ": 2628,
      "▁أيضاً": 2629,
      "َوْج": 2630,
      "▁وَمَنْ": 2631,
      "▁له،": 2632,
      "▁٤٠": 2633,
      "▁العد": 2634,
      "▁بج": 2635,
      "▁لق": 2636,
      "َمْس": 2637,
      "ذْ": 2638,
      "▁يعرف": 2639,
      "باع": 2640,
      "▁الرج": 2641,
      "▁هؤلاء": 2642,
      "▁الخطاب": 2643,
      "▁عَلَيْهَا": 2644,
      "▁ألا": 2645,
      "▁رَح": 2646,
      "▁الما": 2647,
      "ن،": 2648,
      "▁قَبْلَ": 2649,
      "َاضِي": 2650,
      "▁للت": 2651,
      "▁الان": 2652,
      "▁المذك": 2653,
      "ِيُّ:": 2654,
      "▁يَحْي": 2655,
      "▁تب": 2656,
      "َّت": 2657,
      "▁وضع": 2658,
      "▁كُلِّ": 2659,
      "▁فَه": 2660,
      "▁أنَّ": 2661,
      "▁بس": 2662,
      "▁عائشة": 2663,
      "الف": 2664,
      "▁المال": 2665,
      "▁اشت": 2666,
      "ْمَاع": 2667,
      "▁بيان": 2668,
      "▁\"الم": 2669,
      "▁يَجُوزُ": 2670,
      "▁٥/": 2671,
      "▁والر": 2672,
      "▁كنت": 2673,
      "▁كَف": 2674,
      "▁مط": 2675,
      "▁الرَّج": 2676,
      "لو": 2677,
      "▁شرط": 2678,
      "▁العب": 2679,
      "▁بِن": 2680,
      "▁المخ": 2681,
      "▁وَالش": 2682,
      "▁صَل": 2683,
      "▁تَأ": 2684,
      "لَّهُ": 2685,
      "شْتَر": 2686,
      "▁لكم": 2687,
      "ْتِي": 2688,
      "▁قَوْ": 2689,
      "▁محل": 2690,
      "ّد": 2691,
      "براني": 2692,
      "▁بْنَ": 2693,
      "▁أبيه": 2694,
      "▁تَس": 2695,
      "▁بالع": 2696,
      "▁عين": 2697,
      "▁تَج": 2698,
      "َرْبَع": 2699,
      "ِيِّ،": 2700,
      "▁شَر": 2701,
      "ُّهُ": 2702,
      "▁القد": 2703,
      "▁عرف": 2704,
      "ْعِ": 2705,
      "بط": 2706,
      "▁وقع": 2707,
      "▁وبال": 2708,
      "▁السن": 2709,
      "بح": 2710,
      "▁حي": 2711,
      "كره": 2712,
      "▁حني": 2713,
      "انة": 2714,
      "▁حج": 2715,
      "▁\"ف": 2716,
      "▁يُن": 2717,
      "▁٤١": 2718,
      "▁البد": 2719,
      "▁أنت": 2720,
      "ــــــــــــــــــــــــــــــــ": 2721,
      "شف": 2722,
      "▁بالله": 2723,
      "هاب": 2724,
      "▁والف": 2725,
      "▁بيت": 2726,
      "▁كَل": 2727,
      "ُ.": 2728,
      "ُكُمْ": 2729,
      "ِيمِ": 2730,
      "ون:": 2731,
      "ِّن": 2732,
      "َّح": 2733,
      "▁رد": 2734,
      "رأة": 2735,
      "▁فح": 2736,
      "▁موا": 2737,
      "▁وَخ": 2738,
      "▁سُل": 2739,
      "▁حرف": 2740,
      "▁للأ": 2741,
      "▁عيسى": 2742,
      "▁بِخ": 2743,
      "▁الْمُت": 2744,
      "ه\"": 2745,
      "▁الأد": 2746,
      "ا.": 2747,
      "»،": 2748,
      "ِيمَ": 2749,
      "▁شَيْئ": 2750,
      "▁بَي": 2751,
      "▁[٢": 2752,
      "ِدِ": 2753,
      "▁تد": 2754,
      "▁«١": 2755,
      "▁قَالُوا": 2756,
      "ُي": 2757,
      "▁وانظر": 2758,
      "ليم": 2759,
      "▁فَلاَ": 2760,
      "▁مكان": 2761,
      "▁تَف": 2762,
      "▁هُر": 2763,
      "رفع": 2764,
      "راق": 2765,
      "▁(٤/": 2766,
      "مرة": 2767,
      "▁يُص": 2768,
      "▁الباب": 2769,
      "▁زوج": 2770,
      "َيْثُ": 2771,
      "▁فوق": 2772,
      "▁قري": 2773,
      "ل،": 2774,
      "▁هِيَ": 2775,
      "شية": 2776,
      "▁حُك": 2777,
      "وري": 2778,
      "▁برقم": 2779,
      "ولد": 2780,
      "▁وَذ": 2781,
      "اض": 2782,
      "لَا": 2783,
      "راك": 2784,
      "َّذ": 2785,
      "▁الْحَدِيث": 2786,
      "▁٤٢": 2787,
      "ْرَج": 2788,
      "▁سفيان": 2789,
      "ِعِ": 2790,
      "▁الاع": 2791,
      "َنْب": 2792,
      "صرف": 2793,
      "▁تحت": 2794,
      "بيب": 2795,
      "ئذ": 2796,
      "▁القي": 2797,
      "▁رَسُولِ": 2798,
      "▁صَاح": 2799,
      "▁وَاب": 2800,
      "ِعَ": 2801,
      "▁نق": 2802,
      "▁فَقَال": 2803,
      "شاف": 2804,
      "ناع": 2805,
      "ئت": 2806,
      "ساب": 2807,
      "▁سبيل": 2808,
      "ته.": 2809,
      "صدق": 2810,
      "▁سلم": 2811,
      "▁[٦]": 2812,
      "▁وَغَيْر": 2813,
      "▁[٢].": 2814,
      "َانِي": 2815,
      "▁يَوْمَ": 2816,
      "▁دي": 2817,
      "▁وأبي": 2818,
      "▁الفعل": 2819,
      "▁وأم": 2820,
      "▁وين": 2821,
      "َّةً": 2822,
      "َّو": 2823,
      "اته": 2824,
      "ليق": 2825,
      "▁يصح": 2826,
      "▁خالد": 2827,
      "▁عدم": 2828,
      "وث": 2829,
      "▁تز": 2830,
      "سبب": 2831,
      "▁فَلَمَّا": 2832,
      "اث": 2833,
      "ُّر": 2834,
      "▁لِلْم": 2835,
      "ْيَا": 2836,
      "▁ظاهر": 2837,
      "يش": 2838,
      "ُّوا": 2839,
      "مَان": 2840,
      "▁العبد": 2841,
      "▁الوجه": 2842,
      "َّم": 2843,
      "▁الفت": 2844,
      "ُّل": 2845,
      "لد": 2846,
      "▁دخل": 2847,
      "▁بالق": 2848,
      "جاز": 2849,
      "وجب": 2850,
      "ات،": 2851,
      "▁ثَلَاث": 2852,
      "▁قيل:": 2853,
      "▁نَق": 2854,
      "▁وير": 2855,
      "ِكُمْ": 2856,
      "وهم": 2857,
      "▁مصر": 2858,
      "▁بشر": 2859,
      "َذْه": 2860,
      "▁«أ": 2861,
      "سائي": 2862,
      "▁الدّ": 2863,
      "عن": 2864,
      "▁وَمُ": 2865,
      "▁الْمُح": 2866,
      "▁(ح": 2867,
      "لبي": 2868,
      "▁هشام": 2869,
      "▁رم": 2870,
      "▁بِأَنَّ": 2871,
      "َنا": 2872,
      "فاق": 2873,
      "ثار": 2874,
      "▁السَّل": 2875,
      "▁الحارث": 2876,
      "َةِ.": 2877,
      "▁يُؤ": 2878,
      "▁البص": 2879,
      "▁بلا": 2880,
      "▁السّ": 2881,
      "▁أَيُّ": 2882,
      "▁كن": 2883,
      "▁عنهما": 2884,
      "ديم": 2885,
      "▁ولما": 2886,
      "▁بِك": 2887,
      "▁المحتاج": 2888,
      "▁إِسْحَاق": 2889,
      "▁المر": 2890,
      "قطع": 2891,
      "▁(ق": 2892,
      "▁ثابت": 2893,
      "▁ذَلِك": 2894,
      "تبة": 2895,
      "▁بلغ": 2896,
      "كاح": 2897,
      "▁الرسول": 2898,
      "وها": 2899,
      "طة": 2900,
      "▁ويج": 2901,
      "▁جد": 2902,
      "▁وكل": 2903,
      "ْرَى": 2904,
      "▁فيه،": 2905,
      "▁اح": 2906,
      "▁هُرَيْر": 2907,
      "▁أخرى": 2908,
      "▁الوج": 2909,
      "▁ثمَّ": 2910,
      "ضرب": 2911,
      "▁الرز": 2912,
      "ُونِ": 2913,
      "كثر": 2914,
      "ُّف": 2915,
      "▁وقرأ": 2916,
      "ِمَا": 2917,
      "▁أصل": 2918,
      "▁السماء": 2919,
      "▁الصَّح": 2920,
      "ونس": 2921,
      "بتد": 2922,
      "▁رأيت": 2923,
      "▁بِش": 2924,
      "ركة": 2925,
      "▁هِ": 2926,
      "نائ": 2927,
      "▁وَالتَّ": 2928,
      "▁ثقة": 2929,
      "▁عَلَيْهِمْ": 2930,
      "▁الحاكم": 2931,
      "▁عباد": 2932,
      "▁بِس": 2933,
      "▁الْمُع": 2934,
      "▁يف": 2935,
      "▁جَمِيع": 2936,
      "▁يقال:": 2937,
      "ليد": 2938,
      "▁البحر": 2939,
      "ت،": 2940,
      "▁يخرج": 2941,
      "▁قَد": 2942,
      "يص": 2943,
      "▁وأخرج": 2944,
      "▁نظر": 2945,
      "▁فَو": 2946,
      "شارة": 2947,
      "▁قدر": 2948,
      "▁بب": 2949,
      "▁نج": 2950,
      "▁٤٣": 2951,
      "▁الى": 2952,
      "▁ممن": 2953,
      "ذين": 2954,
      "َّاب": 2955,
      "▁صفة": 2956,
      "ِمُ": 2957,
      "▁الشيء": 2958,
      "▁يُس": 2959,
      "▁فَص": 2960,
      "▁النّ": 2961,
      "▁الْمَالِك": 2962,
      "▁بينهما": 2963,
      "▁الرَّحْمَنِ": 2964,
      "جاب": 2965,
      "زلة": 2966,
      "ُش": 2967,
      "دي،": 2968,
      "▁ذلك.": 2969,
      "▁التح": 2970,
      "خة": 2971,
      "▁رَوَاهُ": 2972,
      "َذْك": 2973,
      "▁النساء": 2974,
      "▁وَالس": 2975,
      "َارُ": 2976,
      "اً.": 2977,
      "▁عنده": 2978,
      "▁(٩": 2979,
      "▁المدينة": 2980,
      "▁مَوْ": 2981,
      "▁الْبَيْ": 2982,
      "ناس": 2983,
      "أَ": 2984,
      "▁يَكُنْ": 2985,
      "▁أخرج": 2986,
      "▁مَن": 2987,
      "▁مِنْهُمْ": 2988,
      "ذوف": 2989,
      "ي.": 2990,
      "▁حبان": 2991,
      "حه": 2992,
      "َةُ،": 2993,
      "▁مُن": 2994,
      "ِيمُ": 2995,
      "▁كِت": 2996,
      "▁أَهْل": 2997,
      "▁أَمَّا": 2998,
      "َتُهُ": 2999,
      "▁أيضًا": 3000,
      "▁قالوا:": 3001,
      "▁الدع": 3002,
      "▁وسلّم": 3003,
      "ثم": 3004,
      "ِنَا": 3005,
      "▁فذكر": 3006,
      "نا،": 3007,
      "▁الحال": 3008,
      "ًا}": 3009,
      "▁يمكن": 3010,
      "▁قط": 3011,
      "وجد": 3012,
      "اهرة": 3013,
      "▁السي": 3014,
      "ةُ": 3015,
      "▁فلي": 3016,
      "َادِ": 3017,
      "قع": 3018,
      "▁-،": 3019,
      "ْنَاهُ": 3020,
      "▁وَو": 3021,
      "▁عنه،": 3022,
      "▁حن": 3023,
      "ِدُ": 3024,
      "▁دخ": 3025,
      "▁٤٤": 3026,
      "فَق": 3027,
      "ختار": 3028,
      "َقُول": 3029,
      "▁بَلْ": 3030,
      "▁والآ": 3031,
      "َاءٌ": 3032,
      "هُمَا": 3033,
      "ظاهر": 3034,
      "▁العالم": 3035,
      "َرِّ": 3036,
      "▁قدم": 3037,
      "٠٠": 3038,
      "▁مُسْلِم": 3039,
      "صحيح": 3040,
      "▁خلف": 3041,
      "ور،": 3042,
      "▁يرو": 3043,
      "▁طلب": 3044,
      "▁وَهِيَ": 3045,
      "▁طب": 3046,
      "َأَ": 3047,
      "▁كأن": 3048,
      "صول": 3049,
      "▁ذهب": 3050,
      "ِهِ.": 3051,
      "فض": 3052,
      "▁طَل": 3053,
      "▁٤٥": 3054,
      "اسْت": 3055,
      "▁المسجد": 3056,
      "▁مرف": 3057,
      "ُلَّ": 3058,
      "▁عمل": 3059,
      "▁يَحْيَى": 3060,
      "▁أَصْح": 3061,
      "▁كون": 3062,
      "▁عَز": 3063,
      "▁يَقُولُ:": 3064,
      "ارب": 3065,
      "▁عشرة": 3066,
      "▁حديث:": 3067,
      "▁فلان": 3068,
      "غَيْرِ": 3069,
      "ْمَل": 3070,
      "ريج": 3071,
      "ْحِ": 3072,
      "▁فَقَدْ": 3073,
      "▁الليل": 3074,
      "بال": 3075,
      "▁دُونَ": 3076,
      "▁مض": 3077,
      "▁الثانية": 3078,
      "▁»": 3079,
      "▁قَوْلِهِ": 3080,
      "▁الْإ": 3081,
      "▁وجد": 3082,
      "▁مُوسَى": 3083,
      "▁تَص": 3084,
      "▁فد": 3085,
      "َنَ": 3086,
      "▁قص": 3087,
      "ُغ": 3088,
      "▁نَع": 3089,
      "َّان": 3090,
      "بأ": 3091,
      "▁الْعَب": 3092,
      "▁العق": 3093,
      "▁{ي": 3094,
      "ُكَ": 3095,
      "▁قَوْم": 3096,
      "شيء": 3097,
      "▁قَوْله": 3098,
      "▁الهم": 3099,
      "َانُوا": 3100,
      "وار": 3101,
      "▁عَش": 3102,
      "▁انت": 3103,
      "َةُ:": 3104,
      "▁رِوَاي": 3105,
      "▁الواحد": 3106,
      "طْل": 3107,
      "▁بِق": 3108,
      "كاة": 3109,
      "دى": 3110,
      "▁عنهم": 3111,
      "▁مُق": 3112,
      "▁نصر": 3113,
      "سو": 3114,
      "عراب": 3115,
      "َتَيْنِ": 3116,
      "▁الثلاث": 3117,
      "▁صار": 3118,
      "▁ذَكَر": 3119,
      "▁رَبِّ": 3120,
      "▁بمن": 3121,
      "جرة": 3122,
      "▁مذهب": 3123,
      "▁ورقة": 3124,
      "▁حدثني": 3125,
      "َلِ": 3126,
      "▁٦/": 3127,
      "▁إليها": 3128,
      "ُفْي": 3129,
      "ِيز": 3130,
      "كي": 3131,
      "▁سبق": 3132,
      "ْفَر": 3133,
      "▁كله": 3134,
      "▁جابر": 3135,
      "▁.\"": 3136,
      "َةِ:": 3137,
      "▁الفضل": 3138,
      "▁المقد": 3139,
      "ائم": 3140,
      "َاذ": 3141,
      "لائكة": 3142,
      "▁واحدة": 3143,
      "لوا": 3144,
      "▁ففي": 3145,
      "▁يأتي": 3146,
      "▁فَج": 3147,
      "ثال": 3148,
      "▁الخبر": 3149,
      "ِيس": 3150,
      "وجود": 3151,
      "▁الفتح": 3152,
      "▁البغ": 3153,
      "▁التق": 3154,
      "▁مُص": 3155,
      "▁وكانت": 3156,
      "َادُ": 3157,
      "▁شَيْءٍ": 3158,
      "▁البر": 3159,
      "ؤمن": 3160,
      "▁أَوِ": 3161,
      "▁عامر": 3162,
      "ُلْ": 3163,
      "قام": 3164,
      "ية:": 3165,
      "▁حَدَّثَنِي": 3166,
      "واد": 3167,
      "ِض": 3168,
      "▁قَال:": 3169,
      "اني:": 3170,
      "▁سَو": 3171,
      "▁بِي": 3172,
      "لطان": 3173,
      "َّرَ": 3174,
      "اني،": 3175,
      "▁عما": 3176,
      "ائد": 3177,
      "َّال": 3178,
      "▁لَكُمْ": 3179,
      "راض": 3180,
      "▁أيام": 3181,
      "▁القب": 3182,
      "▁عَق": 3183,
      "فو": 3184,
      "▁فصل": 3185,
      "وقف": 3186,
      "▁النَّبِيُّ": 3187,
      "▁اللَّي": 3188,
      "▁ضرب": 3189,
      "ُهُمَا": 3190,
      "▁وهذه": 3191,
      "▁وَإ": 3192,
      "▁وَلا": 3193,
      "▁يدي": 3194,
      "▁سقط": 3195,
      "▁تَم": 3196,
      "▁عُبَيْد": 3197,
      "▁النفس": 3198,
      "ى.": 3199,
      "ّم": 3200,
      "ياة": 3201,
      "بياء": 3202,
      "هِد": 3203,
      "▁أَيْضًا": 3204,
      "▁فَع": 3205,
      "▁وَلَك": 3206,
      "▁لِمَا": 3207,
      "▁سواء": 3208,
      "▁أَبَا": 3209,
      "▁لإ": 3210,
      "▁ثَنَا": 3211,
      "▁الكتب": 3212,
      "▁الْمُن": 3213,
      "ياس": 3214,
      "▁عاص": 3215,
      "----": 3216,
      "ؤال": 3217,
      "ْبُ": 3218,
      "▁بعده": 3219,
      "▁ساق": 3220,
      "▁المسألة": 3221,
      "▁العمل": 3222,
      "َلِّي": 3223,
      "▁(ل": 3224,
      "▁اللغة": 3225,
      "نا:": 3226,
      "▁لأنها": 3227,
      "▁النَّاسِ": 3228,
      "▁النج": 3229,
      "يدة": 3230,
      "ُوق": 3231,
      "▁الْمُر": 3232,
      "▁خَيْر": 3233,
      "▁عَائ": 3234,
      "▁النُّ": 3235,
      "▁وصح": 3236,
      "▁أَبِيهِ": 3237,
      "▁فقلت": 3238,
      "▁النَّبِيَّ": 3239,
      "▁إما": 3240,
      "▁در": 3241,
      "▁للن": 3242,
      "ك.": 3243,
      "▁مكة": 3244,
      "▁اللفظ": 3245,
      "▁بَكْرٍ": 3246,
      "▁حاج": 3247,
      "▁والز": 3248,
      "▁مُسْت": 3249,
      "▁المرأة": 3250,
      "▁الْقُرْ": 3251,
      "▁المصنف": 3252,
      "▁أل": 3253,
      "▁منهما": 3254,
      "▁العباس": 3255,
      "▁قلب": 3256,
      "لات": 3257,
      "▁إخ": 3258,
      "▁يو": 3259,
      "ْعُ": 3260,
      "▁فار": 3261,
      "▁فيكون": 3262,
      "ِيلُ": 3263,
      "َلْز": 3264,
      "هو": 3265,
      "▁الْوَل": 3266,
      "▁القيامة": 3267,
      "▁وَش": 3268,
      "▁أَهْلِ": 3269,
      "ْمَ": 3270,
      "▁جماعة": 3271,
      "بى": 3272,
      "▁مُحَمَّدِ": 3273,
      "▁آمَن": 3274,
      "▁٤٦": 3275,
      "١١": 3276,
      "▁خص": 3277,
      "▁الْعَق": 3278,
      "جموع": 3279,
      "▁والمع": 3280,
      "▁«١»": 3281,
      "يده": 3282,
      "▁وَالْق": 3283,
      "▁طل": 3284,
      "مائة": 3285,
      "▁\"إن": 3286,
      "▁يُج": 3287,
      "▁خَال": 3288,
      "▁ماجه": 3289,
      "ِينَ}": 3290,
      "▁خاص": 3291,
      "اعر": 3292,
      "أتي": 3293,
      "▁وَإِذَا": 3294,
      "▁الأز": 3295,
      "▁توفي": 3296,
      "▁الْمُسْلِم": 3297,
      "ِيٌّ": 3298,
      "سمى": 3299,
      "▁سُلَيْ": 3300,
      "▁ويح": 3301,
      "ُواْ": 3302,
      "▁سَمِعْتُ": 3303,
      "▁مل": 3304,
      "▁الزَّو": 3305,
      "برى": 3306,
      "َعَلَّ": 3307,
      "َارِث": 3308,
      "▁نعيم": 3309,
      "▁إحد": 3310,
      "بية": 3311,
      "▁ومحمد": 3312,
      "ارف": 3313,
      "▁مقد": 3314,
      "▁جل": 3315,
      "▁جملة": 3316,
      "▁سُفْي": 3317,
      "▁الفق": 3318,
      "▁كفر": 3319,
      "كار": 3320,
      "▁انتهى.": 3321,
      "ْهَا": 3322,
      "▁فهذا": 3323,
      "ُودِ": 3324,
      "▁وَإِنَّمَا": 3325,
      "ائدة": 3326,
      "▁بِد": 3327,
      "نون": 3328,
      "▁قام": 3329,
      "▁الزبير": 3330,
      "▁عاب": 3331,
      "▁كلا": 3332,
      "▁ظهر": 3333,
      "▁قا": 3334,
      "▁الْأَم": 3335,
      "▁الشمس": 3336,
      "▁القوم": 3337,
      "▁الصحابة": 3338,
      "▁فأن": 3339,
      "فرق": 3340,
      "▁ثبت": 3341,
      "▁(ك": 3342,
      "رش": 3343,
      "▁مرفوع": 3344,
      "َدْخ": 3345,
      "ِدَ": 3346,
      "▁سلمة": 3347,
      "َةً،": 3348,
      "▁دليل": 3349,
      "▁أَحْمَدُ": 3350,
      "▁بِر": 3351,
      "تبع": 3352,
      "▁والغ": 3353,
      "▁وجود": 3354,
      "▁للع": 3355,
      "▁مَق": 3356,
      "ِحُّ": 3357,
      "بين": 3358,
      "ِينِ": 3359,
      "▁الدُّن": 3360,
      "رون": 3361,
      "ُوط": 3362,
      "َيْنَا": 3363,
      "ناً": 3364,
      "ِهِمَا": 3365,
      "▁وأحمد": 3366,
      "▁زاد": 3367,
      "▁الْمَرْ": 3368,
      "▁لأَِنَّهُ": 3369,
      "زع": 3370,
      "▁ويت": 3371,
      "▁مِثْل": 3372,
      "▁انْت": 3373,
      "َةٍ،": 3374,
      "▁حر": 3375,
      "▁بِإِ": 3376,
      "تبار": 3377,
      "َ.": 3378,
      "▁اتَّ": 3379,
      "جلس": 3380,
      "▁هـ)": 3381,
      "▁معاوية": 3382,
      "▁رأى": 3383,
      "▁التأ": 3384,
      "▁لأبي": 3385,
      "ريك": 3386,
      "▁قيس": 3387,
      "ا:": 3388,
      "▁٤٧": 3389,
      "هام": 3390,
      "ابه": 3391,
      "١٠": 3392,
      "▁بأنه": 3393,
      "▁كَثِير": 3394,
      "▁الصد": 3395,
      "▁يلزم": 3396,
      "▁شَرْ": 3397,
      "▁(٨)": 3398,
      "َاقِ": 3399,
      "نّ": 3400,
      "▁أعلم.": 3401,
      "▁الصف": 3402,
      "لالة": 3403,
      "▁\"لا": 3404,
      "▁اللّه": 3405,
      "ِهَا،": 3406,
      "▁مَر": 3407,
      "مشق": 3408,
      "▁(١٠": 3409,
      "اء.": 3410,
      "▁والتع": 3411,
      "جاج": 3412,
      "▁قَل": 3413,
      "▁حَيْثُ": 3414,
      "▁اختلف": 3415,
      "▁-ر": 3416,
      "▁عي": 3417,
      "▁تست": 3418,
      "▁إله": 3419,
      "▁سَن": 3420,
      "▁رجال": 3421,
      "ُوص": 3422,
      "ْتُ:": 3423,
      "▁فَعَل": 3424,
      "ِلَاف": 3425,
      "▁منه،": 3426,
      "يد،": 3427,
      "▁وبه": 3428,
      "وذ": 3429,
      "▁وَذَلِكَ": 3430,
      "ِلِ": 3431,
      "▁الموت": 3432,
      "▁طالب": 3433,
      "▁\"\"": 3434,
      "▁يُخ": 3435,
      "ُثْم": 3436,
      "١٢": 3437,
      "▁التن": 3438,
      "▁مغ": 3439,
      "▁كلها": 3440,
      "▁تَت": 3441,
      "▁إِنَّمَا": 3442,
      "▁أرض": 3443,
      "هري": 3444,
      "قف": 3445,
      "قين": 3446,
      "▁يعقوب": 3447,
      "▁زيادة": 3448,
      "اشية": 3449,
      "▁يَعْنِي": 3450,
      "▁إِذْ": 3451,
      "▁الحي": 3452,
      "▁اهـ.": 3453,
      "▁عَائِش": 3454,
      "▁وَد": 3455,
      "▁مُر": 3456,
      "▁لِع": 3457,
      "جماع": 3458,
      "بيان": 3459,
      "▁بضم": 3460,
      "▁الشام": 3461,
      "▁إسناده": 3462,
      "▁يصل": 3463,
      "▁ورواه": 3464,
      "َوْلَى": 3465,
      "▁أط": 3466,
      "عض": 3467,
      "َرَب": 3468,
      "َّق": 3469,
      "▁زَيْد": 3470,
      "▁بغداد": 3471,
      "▁الله.": 3472,
      "▁حدّ": 3473,
      "▁السَّمَا": 3474,
      "هى": 3475,
      "▁إِلَيْ": 3476,
      "▁فاست": 3477,
      "ِيدِ": 3478,
      "▁الْحَق": 3479,
      "▁العين": 3480,
      "نية": 3481,
      "▁فم": 3482,
      "▁للح": 3483,
      "▁فَلَمْ": 3484,
      "▁يدخل": 3485,
      "▁اليهود": 3486,
      "▁أنفس": 3487,
      "▁شُع": 3488,
      "له.": 3489,
      "١٩": 3490,
      "ِمَهُ": 3491,
      "▁٤٨": 3492,
      "▁الطبري": 3493,
      "▁مرة": 3494,
      "▁التَّع": 3495,
      "بتدأ": 3496,
      "▁منصور": 3497,
      "ًا:": 3498,
      "▁الرزاق": 3499,
      "▁أَد": 3500,
      "▁تط": 3501,
      "▁يرد": 3502,
      "▁الْكِت": 3503,
      "▁بلفظ": 3504,
      "ُرَيْ": 3505,
      "▁ومنه": 3506,
      "ةً": 3507,
      "▁يُب": 3508,
      "▁تقدير": 3509,
      "منع": 3510,
      "▁عاد": 3511,
      "▁نف": 3512,
      "ْرَةِ": 3513,
      "▁نزل": 3514,
      "جي": 3515,
      "١٣": 3516,
      "▁مَج": 3517,
      "▁نبي": 3518,
      "ختصر": 3519,
      "َوْف": 3520,
      "هادة": 3521,
      "وا:": 3522,
      "▁ليست": 3523,
      "تر": 3524,
      "▁شك": 3525,
      "ورا": 3526,
      "▁وتعالى": 3527,
      "▁ذِك": 3528,
      "▁مُج": 3529,
      "▁القت": 3530,
      "اء:": 3531,
      "▁نظ": 3532,
      "▁عليك": 3533,
      "قصود": 3534,
      "▁الحد": 3535,
      "▁وأنه": 3536,
      "▁٤٩": 3537,
      "عدة": 3538,
      "▁امْرَأ": 3539,
      "▁حنيفة": 3540,
      "ُولِ": 3541,
      "▁التهذيب": 3542,
      "ٍ}": 3543,
      "١٤": 3544,
      "ِّد": 3545,
      "َاءً": 3546,
      "▁وإس": 3547,
      "▁عَمْر": 3548,
      "▁يَل": 3549,
      "▁وثلاث": 3550,
      "َيْنِ،": 3551,
      "▁دَاو": 3552,
      "وائد": 3553,
      "▁كقوله": 3554,
      "بارك": 3555,
      "ِي،": 3556,
      "▁آدم": 3557,
      "▁{ال": 3558,
      "▁الْقِي": 3559,
      "ديل": 3560,
      "▁المذكور": 3561,
      "▁الذه": 3562,
      "▁أربع": 3563,
      "ُوبِ": 3564,
      "▁غَيْرَ": 3565,
      "▁سبب": 3566,
      "▁غَيْرُ": 3567,
      "▁اد": 3568,
      "بس": 3569,
      "▁شهر": 3570,
      "▁الحم": 3571,
      "▁الشع": 3572,
      "▁(قَوْلُهُ:": 3573,
      "▁إني": 3574,
      "▁حَال": 3575,
      "ْلا": 3576,
      "ِّم": 3577,
      "▁ينظر": 3578,
      "جمع": 3579,
      "▁فَض": 3580,
      "▁بِت": 3581,
      "▁الْآي": 3582,
      "ّل": 3583,
      "▁أولى": 3584,
      "▁جواب": 3585,
      "▁القص": 3586,
      "▁وَالنَّ": 3587,
      "نين": 3588,
      "▁الألف": 3589,
      "▁\"من": 3590,
      "ُوسُف": 3591,
      "▁صَد": 3592,
      "▁جَاءَ": 3593,
      "َصْل": 3594,
      "▁قتادة": 3595,
      "شار": 3596,
      "▁الخلق": 3597,
      "ِّ،": 3598,
      "ما،": 3599,
      "▁الرّ": 3600,
      "▁فص": 3601,
      "▁وغيره": 3602,
      "ون.": 3603,
      "▁فهي": 3604,
      "▁عليه.": 3605,
      "م:": 3606,
      "▁الحر": 3607,
      "َنُ": 3608,
      "▁تقدمت": 3609,
      "▁نافع": 3610,
      "▁وَالص": 3611,
      "▁الصَّلَاة": 3612,
      "▁قريش": 3613,
      "ْتَد": 3614,
      "خير": 3615,
      "▁مَو": 3616,
      "▁ابنُ": 3617,
      "كِ": 3618,
      "▁كَأ": 3619,
      "▁[٣": 3620,
      "▁اقت": 3621,
      "▁عدي": 3622,
      "نان": 3623,
      "ُوح": 3624,
      "▁ونحو": 3625,
      "قطني": 3626,
      "▁(٥/": 3627,
      "▁بالس": 3628,
      "▁لكل": 3629,
      "▁النَّار": 3630,
      "ْرِف": 3631,
      "▁وإلا": 3632,
      "ِيمٌ": 3633,
      "ــــــــــــ": 3634,
      "▁(س": 3635,
      "باب": 3636,
      "▁ذي": 3637,
      "ثرة": 3638,
      "اوي": 3639,
      "مْس": 3640,
      "َاعِ": 3641,
      "▁لسان": 3642,
      "▁وَعَنْ": 3643,
      "َعْم": 3644,
      "َةٌ،": 3645,
      "جار": 3646,
      "▁الهد": 3647,
      "فن": 3648,
      "اي": 3649,
      "لامة": 3650,
      "َرَف": 3651,
      "▁بِالْح": 3652,
      "َرْف": 3653,
      "▁كَذَا": 3654,
      "بعض": 3655,
      "ْتَق": 3656,
      "ليف": 3657,
      "▁وَز": 3658,
      "ائه": 3659,
      "▁وأع": 3660,
      "▁شر": 3661,
      "▁أسلم": 3662,
      "▁دَاوُد": 3663,
      "▁وَالْ": 3664,
      "▁ضع": 3665,
      "▁آمن": 3666,
      "ْوَى": 3667,
      "▁الْكَل": 3668,
      "َحْم": 3669,
      "▁روي": 3670,
      "▁وَكَذَا": 3671,
      "ْتَب": 3672,
      "▁النص": 3673,
      "▁قطع": 3674,
      "▁وَث": 3675,
      "▁٧/": 3676,
      "وا،": 3677,
      "▁كبير": 3678,
      "▁الزَّوْج": 3679,
      "▁يُف": 3680,
      "▁لذلك": 3681,
      "ضب": 3682,
      "▁وَقِيلَ": 3683,
      "▁الْآخ": 3684,
      "ِّح": 3685,
      "َّهُ": 3686,
      "▁اللَّهِ،": 3687,
      "▁وَالث": 3688,
      "لث": 3689,
      "ثبات": 3690,
      "ْء": 3691,
      "▁تَخ": 3692,
      "▁قَوْلُهُ": 3693,
      "▁أَكْث": 3694,
      "َقَدْ": 3695,
      "قيه": 3696,
      "َّةٍ": 3697,
      "▁تغ": 3698,
      "ضمن": 3699,
      "َعْر": 3700,
      "▁[٣].": 3701,
      "َلَهُ": 3702,
      "َرُوا": 3703,
      "ــــــــــــــــــــــــــــ": 3704,
      "▁هكذا": 3705,
      "ورد": 3706,
      "▁قَر": 3707,
      "ُورِ": 3708,
      "▁للإ": 3709,
      "▁صَحِيح": 3710,
      "▁معناه": 3711,
      "▁والسلام": 3712,
      "واع": 3713,
      "▁السب": 3714,
      "َة،": 3715,
      "▁عَام": 3716,
      "▁حاشية": 3717,
      "▁مُس": 3718,
      "▁بقوله:": 3719,
      "▁امرأة": 3720,
      "▁كَانُوا": 3721,
      "▁بِب": 3722,
      "▁مُب": 3723,
      "▁يُك": 3724,
      "▁«٢": 3725,
      "حاشية": 3726,
      "▁بَق": 3727,
      "▁الدُّنْيَا": 3728,
      "▁لقد": 3729,
      "▁«§": 3730,
      "ِفُ": 3731,
      "ِلْم": 3732,
      "▁أمير": 3733,
      "ارع": 3734,
      "▁عليكم": 3735,
      "▁رأس": 3736,
      "َاث": 3737,
      "▁يُوسُف": 3738,
      "١٥": 3739,
      "سنة": 3740,
      "ُوت": 3741,
      "ق.": 3742,
      "▁وَاسْت": 3743,
      "شهد": 3744,
      "▁[٧]": 3745,
      "▁عُر": 3746,
      "▁(ي": 3747,
      "▁حص": 3748,
      "كري": 3749,
      "▁الكفر": 3750,
      "▁مطلق": 3751,
      "▁وَالر": 3752,
      "▁عَنهُ": 3753,
      "▁الْأَوَّل": 3754,
      "▁الوليد": 3755,
      "▁بأس": 3756,
      "▁فَإِن": 3757,
      "بعث": 3758,
      "▁البيه": 3759,
      "▁عَنْهَا": 3760,
      "▁وَط": 3761,
      "▁حدَّ": 3762,
      "تع": 3763,
      "ائب": 3764,
      "▁باع": 3765,
      "▁{ق": 3766,
      "▁بَد": 3767,
      "▁أُخ": 3768,
      "▁آيات": 3769,
      "▁عَط": 3770,
      "▁عليّ": 3771,
      "▁الكريم": 3772,
      "َيْتُ": 3773,
      "خط": 3774,
      "▁ترى": 3775,
      "زيد": 3776,
      "▁العام": 3777,
      "▁الآخرة": 3778,
      "تف": 3779,
      "▁وَقَوْل": 3780,
      "▁حَم": 3781,
      "▁الخير": 3782,
      "▁سم": 3783,
      "▁فَن": 3784,
      "▁اللي": 3785,
      "قبل": 3786,
      "▁جار": 3787,
      "هَار": 3788,
      "١٦": 3789,
      "فيف": 3790,
      "▁وَإِن": 3791,
      "▁الواو": 3792,
      "▁لغ": 3793,
      "▁وَأَبُو": 3794,
      "▁حِينَ": 3795,
      "▁المعت": 3796,
      "▁\"ع": 3797,
      "▁أَرْبَع": 3798,
      "▁الطب": 3799,
      "ارج": 3800,
      "▁وَلَيْسَ": 3801,
      "ُلُّ": 3802,
      "١٨": 3803,
      "▁أحسن": 3804,
      "َعْل": 3805,
      "ومة": 3806,
      "▁فهم": 3807,
      "ُرُ": 3808,
      "▁بعث": 3809,
      "▁فَذ": 3810,
      "▁المعروف": 3811,
      "▁نَب": 3812,
      "َوْا": 3813,
      "قض": 3814,
      "١٧": 3815,
      "▁وَالْب": 3816,
      "▁ويع": 3817,
      "▁لِت": 3818,
      "▁الْقَوْل": 3819,
      "▁الْحَج": 3820,
      "تهذيب": 3821,
      "َّف": 3822,
      "▁دَخ": 3823,
      "▁أَنَا": 3824,
      "▁بيع": 3825,
      "▁يَض": 3826,
      "▁فَف": 3827,
      "▁مفعول": 3828,
      "▁ينب": 3829,
      "سع": 3830,
      "▁(ج": 3831,
      "َهْد": 3832,
      "▁فقط": 3833,
      "انب": 3834,
      "َّاع": 3835,
      "▁أَوَّل": 3836,
      "▁وفى": 3837,
      "ثناء": 3838,
      "▁النسائي": 3839,
      "وين": 3840,
      "▁\"ل": 3841,
      "▁فيهم": 3842,
      "▁خز": 3843,
      "▁الله:": 3844,
      "▁وَأَنَّ": 3845,
      "▁٥٠": 3846,
      "▁ثَم": 3847,
      "▁مجاهد": 3848,
      "▁حَد": 3849,
      "اظ": 3850,
      "▁الحاج": 3851,
      "▁المه": 3852,
      "▁وَسلم": 3853,
      "َفِ": 3854,
      "ختص": 3855,
      "َيْم": 3856,
      "▁ــــــــــــــــــــــــــــ": 3857,
      "ُوِيَ": 3858,
      "َاتُ": 3859,
      "▁يقع": 3860,
      "▁الْه": 3861,
      "▁في:": 3862,
      "رائيل": 3863,
      "▁والنسائي": 3864,
      "▁عِب": 3865,
      "▁عُثْم": 3866,
      "▁الذهبي": 3867,
      "َاوِي": 3868,
      "▁قَط": 3869,
      "▁الدِّين": 3870,
      "▁قراءة": 3871,
      "▁قَالَتْ": 3872,
      "▁إِبْرَاهِيمَ": 3873,
      "▁زياد": 3874,
      "▁عظيم": 3875,
      "ارك": 3876,
      "▁هُنَا": 3877,
      "▁الظاهر": 3878,
      "▁تَنْ": 3879,
      "▁فضل": 3880,
      "▁بخلاف": 3881,
      "▁ـــــــــــــــــــــــــــــ": 3882,
      "▁وَكَذَلِكَ": 3883,
      "▁أحب": 3884,
      "▁{ل": 3885,
      "▁مَاتَ": 3886,
      "بيعة": 3887,
      "ِلْكَ": 3888,
      "نات": 3889,
      "يق": 3890,
      "▁بِه": 3891,
      "▁\"ك": 3892,
      "▁الزوج": 3893,
      "▁وسب": 3894,
      "▁الفقه": 3895,
      "▁أغ": 3896,
      "▁يونس": 3897,
      "قَوْلِهِ": 3898,
      "▁الطريق": 3899,
      "▁٨/": 3900,
      "▁تف": 3901,
      "▁مُحَمَّدٍ": 3902,
      "▁تقول": 3903,
      "َحَ": 3904,
      "ّن": 3905,
      "ِينَ،": 3906,
      "▁كلمة": 3907,
      "▁بِالْع": 3908,
      "▁بِنَ": 3909,
      "▁الْمُؤْمِن": 3910,
      "▁بِذَلِكَ": 3911,
      "▁حميد": 3912,
      "▁أربعة": 3913,
      "▁العذاب": 3914,
      "▁الفر": 3915,
      "▁عنه:": 3916,
      "ْصِيل": 3917,
      "ْتَر": 3918,
      "ْتَض": 3919,
      "بيهقي": 3920,
      "كرم": 3921,
      "عث": 3922,
      "▁البقرة": 3923,
      "▁وض": 3924,
      "▁كعب": 3925,
      "انا": 3926,
      "▁كُلُّ": 3927,
      "ْرُج": 3928,
      "قتل": 3929,
      "ٍ)": 3930,
      "ارض": 3931,
      "▁فرع": 3932,
      "ِيًّا": 3933,
      "َتَ": 3934,
      "َوَاز": 3935,
      "َلَفَ": 3936,
      "ناية": 3937,
      "▁{وَ": 3938,
      "راط": 3939,
      "▁عَبَّاسٍ": 3940,
      "َالِح": 3941,
      "▁فَا": 3942,
      "▁بقي": 3943,
      "▁جاز": 3944,
      "٢٠": 3945,
      "▁نصب": 3946,
      "▁بالص": 3947,
      "َوْن": 3948,
      "▁ليلة": 3949,
      "▁الحن": 3950,
      "▁وعشر": 3951,
      "▁شيئا": 3952,
      "▁سبع": 3953,
      "أس": 3954,
      "▁البيهقي": 3955,
      "▁نقل": 3956,
      "▁«و": 3957,
      "ْطَل": 3958,
      "▁يعت": 3959,
      "▁إليهم": 3960,
      "اتب": 3961,
      "▁سنن": 3962,
      "وعة": 3963,
      "▁أبد": 3964,
      "▁يفعل": 3965,
      "ربع": 3966,
      "صاف": 3967,
      "سورة": 3968,
      "باط": 3969,
      "▁كم": 3970,
      "ْرًا": 3971,
      "▁أَنَس": 3972,
      "▁جهة": 3973,
      "جع": 3974,
      "▁الملائكة": 3975,
      "فسه": 3976,
      "▁وجعل": 3977,
      "صاري": 3978,
      "وني": 3979,
      "▁سير": 3980,
      "▁عهد": 3981,
      "▁وَالْج": 3982,
      "ونة": 3983,
      "م.": 3984,
      "▁حس": 3985,
      "▁نزلت": 3986,
      "▁مولى": 3987,
      "▁عرو": 3988,
      "فقه": 3989,
      "▁باط": 3990,
      "▁أَنه": 3991,
      "▁راج": 3992,
      "ُنَا": 3993,
      "ِّق": 3994,
      "َذَ": 3995,
      "▁لغير": 3996,
      "▁زَوْج": 3997,
      "▁وأنا": 3998,
      "▁شَيْئًا": 3999,
      "قة،": 4000,
      "▁لِلَّهِ": 4001,
      "▁أُ": 4002,
      "هِر": 4003,
      "▁نصف": 4004,
      "▁الطبراني": 4005,
      "▁الْأَص": 4006,
      "▁[الب": 4007,
      "لح": 4008,
      "▁علينا": 4009,
      "ألت": 4010,
      "▁لقوله": 4011,
      "▁شعر": 4012,
      "عى": 4013,
      "▁بِالْق": 4014,
      "▁أَرْ": 4015,
      "▁ترجمة": 4016,
      "▁رؤ": 4017,
      "لس": 4018,
      "▁عذاب": 4019,
      "ُوعِ": 4020,
      "▁وهب": 4021,
      "▁الثاني:": 4022,
      "▁قالت:": 4023,
      "▁الصالح": 4024,
      "▁آد": 4025,
      "▁إع": 4026,
      "▁والمعنى": 4027,
      "▁شيبة": 4028,
      "▁فليس": 4029,
      "▁أَنَّهَا": 4030,
      "▁الأصل:": 4031,
      "١/": 4032,
      "ُدَّ": 4033,
      "صبح": 4034,
      "▁ماء": 4035,
      "▁وَجْه": 4036,
      "▁قَض": 4037,
      "َطَ": 4038,
      "فُس": 4039,
      "▁والاست": 4040,
      "ِلَّ": 4041,
      "▁وبعد": 4042,
      "▁كُلَّ": 4043,
      "▁نَف": 4044,
      "َانٍ": 4045,
      "▁الْمَو": 4046,
      "▁فب": 4047,
      "▁أَحْمَدَ": 4048,
      "▁إليه،": 4049,
      "▁تحقيق": 4050,
      "زوج": 4051,
      "▁فَلْي": 4052,
      "▁شعب": 4053,
      "َرَجَ": 4054,
      "ُولُ": 4055,
      "▁آي": 4056,
      "▁فَمَا": 4057,
      "ثنى": 4058,
      "▁أَيْ:": 4059,
      "ئمة": 4060,
      "▁بدر": 4061,
      "▁الْمُسْت": 4062,
      "▁الْحَسَن": 4063,
      "كلم": 4064,
      "▁الْقَاضِي": 4065,
      "فعال": 4066,
      "▁وَأَخ": 4067,
      "وفى": 4068,
      "▁عَلَيْهِ،": 4069,
      "▁متعلق": 4070,
      "▁بكسر": 4071,
      "َنْص": 4072,
      "▁والذي": 4073,
      "٢٥": 4074,
      "٢٤": 4075,
      "▁كف": 4076,
      "▁وَعَلَى": 4077,
      "وخ": 4078,
      "شري": 4079,
      "▁\".\"": 4080,
      "▁الشرع": 4081,
      "▁التَّو": 4082,
      "٢٣": 4083,
      "▁الحديث.": 4084,
      "▁ضمير": 4085,
      "▁الموا": 4086,
      "▁المنذر": 4087,
      "▁تر": 4088,
      "▁آمَنُوا": 4089,
      "سباب": 4090,
      "▁قِيلَ": 4091,
      "فيد": 4092,
      "ديق": 4093,
      "ِرْ": 4094,
      "-:": 4095,
      "▁ابْنَ": 4096,
      "▁مصدر": 4097,
      "▁الوقت": 4098,
      "▁إِسْمَاع": 4099,
      "▁بَنِي": 4100,
      "▁عابدين": 4101,
      "▁العربية": 4102,
      "ُّ،": 4103,
      "▁حَب": 4104,
      "▁حَر": 4105,
      "َدِينَ": 4106,
      "حوه": 4107,
      "▁سَلَم": 4108,
      "▁فَب": 4109,
      "▁وخمس": 4110,
      "ئل": 4111,
      "▁نسب": 4112,
      "▁الصَّحِيح": 4113,
      "▁الْمُص": 4114,
      "▁المو": 4115,
      "▁بِأَنْ": 4116,
      "طلاق": 4117,
      "▁هناك": 4118,
      "▁أعط": 4119,
      "ول،": 4120,
      "▁كأنه": 4121,
      "▁وات": 4122,
      "▁«٢»": 4123,
      "َاهِد": 4124,
      "▁\"ي": 4125,
      "▁قبله": 4126,
      "▁وفتح": 4127,
      "▁العم": 4128,
      "كم،": 4129,
      "َوْنَ": 4130,
      "سنده": 4131,
      "▁المذهب": 4132,
      "َعْضِ": 4133,
      "▁والترمذي": 4134,
      "▁وست": 4135,
      "▁(قَوْلُهُ": 4136,
      "▁يسمع": 4137,
      "َلْق": 4138,
      "ائق": 4139,
      "َتَهُ": 4140,
      "▁رمض": 4141,
      "ويه": 4142,
      "▁الْحُك": 4143,
      "▁الْأَرْضِ": 4144,
      "كا": 4145,
      "▁بِغَيْرِ": 4146,
      "ةٌ": 4147,
      "َتْهُ": 4148,
      "َكُونُ": 4149,
      "▁الأنبياء": 4150,
      "رر": 4151,
      "ف،": 4152,
      "▁بها،": 4153,
      "▁أفضل": 4154,
      "▁الصغير": 4155,
      "▁هُرَيْرَةَ": 4156,
      "▁الأمة": 4157,
      "▁وأح": 4158,
      "▁إِنِّي": 4159,
      "▁الكمال": 4160,
      "َدَّمَ": 4161,
      "▁مجر": 4162,
      "▁حَدِيثِ": 4163,
      "▁حَج": 4164,
      "شياء": 4165,
      "▁الشرط": 4166,
      "▁فَح": 4167,
      "باء": 4168,
      "امت": 4169,
      "▁شَاءَ": 4170,
      "▁مه": 4171,
      "وفة": 4172,
      "جا": 4173,
      "هير": 4174,
      "▁القسم": 4175,
      "ائز": 4176,
      "▁عَزَّ": 4177,
      "▁رَجُلٌ": 4178,
      "▁حا": 4179,
      "▁\"ب": 4180,
      "▁٥٣": 4181,
      "زار": 4182,
      "▁بدل": 4183,
      "▁المشرك": 4184,
      "دري": 4185,
      "▁مُد": 4186,
      "▁اللُّ": 4187,
      "▁الرَّجُل": 4188,
      "▁النبو": 4189,
      "حيم": 4190,
      "▁(٦/": 4191,
      "▁ويد": 4192,
      "َيْفَ": 4193,
      "▁تَو": 4194,
      "▁وعند": 4195,
      "▁منا": 4196,
      "▁شهد": 4197,
      "َخْ": 4198,
      "▁وَلِ": 4199,
      "ْيِ": 4200,
      "▁لَمَّا": 4201,
      "▁جواز": 4202,
      "▁الكفار": 4203,
      "ْخُذ": 4204,
      "▁يرى": 4205,
      "ِيَةِ": 4206,
      "▁الفا": 4207,
      "صي": 4208,
      "٢٦": 4209,
      "ِلَافِ": 4210,
      "َائِل": 4211,
      "▁ذات": 4212,
      "ِرَاء": 4213,
      "٢٨": 4214,
      "ِفَ": 4215,
      "▁احت": 4216,
      "▁يَجِبُ": 4217,
      "وسط": 4218,
      "٢٧": 4219,
      "▁أيوب": 4220,
      "ْمَع": 4221,
      "٢/": 4222,
      "بارة": 4223,
      "طْلَق": 4224,
      "▁والمراد": 4225,
      "▁بعدها": 4226,
      "زق": 4227,
      "تداء": 4228,
      "▁الور": 4229,
      "▁وعلي": 4230,
      "▁دَع": 4231,
      "▁دِين": 4232,
      "ذان": 4233,
      "▁القناع": 4234,
      "افع": 4235,
      "▁فَكَانَ": 4236,
      "▁الْمَش": 4237,
      "تان": 4238,
      "▁الجاه": 4239,
      "هَا،": 4240,
      "▁ص:": 4241,
      "▁عطف": 4242,
      "طبي": 4243,
      "▁وتح": 4244,
      "ُّونَ": 4245,
      "َيِّنَ": 4246,
      "َّةٌ": 4247,
      "▁أَث": 4248,
      "َآ": 4249,
      "▁بسبب": 4250,
      "ْفُ": 4251,
      "▁ذَهَبَ": 4252,
      "▁وَض": 4253,
      "َفْظ": 4254,
      "وام": 4255,
      "▁أز": 4256,
      "ينه": 4257,
      "▁يه": 4258,
      "▁نَج": 4259,
      "▁{إِنَّ": 4260,
      "▁الخر": 4261,
      "▁العظيم": 4262,
      "▁سَعْد": 4263,
      "▁الصلا": 4264,
      "▁التفسير": 4265,
      "▁القلب": 4266,
      "▁فأما": 4267,
      "▁والبيهقي": 4268,
      "ْضِ": 4269,
      "اغ": 4270,
      "َهْل": 4271,
      "ًى": 4272,
      "▁فلو": 4273,
      "▁يَقُولُ": 4274,
      "▁رَك": 4275,
      "▁بِل": 4276,
      "▁إنّ": 4277,
      "▁مسألة": 4278,
      "▁(١٣": 4279,
      "▁قلوب": 4280,
      "▁لج": 4281,
      "ِّس": 4282,
      "َّاج": 4283,
      "▁عاصم": 4284,
      "▁عَلِيٍّ": 4285,
      "▁[٤": 4286,
      "شر:": 4287,
      "▁عرض": 4288,
      "▁بِهِ،": 4289,
      "▁ويجوز": 4290,
      "▁اق": 4291,
      "مَّ": 4292,
      "انى": 4293,
      "يل،": 4294,
      "جملة": 4295,
      "▁الْجُم": 4296,
      "▁٥٤": 4297,
      "▁الْوَق": 4298,
      "▁السلطان": 4299,
      "َطْل": 4300,
      "▁سائر": 4301,
      "▁المصدر": 4302,
      "▁إسرائيل": 4303,
      "▁محذوف": 4304,
      "▁ورس": 4305,
      "▁مرو": 4306,
      "▁فرض": 4307,
      "٢٩": 4308,
      "▁كَذ": 4309,
      "▁الشعر": 4310,
      "سام": 4311,
      "َفُ": 4312,
      "▁مثله": 4313,
      "زن": 4314,
      "▁الْجَنَّ": 4315,
      "▁(ر": 4316,
      "ِيدَ": 4317,
      "َّذِينَ": 4318,
      "ِعْل": 4319,
      "▁ولذلك": 4320,
      "َاحِ": 4321,
      "▁الْمَسْج": 4322,
      "قاء": 4323,
      "▁النِّس": 4324,
      "▁اللغ": 4325,
      "▁رَوَى": 4326,
      "َعْب": 4327,
      "فضل": 4328,
      "َادِي": 4329,
      "▁لر": 4330,
      "▁اللام": 4331,
      "▁وجوب": 4332,
      "▁والحا": 4333,
      "اره": 4334,
      "شْرِك": 4335,
      "▁أحاديث": 4336,
      "▁الْمُق": 4337,
      "ليفة": 4338,
      "ووي": 4339,
      "وحيد": 4340,
      "▁الْفُقَهَاءُ": 4341,
      "▁مَرْ": 4342,
      "شتري": 4343,
      "▁المغني": 4344,
      "▁مَش": 4345,
      "▁ولهذا": 4346,
      "َاءِ،": 4347,
      "كب": 4348,
      "وم،": 4349,
      "َيَّام": 4350,
      "عله": 4351,
      "جود": 4352,
      "▁يعني:": 4353,
      "ذل": 4354,
      "▁كَذَلِكَ": 4355,
      "ِذٍ": 4356,
      "▁الْجَم": 4357,
      "▁بَع": 4358,
      "▁الأحكام": 4359,
      "ِنُ": 4360,
      "لاك": 4361,
      "َرٍ": 4362,
      "َافِر": 4363,
      "▁التك": 4364,
      "▁أثر": 4365,
      "▁جَر": 4366,
      "لَّه": 4367,
      "▁الكبرى": 4368,
      "▁يُقَال": 4369,
      "▁الْمُس": 4370,
      "▁دمشق": 4371,
      "▁الْمَق": 4372,
      "▁معنا": 4373,
      "▁وشرح": 4374,
      "ًا)": 4375,
      "حسان": 4376,
      "▁إِي": 4377,
      "▁المدين": 4378,
      "غفر": 4379,
      "▁عدد": 4380,
      "▁الكافر": 4381,
      "َؤ": 4382,
      "▁الْخَط": 4383,
      "َير": 4384,
      "▁يرجع": 4385,
      "▁إِلى": 4386,
      "ِيَاد": 4387,
      "▁السلف": 4388,
      "ّق": 4389,
      "▁غريب": 4390,
      "▁أتى": 4391,
      "▁المشر": 4392,
      "▁إِنَّهُ": 4393,
      "▁أجل": 4394,
      "كى": 4395,
      "ُخَار": 4396,
      "لّا": 4397,
      "▁مَعَهُ": 4398,
      "▁صلا": 4399,
      "▁وو": 4400,
      "وقع": 4401,
      "سد": 4402,
      "▁كثيرة": 4403,
      "▁لَيْل": 4404,
      "صوب": 4405,
      "▁الدي": 4406,
      "ْرٌ": 4407,
      "ُمْهُ": 4408,
      "▁غز": 4409,
      "▁ذَلِكَ،": 4410,
      "▁بالج": 4411,
      "▁الْمُد": 4412,
      "▁مِنْهُمَا": 4413,
      "ابل": 4414,
      "▁ينت": 4415,
      "▁بهذه": 4416,
      "قيم": 4417,
      "▁والمغني": 4418,
      "▁الأنصاري": 4419,
      "َانَ،": 4420,
      "▁عنه.": 4421,
      "▁الْإِمَا": 4422,
      "▁النظر": 4423,
      "َازَ": 4424,
      "▁نَز": 4425,
      "▁طَرِي": 4426,
      "▁الاخت": 4427,
      "▁اللهم": 4428,
      "▁الحياة": 4429,
      "▁كونه": 4430,
      "▁(٩)": 4431,
      "▁شَه": 4432,
      "▁عَلَيْكُمْ": 4433,
      "َلَتْ": 4434,
      "▁عَذ": 4435,
      "طق": 4436,
      "▁زمان": 4437,
      "طيع": 4438,
      "▁مَرَّ": 4439,
      "مهور": 4440,
      "▁وَبَيْنَ": 4441,
      "▁مقام": 4442,
      "راس": 4443,
      "َنِيف": 4444,
      "»:": 4445,
      "درك": 4446,
      "▁عطاء": 4447,
      "▁فكيف": 4448,
      "▁كلّ": 4449,
      "▁لِك": 4450,
      "ح،": 4451,
      "▁مم": 4452,
      "▁الأب": 4453,
      "▁وَسَلَّمَ،": 4454,
      "وته": 4455,
      "▁مَل": 4456,
      "▁لَكَ": 4457,
      "ضعف": 4458,
      "َنْز": 4459,
      "شأ": 4460,
      "افة": 4461,
      "▁فاعل": 4462,
      "▁الأحاديث": 4463,
      "آل": 4464,
      "لي،": 4465,
      "▁جزء": 4466,
      "▁{وَل": 4467,
      "▁الْقَاس": 4468,
      "َّك": 4469,
      "▁فاع": 4470,
      "▁ينبغي": 4471,
      "▁بِف": 4472,
      "▁المل": 4473,
      "▁لِح": 4474,
      "▁الهيث": 4475,
      "▁أَحْمَد": 4476,
      "▁الأق": 4477,
      "▁الْمَرْأ": 4478,
      "▁نَو": 4479,
      "ية)": 4480,
      "▁ينا": 4481,
      "▁الْعَز": 4482,
      "ؤه": 4483,
      "▁قَوْلُهُ:": 4484,
      "▁الموص": 4485,
      "مْك": 4486,
      "واج": 4487,
      "▁يَف": 4488,
      "▁الأخر": 4489,
      "▁سهل": 4490,
      "▁وعمر": 4491,
      "▁(١٤": 4492,
      "ْتُهُ": 4493,
      "▁طرق": 4494,
      "هما،": 4495,
      "َوْمَ": 4496,
      "▁بالب": 4497,
      "▁وَنَحْو": 4498,
      "غر": 4499,
      "▁حمل": 4500,
      "َامَةِ": 4501,
      "▁أَعْ": 4502,
      "اعي": 4503,
      "▁لِمَنْ": 4504,
      "قامة": 4505,
      "▁يَن": 4506,
      "ْتَف": 4507,
      "▁وَاحِدٍ": 4508,
      "▁منع": 4509,
      "▁٥٥": 4510,
      "▁الذى": 4511,
      "▁وَغ": 4512,
      "▁للب": 4513,
      "شيخ": 4514,
      "▁الحديث،": 4515,
      "▁أنزل": 4516,
      "▁الشاعر": 4517,
      "▁حفص": 4518,
      "َيَّنَ": 4519,
      "▁هـ.": 4520,
      "ُمْهُور": 4521,
      "ظن": 4522,
      "▁الإسناد": 4523,
      "▁بالش": 4524,
      "▁الري": 4525,
      "▁حبيب": 4526,
      "▁المهم": 4527,
      "▁مائة": 4528,
      "▁كتابه": 4529,
      "▁وآله": 4530,
      "▁بشيء": 4531,
      "▁أيها": 4532,
      "▁الاسم": 4533,
      "▁التاريخ": 4534,
      "▁وسلم،": 4535,
      "اءِ": 4536,
      "َسَنِ": 4537,
      "▁عمران": 4538,
      "▁وَجَلَّ": 4539,
      "▁خَمْس": 4540,
      "▁أنبأ": 4541,
      "▁حَنِيف": 4542,
      "▁الذهب": 4543,
      "وش": 4544,
      "▁الْقُرْآ": 4545,
      "ِقُ": 4546,
      "▁(خ": 4547,
      "▁وَقد": 4548,
      "▁وجملة": 4549,
      "▁الشّ": 4550,
      "َلَف": 4551,
      "▁ثَلا": 4552,
      "▁لس": 4553,
      "وطي": 4554,
      "▁تُ": 4555,
      "▁عالم": 4556,
      "▁سَأ": 4557,
      "ّ.": 4558,
      "▁يعلى": 4559,
      "يل:": 4560,
      "▁الصَّلا": 4561,
      "▁حَي": 4562,
      "▁[البقرة": 4563,
      "▁قسم": 4564,
      "حيط": 4565,
      "▁يجعل": 4566,
      "▁حرم": 4567,
      "ْرَهُ": 4568,
      "▁أمره": 4569,
      "نج": 4570,
      "ُومُ": 4571,
      "▁نفي": 4572,
      "▁٥٦": 4573,
      "▁إحدى": 4574,
      "▁يقتضي": 4575,
      "▁باب:": 4576,
      "بِ": 4577,
      "هنا": 4578,
      "▁ظَاهِر": 4579,
      "▁القراء": 4580,
      "اوى": 4581,
      "▁جَعْفَر": 4582,
      "▁حماد": 4583,
      "▁رجلا": 4584,
      "▁خلا": 4585,
      "▁(من": 4586,
      "▁هُمْ": 4587,
      "مَانَ": 4588,
      "▁بث": 4589,
      "▁خطأ": 4590,
      "▁عقد": 4591,
      "دة:": 4592,
      "▁الدَّار": 4593,
      "وبي": 4594,
      "▁مَوْض": 4595,
      "▁حذف": 4596,
      "▁عص": 4597,
      "غل": 4598,
      "▁الأول:": 4599,
      "▁(وَ": 4600,
      "▁وأخ": 4601,
      "▁رَم": 4602,
      "▁حُر": 4603,
      "▁الألب": 4604,
      "▁يدع": 4605,
      "قق": 4606,
      "▁قَالُوا:": 4607,
      "َيَّن": 4608,
      "▁إلَخْ": 4609,
      "ياض": 4610,
      "▁دينار": 4611,
      "هات": 4612,
      "شى": 4613,
      "▁الخلاف": 4614,
      "َنَابِل": 4615,
      "▁حفظ": 4616,
      "ْرِ،": 4617,
      "▁«م": 4618,
      "▁عبي": 4619,
      "ِمٍ": 4620,
      "▁معرفة": 4621,
      "ضافة": 4622,
      "▁البصري": 4623,
      "ْرَةَ": 4624,
      "▁الترج": 4625,
      "▁وَالْف": 4626,
      "▁حَك": 4627,
      "▁الشيطان": 4628,
      "امس": 4629,
      "▁اختلاف": 4630,
      "َيْف": 4631,
      "▁فرق": 4632,
      "ريعة": 4633,
      "دِ": 4634,
      "▁يأخذ": 4635,
      "▁الدارقطني": 4636,
      "▁قائ": 4637,
      "▁الباري": 4638,
      "▁دفع": 4639,
      "▁رَأْس": 4640,
      "▁لأنهم": 4641,
      "دّ": 4642,
      "َلِيل": 4643,
      "ْنَى": 4644,
      "▁الشَّيْخ": 4645,
      "▁التص": 4646,
      "▁نَظ": 4647,
      "▁يَلْز": 4648,
      "قاتل": 4649,
      "▁مسند": 4650,
      "▁القيام": 4651,
      "▁للا": 4652,
      "▁الكوفي": 4653,
      "▁الْحَنَابِل": 4654,
      "▁قَص": 4655,
      "٣٣": 4656,
      "▁اص": 4657,
      "يمين": 4658,
      "يب،": 4659,
      "▁بِالتَّ": 4660,
      "َهَ": 4661,
      "حيث": 4662,
      "ونها": 4663,
      "▁يجد": 4664,
      "ُودُ": 4665,
      "أي": 4666,
      "َهُمَا": 4667,
      "▁وفيها": 4668,
      "سك": 4669,
      "▁مرا": 4670,
      "▁الاح": 4671,
      "▁وذكره": 4672,
      "▁الْمُب": 4673,
      "▁الجمعة": 4674,
      "▁العقد": 4675,
      "▁وأمر": 4676,
      "▁المز": 4677,
      "▁للك": 4678,
      "▁الْحُس": 4679,
      "▁حقيقة": 4680,
      "▁تُر": 4681,
      "َبُّ": 4682,
      "َوْمِ": 4683,
      "▁الِاسْت": 4684,
      "واو": 4685,
      "َّنْ": 4686,
      "▁وَأَن": 4687,
      "بيت": 4688,
      "َّاسِ": 4689,
      "▁فيه.": 4690,
      "▁النَّاسُ": 4691,
      "▁والمن": 4692,
      "▁وَالْخ": 4693,
      "▁أَيُّهَا": 4694,
      "▁أَعْلَمُ": 4695,
      "ِّج": 4696,
      "▁(عن": 4697,
      "ُلِّ": 4698,
      "▁يَغ": 4699,
      "▁الطلاق": 4700,
      "▁بَيْنَهُمَا": 4701,
      "▁صَالِح": 4702,
      "▁رجع": 4703,
      "▁-رضي": 4704,
      "▁حدّثنا": 4705,
      "▁طَال": 4706,
      "▁البشر": 4707,
      "▁نَح": 4708,
      "▁نَس": 4709,
      "▁رَحِمَهُ": 4710,
      "▁أسماء": 4711,
      "▁حنبل": 4712,
      "َافِع": 4713,
      "▁قالت": 4714,
      "▁العباد": 4715,
      "▁الطَّ": 4716,
      "ةٍ": 4717,
      "▁وَلَد": 4718,
      "ِيرَ": 4719,
      "ٌ)": 4720,
      "ريض": 4721,
      "▁والأرض": 4722,
      "▁تَز": 4723,
      "نم": 4724,
      "▁ذكرنا": 4725,
      "كس": 4726,
      "َارِي": 4727,
      "بيح": 4728,
      "▁يثبت": 4729,
      "ش،": 4730,
      "▁مُخ": 4731,
      "▁تل": 4732,
      "▁ديوان": 4733,
      "▁تهذيب": 4734,
      "▁فَخ": 4735,
      "▁المفس": 4736,
      "▁نَحْو": 4737,
      "مَّا": 4738,
      "َاجِب": 4739,
      "▁فات": 4740,
      "شاء": 4741,
      "ه)": 4742,
      "▁حجة": 4743,
      "▁حدَّثنا": 4744,
      "َرَض": 4745,
      "▁جن": 4746,
      "▁نحن": 4747,
      "▁النكاح": 4748,
      "ذى": 4749,
      "▁مخل": 4750,
      "▁الرجال": 4751,
      "حْد": 4752,
      "ُّهْر": 4753,
      "▁وَالْحَنَابِل": 4754,
      "غيرة": 4755,
      "٣٤": 4756,
      "َلُّ": 4757,
      "▁سيد": 4758,
      "▁والل": 4759,
      "▁حَسَن": 4760,
      "▁فَد": 4761,
      "طلع": 4762,
      "▁يقوم": 4763,
      "▁قُلْتُ:": 4764,
      "ْتَاج": 4765,
      "▁٥٧": 4766,
      "دي:": 4767,
      "▁لص": 4768,
      "▁له.": 4769,
      "ناف": 4770,
      "ين\"": 4771,
      "▁وأخذ": 4772,
      "َالَةِ": 4773,
      "▁[١]،": 4774,
      "▁وَن": 4775,
      "▁شأن": 4776,
      "▁ورج": 4777,
      "▁إلَيْهِ": 4778,
      "▁فيها،": 4779,
      "▁يُو": 4780,
      "▁وأي": 4781,
      "▁ذَكَرَ": 4782,
      "▁وصل": 4783,
      "▁يَصِحُّ": 4784,
      "▁شيئاً": 4785,
      "▁بلاد": 4786,
      "ُبْح": 4787,
      "▁الْحَر": 4788,
      "▁هَلْ": 4789,
      "▁العقل": 4790,
      "▁«٣": 4791,
      "▁شُر": 4792,
      "▁الصّ": 4793,
      "▁[البقرة:": 4794,
      "▁الجملة": 4795,
      "▁فَقُل": 4796,
      "▁يده": 4797,
      "▁بِو": 4798,
      "▁السَّب": 4799,
      "▁كَب": 4800,
      "▁البيع": 4801,
      "▁المض": 4802,
      "▁الدّين": 4803,
      "▁تكن": 4804,
      "▁وترك": 4805,
      "▁ويكون": 4806,
      "▁وَالْك": 4807,
      "▁يتم": 4808,
      "▁ويقال:": 4809,
      "▁البلد": 4810,
      "▁المؤلف:": 4811,
      "جن": 4812,
      "▁ورب": 4813,
      "▁الرس": 4814,
      "َأْس": 4815,
      "ئك": 4816,
      "▁الياء": 4817,
      "▁مبتدأ": 4818,
      "▁٥٨": 4819,
      "▁وَرَو": 4820,
      "▁أعمال": 4821,
      "▁نِص": 4822,
      "▁ومنهم": 4823,
      "▁قصد": 4824,
      "ينَ": 4825,
      "اتِ": 4826,
      "اً:": 4827,
      "▁يظهر": 4828,
      "▁طال": 4829,
      "ثة": 4830,
      "ِثْل": 4831,
      "▁النف": 4832,
      "آخ": 4833,
      "▁الزي": 4834,
      "▁الجواب": 4835,
      "يم،": 4836,
      "▁وَاللَّهُ": 4837,
      "اده": 4838,
      "▁وَيُق": 4839,
      "▁نور": 4840,
      "بره": 4841,
      "▁الأمور": 4842,
      "شم": 4843,
      "▁نوع": 4844,
      "وَض": 4845,
      "ٌ}": 4846,
      "▁أَصْحَاب": 4847,
      "▁الْمَج": 4848,
      "▁الرواية": 4849,
      "طن": 4850,
      "▁البيان": 4851,
      "▁وسمع": 4852,
      "دب": 4853,
      "▁عبادة": 4854,
      "قون": 4855,
      "▁ذو": 4856,
      "حياء": 4857,
      "▁!": 4858,
      "ائفة": 4859,
      "▁٥٩": 4860,
      "٣٥": 4861,
      "▁الناشر:": 4862,
      "▁سَوَاءٌ": 4863,
      "▁بينهم": 4864,
      "َرُّ": 4865,
      "▁\"أن": 4866,
      "▁جَاء": 4867,
      "مَام": 4868,
      "َثَ": 4869,
      "▁أى": 4870,
      "َوْب": 4871,
      "▁بِج": 4872,
      "▁معين": 4873,
      "َكَرَ": 4874,
      "انع": 4875,
      "َامِل": 4876,
      "▁حمزة": 4877,
      "▁حرب": 4878,
      "▁أُن": 4879,
      "▁اسمه": 4880,
      "▁أنْ": 4881,
      "▁اللسان": 4882,
      "▁سبحان": 4883,
      "▁الحلبي": 4884,
      "٣٠": 4885,
      "ياب": 4886,
      "داء": 4887,
      "َّانِي": 4888,
      "ظة": 4889,
      "ْفَ": 4890,
      "▁[٨]": 4891,
      "احب": 4892,
      "▁م:": 4893,
      "▁تَد": 4894,
      "▁أعظم": 4895,
      "▁مختلف": 4896,
      "▁القل": 4897,
      "تن": 4898,
      "ير.": 4899,
      "عَ": 4900,
      "▁الخطيب": 4901,
      "خي": 4902,
      "ائف": 4903,
      "▁الصُّ": 4904,
      "شْتَرِي": 4905,
      "ث،": 4906,
      "▁السورة": 4907,
      "▁بَاب": 4908,
      "▁مَث": 4909,
      "▁وجوه": 4910,
      "حِ": 4911,
      "▁بِالْب": 4912,
      "▁مَسْع": 4913,
      "▁يعمل": 4914,
      "٢٢": 4915,
      "▁منك": 4916,
      "▁السم": 4917,
      "▁أَرَادَ": 4918,
      "▁الأُ": 4919,
      "▁الْعَم": 4920,
      "▁جبير": 4921,
      "▁آت": 4922,
      "▁النَّو": 4923,
      "▁لهذا": 4924,
      "ابلة": 4925,
      "▁الضمير": 4926,
      "▁الْحَنَفِيَّةُ": 4927,
      "صية": 4928,
      "▁ومعنى": 4929,
      "ِسْت": 4930,
      "▁١:": 4931,
      "▁[سورة": 4932,
      "▁قريب": 4933,
      "اقت": 4934,
      "لاً،": 4935,
      "ِيعِ": 4936,
      "ْتَل": 4937,
      "▁[٤].": 4938,
      "▁صدر": 4939,
      "ِو": 4940,
      "▁رَبُّ": 4941,
      "▁تاب": 4942,
      "▁ولأن": 4943,
      "▁جـ": 4944,
      "▁ويست": 4945,
      "▁(١٥": 4946,
      "▁النعم": 4947,
      "▁هِش": 4948,
      "▁أبيه،": 4949,
      "َرٌ": 4950,
      "ُها": 4951,
      "ّ:": 4952,
      "▁فجعل": 4953,
      "ني،": 4954,
      "▁الأعم": 4955,
      "▁الرابع": 4956,
      "▁تعلم": 4957,
      "▁بِاللَّهِ": 4958,
      "▁بالغ": 4959,
      "▁العصر": 4960,
      "▁ثمّ": 4961,
      "▁تُق": 4962,
      "▁لان": 4963,
      "▁خَالِد": 4964,
      "▁يقبل": 4965,
      "▁المالك": 4966,
      "▁الموضع": 4967,
      "٣٦": 4968,
      "▁الْعِل": 4969,
      "▁الجامع": 4970,
      "▁قُت": 4971,
      "▁يعد": 4972,
      "▁بير": 4973,
      "واف": 4974,
      "ُومِ": 4975,
      "طاء": 4976,
      "▁الرَّحْمَن": 4977,
      "▁أعد": 4978,
      "▁والتعديل": 4979,
      "َقَّ": 4980,
      "مر،": 4981,
      "▁السنن": 4982,
      "ود،": 4983,
      "▁(الم": 4984,
      "▁هذا،": 4985,
      "▁\"ج": 4986,
      "▁خل": 4987,
      "ْنا": 4988,
      "َالِك": 4989,
      "▁عمر،": 4990,
      "▁هـ؛": 4991,
      "َائِم": 4992,
      "َّاهِر": 4993,
      "▁النِّك": 4994,
      "صير": 4995,
      "▁وقول": 4996,
      "د.": 4997,
      "واهر": 4998,
      "▁الأمير": 4999,
      "سوقي": 5000,
      "▁أصاب": 5001,
      "▁سأل": 5002,
      "▁سر": 5003,
      "▁واج": 5004,
      "▁كِتَاب": 5005,
      "شك": 5006,
      "دية": 5007,
      "لوم": 5008,
      "▁**": 5009,
      "ِيَّةَ": 5010,
      "▁لَنَا": 5011,
      "ْرِم": 5012,
      "▁حت": 5013,
      "▁دعا": 5014,
      "ىء": 5015,
      "ِخ": 5016,
      "▁وَأَنْ": 5017,
      "َانِ،": 5018,
      "▁الناس،": 5019,
      "▁٢:": 5020,
      "ِيقِ": 5021,
      "▁ولقد": 5022,
      "زوم": 5023,
      "▁المسند": 5024,
      "ات.": 5025,
      "▁[٥": 5026,
      "َوَّج": 5027,
      "▁الشرك": 5028,
      "▁الزمان": 5029,
      "▁فيقول": 5030,
      "▁بمع": 5031,
      "َرَهُ": 5032,
      "▁ويقول": 5033,
      "▁أَيَّام": 5034,
      "ماوات": 5035,
      "عار": 5036,
      "ها)": 5037,
      "ُضُو": 5038,
      "▁معط": 5039,
      "▁المشركين": 5040,
      "▁وعليه": 5041,
      "▁الحَدِيث": 5042,
      "واعد": 5043,
      "▁(ن": 5044,
      "▁قَوْلُ": 5045,
      "▁معجم": 5046,
      "▁ثاني": 5047,
      "▁«ف": 5048,
      "َاتٍ": 5049,
      "▁لط": 5050,
      "▁وحده": 5051,
      "أت": 5052,
      "▁إلّا": 5053,
      "راح": 5054,
      "الِث": 5055,
      "شرف": 5056,
      "▁لَهُ،": 5057,
      "▁نسبة": 5058,
      "ْعَل": 5059,
      "▁أَحَدُهُمَا": 5060,
      "▁فالم": 5061,
      "▁رمضان": 5062,
      "كرمة": 5063,
      "ّب": 5064,
      "▁والحديث": 5065,
      "ْلُو": 5066,
      "▁وحاشية": 5067,
      "▁الفصل": 5068,
      "▁٦٠": 5069,
      "ْدَ": 5070,
      "▁جبري": 5071,
      "واية": 5072,
      "لها،": 5073,
      "ريع": 5074,
      "▁فيهما": 5075,
      "▁قَالَتْ:": 5076,
      "▁سوى": 5077,
      "▁اليمن": 5078,
      "▁شبه": 5079,
      "▁فعلى": 5080,
      "▁وجاء": 5081,
      "راع": 5082,
      "▁عنه-": 5083,
      "شديد": 5084,
      "▁امت": 5085,
      "▁الثَّو": 5086,
      "َارٍ": 5087,
      "سير": 5088,
      "▁الزهري": 5089,
      "▁إمام": 5090,
      "َرْك": 5091,
      "▁مَالِكٍ": 5092,
      "ضُ": 5093,
      "ساكر": 5094,
      "▁(إ": 5095,
      "َبِي": 5096,
      "َمَنْ": 5097,
      "▁تِلْكَ": 5098,
      "▁وراء": 5099,
      "رتيب": 5100,
      "▁بإس": 5101,
      "▁الحك": 5102,
      "▁الْمُو": 5103,
      "َغِي": 5104,
      "▁وَالْو": 5105,
      "▁الباط": 5106,
      "ْتَن": 5107,
      "▁والآخر": 5108,
      "▁وَالشَّافِع": 5109,
      "▁وَقَالَ:": 5110,
      "▁وبعض": 5111,
      "▁يَعْق": 5112,
      "َائِد": 5113,
      "▁والمر": 5114,
      "▁وهما": 5115,
      "▁الطالب": 5116,
      "َرِيب": 5117,
      "▁الْوَص": 5118,
      "َاعَ": 5119,
      "٣٧": 5120,
      "▁(٧/": 5121,
      "سنن": 5122,
      "▁ربه": 5123,
      "▁الميت": 5124,
      "▁رأي": 5125,
      "ِرٍ": 5126,
      "▁بِالْ": 5127,
      "ضوع": 5128,
      "▁بـ": 5129,
      "▁وذ": 5130,
      "▁الجوز": 5131,
      "َوْق": 5132,
      "بر،": 5133,
      "نك": 5134,
      "▁وسي": 5135,
      "تمال": 5136,
      "▁وأصحاب": 5137,
      "▁\"إ": 5138,
      "▁راجع": 5139,
      "▁ثمان": 5140,
      "▁\"ح": 5141,
      "▁معاذ": 5142,
      "▁شُعْب": 5143,
      "و،": 5144,
      "▁قَو": 5145,
      "ثله": 5146,
      "صارى": 5147,
      "باه": 5148,
      "▁الْقَب": 5149,
      "شير": 5150,
      "▁صورة": 5151,
      "▁أجر": 5152,
      "▁الثَّالِث": 5153,
      "▁وَهُمْ": 5154,
      "ً،": 5155,
      "▁وظ": 5156,
      "▁٩/": 5157,
      "▁واختلف": 5158,
      "▁روح": 5159,
      "▁جائز": 5160,
      "ْلِس": 5161,
      "▁اعْت": 5162,
      "سخ": 5163,
      "َبَّ": 5164,
      "▁جامع": 5165,
      "▁العشر": 5166,
      "ِّك": 5167,
      "▁تنا": 5168,
      "▁نسخ": 5169,
      "زال": 5170,
      "ودة": 5171,
      "▁ومنها": 5172,
      "▁حسب": 5173,
      "▁سَعِيدٍ": 5174,
      "▁أحكام": 5175,
      "▁منه.": 5176,
      "زا": 5177,
      "قال:": 5178,
      "▁تَش": 5179,
      "▁الرَّا": 5180,
      "▁الوض": 5181,
      "▁يشت": 5182,
      "▁قَتَاد": 5183,
      "▁الْحَم": 5184,
      "▁الرك": 5185,
      "حكام": 5186,
      "ِّع": 5187,
      "▁شه": 5188,
      "▁مَسْعُود": 5189,
      "▁الكثير": 5190,
      "▁فخ": 5191,
      "▁كانَ": 5192,
      "▁يمنع": 5193,
      "▁الْمَنْ": 5194,
      "▁القدر": 5195,
      "▁مَخ": 5196,
      "▁البغدا": 5197,
      "▁غاية": 5198,
      "▁اسْم": 5199,
      "▁شَرْط": 5200,
      "▁يؤمن": 5201,
      "▁وتس": 5202,
      "▁القضاء": 5203,
      "▁الطعام": 5204,
      "▁سَمِعَ": 5205,
      "▁تَقَدَّمَ": 5206,
      "▁الْعَد": 5207,
      "بوع": 5208,
      "▁هَذ": 5209,
      "▁الْمَح": 5210,
      "▁الآن": 5211,
      "▁حَنِيفَةَ": 5212,
      "▁بالر": 5213,
      "▁جم": 5214,
      "▁فَأَخ": 5215,
      "▁إشارة": 5216,
      "▁زر": 5217,
      "▁تقد": 5218,
      "▁منكم": 5219,
      "▁ورسوله": 5220,
      "ــــــــــــــــــــــــــــــــــــــــــــــــــــــــــــــــ": 5221,
      "▁بالخ": 5222,
      "▁السابق": 5223,
      "▁صدق": 5224,
      "▁الصواب": 5225,
      "▁يقدر": 5226,
      "▁عُق": 5227,
      "▁لَي": 5228,
      "▁شَيْءٌ": 5229,
      "ْرِج": 5230,
      "▁إسناد": 5231,
      "▁جنس": 5232,
      "ابي": 5233,
      "▁بَط": 5234,
      "▁الزُّهْر": 5235,
      "▁كذب": 5236,
      "ًا\"": 5237,
      "▁عُمَرُ": 5238,
      "يني": 5239,
      "▁مُؤ": 5240,
      "ْلِك": 5241,
      "ريقة": 5242,
      "ُرُوج": 5243,
      "▁معروف": 5244,
      "قرآن": 5245,
      "▁وأص": 5246,
      "▁لَهُ:": 5247,
      "ونا": 5248,
      "َعَهُ": 5249,
      "▁جَاب": 5250,
      "▁رَبَّ": 5251,
      "▁بِص": 5252,
      "▁أولي": 5253,
      "▁قلنا:": 5254,
      "فعة": 5255,
      "▁المغرب": 5256,
      "▁بِمُ": 5257,
      "٣٨": 5258,
      "▁(١٦": 5259,
      "تنا": 5260,
      "اد،": 5261,
      "زلت": 5262,
      "▁الذكر": 5263,
      "▁والإن": 5264,
      "▁عَظ": 5265,
      "تماع": 5266,
      "▁اللُّغ": 5267,
      "▁الدولة": 5268,
      "▁للج": 5269,
      "▁كلهم": 5270,
      "▁يَمْ": 5271,
      "▁بيروت": 5272,
      "▁لكان": 5273,
      "▁مرد": 5274,
      "▁عَنْهُمَا": 5275,
      "ُسْل": 5276,
      "▁ثوب": 5277,
      "ْمَةِ": 5278,
      "٤٠": 5279,
      "▁الفرق": 5280,
      "▁وجب": 5281,
      "▁سالم": 5282,
      "▁يصلي": 5283,
      "▁سِت": 5284,
      "▁الْحَسَنِ": 5285,
      "▁شعبة": 5286,
      "▁ثَاب": 5287,
      "▁الْمَعْنَى": 5288,
      "▁الْحَي": 5289,
      "ِيَّةِ،": 5290,
      "▁بكل": 5291,
      "▁وعنه": 5292,
      "َهَاد": 5293,
      "افي": 5294,
      "٣٩": 5295,
      "▁لئ": 5296,
      "▁النسخ": 5297,
      "ّاس": 5298,
      "َاءٍ": 5299,
      "وضة": 5300,
      "ِيعُ": 5301,
      "٢١": 5302,
      "اب،": 5303,
      "▁حَس": 5304,
      "▁يجز": 5305,
      "▁{م": 5306,
      "▁بينه": 5307,
      "َهِد": 5308,
      "برة": 5309,
      "▁فهل": 5310,
      "▁وأس": 5311,
      "▁بَعْضِ": 5312,
      "فصل": 5313,
      "▁رِج": 5314,
      "▁العاص": 5315,
      "▁الزكاة": 5316,
      "▁واجب": 5317,
      "َّج": 5318,
      "▁نَعَمْ": 5319,
      "▁مِّن": 5320,
      "ِّيَ": 5321,
      "▁الْيَم": 5322,
      "▁أشد": 5323,
      "▁بعضها": 5324,
      "▁(١٩": 5325,
      "▁(١٨": 5326,
      "▁ضر": 5327,
      "▁حُم": 5328,
      "لا،": 5329,
      "لاَ": 5330,
      "َاخ": 5331,
      "▁(د": 5332,
      "▁وإلى": 5333,
      "َدٍ": 5334,
      "▁الجار": 5335,
      "ْلَى": 5336,
      "انِ": 5337,
      "▁وار": 5338,
      "▁مرض": 5339,
      "▁سمي": 5340,
      "ربة": 5341,
      "▁النووي": 5342,
      "▁ولل": 5343,
      "ُونُس": 5344,
      "▁طبقات": 5345,
      "▁فجاء": 5346,
      "▁وَبِ": 5347,
      "▁١-": 5348,
      "▁مجمع": 5349,
      "▁كَس": 5350,
      "▁الاج": 5351,
      "▁بَعْضُ": 5352,
      "▁قُر": 5353,
      "ُوا:": 5354,
      "دُ": 5355,
      "▁ثالث": 5356,
      "▁(ط": 5357,
      "▁فِيهِ،": 5358,
      "▁الْأَح": 5359,
      "▁الأَْو": 5360,
      "▁مضاف": 5361,
      "اءُ": 5362,
      "▁عِيس": 5363,
      "▁«٣»": 5364,
      "▁سلام": 5365,
      "▁وَالد": 5366,
      "▁جَعَل": 5367,
      "واح": 5368,
      "▁أشهر": 5369,
      "▁الْأُم": 5370,
      "▁النهي": 5371,
      "▁شرع": 5372,
      "▁يُت": 5373,
      "▁فإنها": 5374,
      "▁افت": 5375,
      "▁تَل": 5376,
      "▁كنا": 5377,
      "▁آخَرَ": 5378,
      "▁فله": 5379,
      "▁عَائِشَةَ": 5380,
      "خول": 5381,
      "فهام": 5382,
      "▁الصَّد": 5383,
      "▁الشر": 5384,
      "َلٍ": 5385,
      "▁تيم": 5386,
      "▁ضَر": 5387,
      "▁الْمَع": 5388,
      "▁القرطبي": 5389,
      "▁رُوِيَ": 5390,
      "▁اللا": 5391,
      "ُسْت": 5392,
      "▁جبريل": 5393,
      "َافِظ": 5394,
      "نام": 5395,
      "▁التم": 5396,
      "▁أَبي": 5397,
      "▁تو": 5398,
      "▁قصة": 5399,
      "▁مُطْلَق": 5400,
      "▁وَاخْت": 5401,
      "▁بالمع": 5402,
      "▁واف": 5403,
      "▁أَخْرَج": 5404,
      "▁الْفُقَهَاءِ": 5405,
      "▁إليك": 5406,
      "ْرِهِ": 5407,
      "▁والحاكم": 5408,
      "ِلُّ": 5409,
      "ظام": 5410,
      "ْهَم": 5411,
      "َهُ.": 5412,
      "آخر": 5413,
      "▁بَعْضُهُمْ": 5414,
      "▁بناء": 5415,
      "▁الْوَج": 5416,
      "َّرُ": 5417,
      "▁الْمَل": 5418,
      "▁الشرح": 5419,
      "ِقَ": 5420,
      "كين": 5421,
      "▁ومر": 5422,
      "▁لِق": 5423,
      "▁زَك": 5424,
      "▁فإ": 5425,
      "▁صحيح.": 5426,
      "اطب": 5427,
      "▁الْإِسْل": 5428,
      "▁لغة": 5429,
      "▁لش": 5430,
      "َّاق": 5431,
      "▁حل": 5432,
      "ُوفِ": 5433,
      "بن": 5434,
      "▁وَالن": 5435,
      "▁الحرب": 5436,
      "▁الها": 5437,
      "ْقِ": 5438,
      "▁حول": 5439,
      "▁التَّر": 5440,
      "▁الصلاة،": 5441,
      "▁الآية:": 5442,
      "▁لكون": 5443,
      "جمة": 5444,
      "▁بَلَغ": 5445,
      "بدأ": 5446,
      "يزان": 5447,
      "▁الخص": 5448,
      "▁غَيْرِهِ": 5449,
      "▁يُد": 5450,
      "قرار": 5451,
      "▁خمسة": 5452,
      "▁تسع": 5453,
      "▁الخز": 5454,
      "▁أين": 5455,
      "▁-.": 5456,
      "يء": 5457,
      "لاص": 5458,
      "َهَى": 5459,
      "▁وسكون": 5460,
      "َأْم": 5461,
      "▁\"ما": 5462,
      "▁الْمَذْك": 5463,
      "حَ": 5464,
      "▁الحمد": 5465,
      "َطُ": 5466,
      "▁عندي": 5467,
      "ِدْ": 5468,
      "َاهَا": 5469,
      "▁ثقات": 5470,
      "ِيرٌ": 5471,
      "ْمَال": 5472,
      "▁عندهم": 5473,
      "▁أث": 5474,
      "▁قِيم": 5475,
      "َّخ": 5476,
      "سى": 5477,
      "▁الْأَس": 5478,
      "▁\"الك": 5479,
      "▁(١٧": 5480,
      "َهَا،": 5481,
      "▁بَين": 5482,
      "▁الكر": 5483,
      "ِمَّا": 5484,
      "▁منصوب": 5485,
      "▁كاف": 5486,
      "▁بِالن": 5487,
      "حتج": 5488,
      "▁الجماعة": 5489,
      "▁تؤ": 5490,
      "مَانِ": 5491,
      "أخ": 5492,
      "▁نسخة": 5493,
      "ُبْحَانَ": 5494,
      "ُّن": 5495,
      "َظْه": 5496,
      "▁عج": 5497,
      "▁الفقهاء": 5498,
      "غب": 5499,
      "▁ابنه": 5500,
      "▁وكتب": 5501,
      "▁اه": 5502,
      "▁عف": 5503,
      "▁الله-": 5504,
      "▁ضَع": 5505,
      "راء،": 5506,
      "▁بِهَذَا": 5507,
      "ض،": 5508,
      "▁[م": 5509,
      "▁يقل": 5510,
      "▁الرازي": 5511,
      "هُ،": 5512,
      "▁فاس": 5513,
      "حية": 5514,
      "ِهِمْ،": 5515,
      "▁قليل": 5516,
      "▁فخرج": 5517,
      "قاد": 5518,
      "▁اش": 5519,
      "اها": 5520,
      "▁يروي": 5521,
      "▁يحصل": 5522,
      "▁الميم": 5523,
      "▁مَت": 5524,
      "▁(ز": 5525,
      "▁خِلَاف": 5526,
      "▁خَط": 5527,
      "▁سَبْع": 5528,
      "▁عُ": 5529,
      "▁الْقُر": 5530,
      "بوت": 5531,
      "إِذا": 5532,
      "▁قالَ": 5533,
      "▁مضى": 5534,
      "▁كلاهما": 5535,
      "ك:": 5536,
      "▁أُمَّ": 5537,
      "الت": 5538,
      "▁يقرأ": 5539,
      "▁تقر": 5540,
      "▁ولكنه": 5541,
      "▁محمود": 5542,
      "َة.": 5543,
      "ُلُو": 5544,
      "▁الّ": 5545,
      "▁م)": 5546,
      "▁القدير": 5547,
      "▁عَليّ": 5548,
      "▁أنفسهم": 5549,
      "▁الإخ": 5550,
      "▁اشْت": 5551,
      "▁الكامل": 5552,
      "▁فقلت:": 5553,
      "▁مِلْك": 5554,
      "▁النَّس": 5555,
      "لكم": 5556,
      "▁عَمْرٍ": 5557,
      "▁زِيَاد": 5558,
      "▁أموال": 5559,
      "▁القراءة": 5560,
      "لقى": 5561,
      "▁قُلْ": 5562,
      "▁الْعَزِيز": 5563,
      "ْوَال": 5564,
      "▁الأَْص": 5565,
      "ءَ": 5566,
      "▁الروم": 5567,
      "▁اشْتَر": 5568,
      "وَال": 5569,
      "▁باسم": 5570,
      "▁{وَال": 5571,
      "▁مي": 5572,
      "رفه": 5573,
      "▁والثاني:": 5574,
      "▁نحو:": 5575,
      "٤٥": 5576,
      "ءٍ": 5577,
      "ئيس": 5578,
      "▁جبل": 5579,
      "ُوبُ": 5580,
      "▁أرد": 5581,
      "▁الجزء": 5582,
      "▁السَّي": 5583,
      "▁تعالى،": 5584,
      "▁قلي": 5585,
      "▁حديثه": 5586,
      "▁عوف": 5587,
      "▁يحل": 5588,
      "▁وهكذا": 5589,
      "ِرَةِ": 5590,
      "▁علماء": 5591,
      "▁(٨/": 5592,
      "▁ضَم": 5593,
      "▁٦٥": 5594,
      "ميز": 5595,
      "▁هارون": 5596,
      "▁بِالس": 5597,
      "▁فيمن": 5598,
      "فات": 5599,
      "▁آم": 5600,
      "▁سُن": 5601,
      "▁مقت": 5602,
      "▁عَنْهُ،": 5603,
      "▁الطويل": 5604,
      "وير": 5605,
      "▁ويم": 5606,
      "ُلَم": 5607,
      "▁كَت": 5608,
      "▁كس": 5609,
      "▁خَب": 5610,
      "▁الْكَف": 5611,
      "▁[٢]،": 5612,
      "▁يحتمل": 5613,
      "▁عَلَيَّ": 5614,
      "▁٢-": 5615,
      "▁وَإِلَّا": 5616,
      "ْءِ": 5617,
      "▁شديد": 5618,
      "▁المقصود": 5619,
      "▁الْمَدِينَ": 5620,
      "▁وَابْنُ": 5621,
      "طار": 5622,
      "▁سما": 5623,
      "▁فيه:": 5624,
      "▁\"الأ": 5625,
      "▁لأحد": 5626,
      "ات:": 5627,
      "▁أحدهما:": 5628,
      "َصْر": 5629,
      "▁المنافق": 5630,
      "▁قو": 5631,
      "▁حلف": 5632,
      "لة.": 5633,
      "زام": 5634,
      "ِنْس": 5635,
      "▁أنَّه": 5636,
      "▁مُعَاوِي": 5637,
      "▁عَلى": 5638,
      "▁ووا": 5639,
      "▁والي": 5640,
      "▁نَفْسِهِ": 5641,
      "▁طاهر": 5642,
      "▁ثَب": 5643,
      "▁الزَّك": 5644,
      "▁الثقات": 5645,
      "▁الأدب": 5646,
      "ِلُوا": 5647,
      "٤٨": 5648,
      "▁الأنصار": 5649,
      "▁الأك": 5650,
      "▁واسم": 5651,
      "▁(١٠)": 5652,
      "َادَةِ": 5653,
      "▁وَفِيهِ": 5654,
      "أَِنَّ": 5655,
      "▁قلنا": 5656,
      "الس": 5657,
      "▁مُصْطَل": 5658,
      "لاب": 5659,
      "▁يُسْت": 5660,
      "▁ظَه": 5661,
      "دَ": 5662,
      "▁أدرك": 5663,
      "▁أرسل": 5664,
      "▁زعم": 5665,
      "حث": 5666,
      "ْرُو": 5667,
      "٤٦": 5668,
      "ِيص": 5669,
      "َقِّ": 5670,
      "طوط": 5671,
      "▁يُونُس": 5672,
      "▁مبني": 5673,
      "▁الهمزة": 5674,
      "▁التى": 5675,
      "▁أُس": 5676,
      "▁شئ": 5677,
      "ِيبِ": 5678,
      "▁الْحَدِيثِ": 5679,
      "▁الكل": 5680,
      "▁فأمر": 5681,
      "حدة": 5682,
      "▁الولد": 5683,
      "▁صَاحِب": 5684,
      "▁لِنَ": 5685,
      "▁تَغ": 5686,
      "▁الزُّب": 5687,
      "▁خي": 5688,
      "▁لأنَّ": 5689,
      "▁شريك": 5690,
      "ْبَةِ": 5691,
      "ْرِو": 5692,
      "▁أَصْل": 5693,
      "▁المشهور": 5694,
      "▁عَمْرو": 5695,
      "ْقَى": 5696,
      "▁جَوَاز": 5697,
      "▁درج": 5698,
      "▁وَقِيلَ:": 5699,
      "▁انه": 5700,
      "َمَّاد": 5701,
      "جهول": 5702,
      "قْر": 5703,
      "▁جَه": 5704,
      "▁أكل": 5705,
      "▁ذك": 5706,
      "▁فُل": 5707,
      "▁والثاني": 5708,
      "▁الإبل": 5709,
      "▁للش": 5710,
      "▁الباق": 5711,
      "▁يحدث": 5712,
      "▁ربيع": 5713,
      "▁أشار": 5714,
      "▁سألت": 5715,
      "▁بِالنَّ": 5716,
      "▁إنها": 5717,
      "َاؤ": 5718,
      "هاجر": 5719,
      "▁يَدْخ": 5720,
      "▁أثبت": 5721,
      "▁يعود": 5722,
      "▁ضي": 5723,
      "▁يوجد": 5724,
      "طين": 5725,
      "▁لد": 5726,
      "▁وتن": 5727,
      "▁جاءت": 5728,
      "َابَةِ": 5729,
      "▁مُل": 5730,
      "▁إيا": 5731,
      "▁يملك": 5732,
      "▁فأخذ": 5733,
      "▁أجمع": 5734,
      "َقُ": 5735,
      "َنَّهُ": 5736,
      "▁الرسل": 5737,
      "▁مَعْنَى": 5738,
      "▁محمَّد": 5739,
      "▁الرب": 5740,
      "َتْح": 5741,
      "ْرٍ،": 5742,
      "▁نوح": 5743,
      "▁أكبر": 5744,
      "▁١٠/": 5745,
      "روع": 5746,
      "▁يسم": 5747,
      "▁بنى": 5748,
      "▁أخبرني": 5749,
      "▁سُ": 5750,
      "َئِكَ": 5751,
      "▁شهاب": 5752,
      "▁الْإِنْ": 5753,
      "▁يحتاج": 5754,
      "▁المثل": 5755,
      "▁{وَأ": 5756,
      "▁الشَّمْس": 5757,
      "▁وعشرين": 5758,
      "َها": 5759,
      "▁جريج": 5760,
      "▁أُول": 5761,
      "ادس": 5762,
      "▁مسجد": 5763,
      "▁نب": 5764,
      "▁آله": 5765,
      "ئب": 5766,
      "ركب": 5767,
      "▁والا": 5768,
      "▁أَبِيهِ،": 5769,
      "▁إد": 5770,
      "▁لِو": 5771,
      "▁الترجمة": 5772,
      "٤٧": 5773,
      "▁للق": 5774,
      "▁رضى": 5775,
      "رادة": 5776,
      "▁ذر": 5777,
      "▁بحيث": 5778,
      "غت": 5779,
      "▁يَخْرُج": 5780,
      "٤٩": 5781,
      "▁الأصول": 5782,
      "▁[٦": 5783,
      "▁الصَّلَاةِ": 5784,
      "▁\"ق": 5785,
      "▁الوضوء": 5786,
      "َثْبُ": 5787,
      "َمْز": 5788,
      "▁تعد": 5789,
      "▁طلق": 5790,
      "▁بِالش": 5791,
      "▁أَحْمد": 5792,
      "▁وإما": 5793,
      "▁«إن": 5794,
      "▁وآخر": 5795,
      "ريجه": 5796,
      "▁الخمس": 5797,
      "َيْرِ": 5798,
      "▁السؤال": 5799,
      "▁صدوق": 5800,
      "▁فَان": 5801,
      "▁للر": 5802,
      "َكَذَا": 5803,
      "ال.": 5804,
      "ْبُد": 5805,
      "َيِّن": 5806,
      "▁مَض": 5807,
      "ِيَّةُ:": 5808,
      "يره": 5809,
      "▁الأرب": 5810,
      "ولها": 5811,
      "▁الألباني": 5812,
      "وقوف": 5813,
      "▁أسر": 5814,
      "▁التَّح": 5815,
      "▁عَيْن": 5816,
      "َاةُ": 5817,
      "▁لأنّ": 5818,
      "َزْو": 5819,
      "َارَةِ": 5820,
      "ْتِد": 5821,
      "▁لِس": 5822,
      "▁فَلَوْ": 5823,
      "▁مختصر": 5824,
      "▁وعز": 5825,
      "▁جمي": 5826,
      "▁نقص": 5827,
      "▁الوق": 5828,
      "▁الصَّو": 5829,
      "ارق": 5830,
      "َرُّف": 5831,
      "▁وحديث": 5832,
      "ِهَذَا": 5833,
      "ْتُم": 5834,
      "▁النَّبِي": 5835,
      "اؤ": 5836,
      "▁الأر": 5837,
      "▁الْمُسْلِمِينَ": 5838,
      "زمه": 5839,
      "▁لِلْح": 5840,
      "َامٌ": 5841,
      "▁فَمَنْ": 5842,
      "ِغ": 5843,
      "▁مفت": 5844,
      "َمُّ": 5845,
      "▁أقوال": 5846,
      "▁تُو": 5847,
      "سيط": 5848,
      "▁علق": 5849,
      "فاعل": 5850,
      "ْتَص": 5851,
      "▁طلحة": 5852,
      "بي،": 5853,
      "▁العج": 5854,
      "كد": 5855,
      "▁كَر": 5856,
      "وي،": 5857,
      "▁معت": 5858,
      "▁مِنْكُمْ": 5859,
      "▁أعلام": 5860,
      "ِهِ:": 5861,
      "▁رأسه": 5862,
      "▁الدليل": 5863,
      "َايَةِ": 5864,
      "▁الأعلى": 5865,
      "▁أقر": 5866,
      "▁أَذ": 5867,
      "▁إثبات": 5868,
      "▁أَنْفُس": 5869,
      "▁نه": 5870,
      "▁والجملة": 5871,
      "اقب": 5872,
      "▁لِب": 5873,
      "▁الحقيقة": 5874,
      "▁تمام": 5875,
      "ِ)": 5876,
      "َاةَ": 5877,
      "كرة": 5878,
      "حيى": 5879,
      "▁غيره،": 5880,
      "عدم": 5881,
      "▁وَذَهَبَ": 5882,
      "فَع": 5883,
      "ادة،": 5884,
      "▁(وال": 5885,
      "▁عَنْهُمْ": 5886,
      "ثني": 5887,
      "▁الجرح": 5888,
      "ظلم": 5889,
      "▁المائ": 5890,
      "ْتِهَا": 5891,
      "▁محمد،": 5892,
      "ِصَاص": 5893,
      "▁للس": 5894,
      "َلَّا": 5895,
      "هما.": 5896,
      "ْ،": 5897,
      "▁خَرَجَ": 5898,
      "▁القائل": 5899,
      "▁يديه": 5900,
      "▁ربيعة": 5901,
      "▁يتع": 5902,
      "َبٍ": 5903,
      "▁وحم": 5904,
      "▁ساب": 5905,
      "ازي": 5906,
      "▁جر": 5907,
      "▁سماع": 5908,
      "▁يحب": 5909,
      "▁وَرَسُول": 5910,
      "▁لَو": 5911,
      "▁النَّاسَ": 5912,
      "▁الطَّر": 5913,
      "▁يَرْج": 5914,
      "ْنَاد": 5915,
      "▁الْحَارِث": 5916,
      "▁التج": 5917,
      "▁وروي": 5918,
      "▁\"س": 5919,
      "▁عدة": 5920,
      "▁٥٢": 5921,
      "▁يحمل": 5922,
      "▁عَلِيُّ": 5923,
      "▁(ب)": 5924,
      "َسْت": 5925,
      "▁قضاء": 5926,
      "تمد": 5927,
      "ِيه": 5928,
      "َلُوا": 5929,
      "▁يُوج": 5930,
      "او": 5931,
      "▁حُكْم": 5932,
      "▁الدسوقي": 5933,
      "▁صحة": 5934,
      "▁مدة": 5935,
      "▁عَمْرِو": 5936,
      "نِي": 5937,
      "▁وقف": 5938,
      "▁المحيط": 5939,
      "ْوَ": 5940,
      "▁ثَابِت": 5941,
      "▁صِح": 5942,
      "▁نِس": 5943,
      "▁أَبو": 5944,
      "▁الدَّي": 5945,
      "زه": 5946,
      "ائن": 5947,
      "اجد": 5948,
      "َدَمِ": 5949,
      "▁وثمان": 5950,
      "▁وكشاف": 5951,
      "▁إذْ": 5952,
      "▁يُوسُفَ": 5953,
      "▁ربك": 5954,
      "وه،": 5955,
      "▁الحديث:": 5956,
      "▁مَنْص": 5957,
      "▁أَحَدٌ": 5958,
      "أخذ": 5959,
      "لمي": 5960,
      "▁جُن": 5961,
      "ُهُ.": 5962,
      "▁لَب": 5963,
      "▁عِنْدَهُ": 5964,
      "عة:": 5965,
      "▁لِلْع": 5966,
      "عية": 5967,
      "▁أقل": 5968,
      "▁النب": 5969,
      "▁قرب": 5970,
      "فْظ": 5971,
      "▁التش": 5972,
      "▁أصول": 5973,
      "ْلِي": 5974,
      "▁فِر": 5975,
      "▁وشر": 5976,
      "▁الرحيم": 5977,
      "▁ضعف": 5978,
      "ساء": 5979,
      "▁وَلأَِنَّ": 5980,
      "▁الدر": 5981,
      "▁وَما": 5982,
      "ْلَةِ": 5983,
      "َضَ": 5984,
      "▁ومغني": 5985,
      "َدِيد": 5986,
      "َاعُ": 5987,
      "▁وهل": 5988,
      "▁نهاية": 5989,
      "▁بدون": 5990,
      "ِشْر": 5991,
      "ديه": 5992,
      "▁قبلها": 5993,
      "▁مؤمن": 5994,
      "َحِ": 5995,
      "▁الأعمال": 5996,
      "▁٥١": 5997,
      "اعد": 5998,
      "ندي": 5999,
      "▁أحوال": 6000,
      "▁تُع": 6001,
      "▁مائ": 6002,
      "كيد": 6003,
      "▁عَج": 6004,
      "َكْث": 6005,
      "َّأ": 6006,
      "▁عِيسَى": 6007,
      "َاتِهِ": 6008,
      "▁بالد": 6009,
      "عة.": 6010,
      "▁الْمَسْأَل": 6011,
      "▁صَلا": 6012,
      "▁النون": 6013,
      "ُورُ": 6014,
      "▁\"صحيح": 6015,
      "▁المطلب": 6016,
      "▁الدعاء": 6017,
      "▁الات": 6018,
      "تهد": 6019,
      "ِينُ": 6020,
      "▁جُب": 6021,
      "▁كي": 6022,
      "قيت": 6023,
      "▁بِالْك": 6024,
      "الِح": 6025,
      "▁وتق": 6026,
      "▁بِخِلَافِ": 6027,
      "▁المسي": 6028,
      "▁١٩٨": 6029,
      "أة": 6030,
      "▁سل": 6031,
      "▁بنو": 6032,
      "ِبْر": 6033,
      "▁زمن": 6034,
      "▁عال": 6035,
      "▁وَمن": 6036,
      "▁موجود": 6037,
      "▁وأنت": 6038,
      "نتين": 6039,
      "َدِهِ": 6040,
      "ذات": 6041,
      "▁وغيرهم": 6042,
      "ناك": 6043,
      "ِقِ": 6044,
      "▁فصار": 6045,
      "َوْض": 6046,
      "▁الثلاثة": 6047,
      "▁«ت": 6048,
      "▁حضر": 6049,
      "ًا؛": 6050,
      "راجع": 6051,
      "▁منها،": 6052,
      "▁أمة": 6053,
      "▁أَنْتَ": 6054,
      "▁يتعلق": 6055,
      "▁يبلغ": 6056,
      "▁الْمُؤْمِنِينَ": 6057,
      "▁إلخ": 6058,
      "حسن": 6059,
      "▁الْأَش": 6060,
      "▁ساقط": 6061,
      "▁لَق": 6062,
      "▁مدينة": 6063,
      "خلص": 6064,
      "▁ذاك": 6065,
      "▁الفجر": 6066,
      "▁اللب": 6067,
      "▁صاد": 6068,
      "َّذِي": 6069,
      "▁كأ": 6070,
      "▁هَل": 6071,
      "▁البا": 6072,
      "▁بوا": 6073,
      "▁أنواع": 6074,
      "خيص": 6075,
      "▁المب": 6076,
      "ِنِ": 6077,
      "▁وَلَكِنْ": 6078,
      "▁والأن": 6079,
      "وضوع": 6080,
      "▁أسد": 6081,
      "▁الخال": 6082,
      "أخر": 6083,
      "▁رَكْع": 6084,
      "ِائ": 6085,
      "▁٦٦": 6086,
      "▁إج": 6087,
      "▁وزاد": 6088,
      "▁(إن": 6089,
      "هَاد": 6090,
      "▁إنسان": 6091,
      "أله": 6092,
      "ِرُونَ": 6093,
      "▁لهما": 6094,
      "▁حيات": 6095,
      "▁فاط": 6096,
      "▁وجهه": 6097,
      "▁٦٧": 6098,
      "▁وَعِنْد": 6099,
      "▁أخي": 6100,
      "▁تبع": 6101,
      "انَ": 6102,
      "▁صور": 6103,
      "ْوِي": 6104,
      "▁«ك": 6105,
      "▁لِر": 6106,
      "▁أنّه": 6107,
      "▁هَؤ": 6108,
      "▁٦٨": 6109,
      "اتل": 6110,
      "▁الْمَك": 6111,
      "▁وكسر": 6112,
      "▁بِقَوْلِهِ": 6113,
      "▁الجمهور": 6114,
      "▁عليها،": 6115,
      "▁رَجُلٍ": 6116,
      "٥٠": 6117,
      "امِ": 6118,
      "▁ماله": 6119,
      "▁نَه": 6120,
      "َغْف": 6121,
      "▁وأهل": 6122,
      "▁والض": 6123,
      "▁(ش": 6124,
      "▁دم": 6125,
      "▁القرآن،": 6126,
      "▁بالي": 6127,
      "َّةِ،": 6128,
      "▁ادع": 6129,
      "خصيص": 6130,
      "▁الهند": 6131,
      "ِلَى": 6132,
      "▁والبا": 6133,
      "▁آثار": 6134,
      "▁شيب": 6135,
      "▁إيمان": 6136,
      "▁فرعون": 6137,
      "جيل": 6138,
      "▁مني": 6139,
      "▁حاجة": 6140,
      "▁رَمَض": 6141,
      "▁قَوْلِ": 6142,
      "ثلة": 6143,
      "▁وفر": 6144,
      "▁الدِّينِ": 6145,
      "▁حَمَّاد": 6146,
      "▁الزم": 6147,
      "▁سَيِّ": 6148,
      "ن.": 6149,
      "علام": 6150,
      "▁الفاعل": 6151,
      "▁الْوَك": 6152,
      "زير": 6153,
      "َعَلَ": 6154,
      "▁الجهاد": 6155,
      "▁يُش": 6156,
      "َرَةِ": 6157,
      "▁غالب": 6158,
      "▁يُمْك": 6159,
      "▁قبض": 6160,
      "▁المقر": 6161,
      "َامٍ": 6162,
      "٩٧": 6163,
      "ِيرٍ": 6164,
      "روب": 6165,
      "▁الْجُمُع": 6166,
      "▁تُح": 6167,
      "▁بيد": 6168,
      "▁شاهد": 6169,
      "حمة": 6170,
      "▁عض": 6171,
      "▁أمور": 6172,
      "▁{وَمَا": 6173,
      "▁يقولون": 6174,
      "مامة": 6175,
      "▁سُبْحَانَ": 6176,
      "▁عِلْم": 6177,
      "روح": 6178,
      "▁السيوطي": 6179,
      "▁يجمع": 6180,
      "▁الكري": 6181,
      "ضاع": 6182,
      "كه": 6183,
      "▁للص": 6184,
      "َعُوا": 6185,
      "ُرَ": 6186,
      "صابة": 6187,
      "▁قُد": 6188,
      "َلْتُ": 6189,
      "▁عساكر": 6190,
      "▁الواجب": 6191,
      "٤٤": 6192,
      "▁وصححه": 6193,
      "▁يُصَلِّي": 6194,
      "٣٢": 6195,
      "٣/": 6196,
      "▁التّ": 6197,
      "▁بِالْأ": 6198,
      "غم": 6199,
      "▁قَالَهُ": 6200,
      "ِيبُ": 6201,
      "▁بهما": 6202,
      "ْهُور": 6203,
      "َبِّ": 6204,
      "▁لخ": 6205,
      "ِيط": 6206,
      "▁النَّج": 6207,
      "▁الإِس": 6208,
      "▁الحب": 6209,
      "▁«ل": 6210,
      "▁السر": 6211,
      "▁السُّن": 6212,
      "َائِرِ": 6213,
      "▁ينزل": 6214,
      "▁الأسماء": 6215,
      "َاقِي": 6216,
      "▁إذن": 6217,
      "▁السابقة": 6218,
      "▁ونا": 6219,
      "▁لَفْظ": 6220,
      "▁يَأْتِي": 6221,
      "▁كَفَرُوا": 6222,
      "ُنَّ": 6223,
      "راء:": 6224,
      "▁التس": 6225,
      "▁أخبار": 6226,
      "براهيم": 6227,
      "وغ": 6228,
      "▁جانب": 6229,
      "▁التَّص": 6230,
      "َيُّ": 6231,
      "▁الهيثمي": 6232,
      "▁فش": 6233,
      "▁لِلْمُ": 6234,
      "▁دل": 6235,
      "▁الأج": 6236,
      "َحُ": 6237,
      "▁الْمُف": 6238,
      "▁واحد،": 6239,
      "▁زَم": 6240,
      "▁أصحابه": 6241,
      "▁زكري": 6242,
      "▁{ك": 6243,
      "▁وأرب": 6244,
      "▁الخامس": 6245,
      "عبة": 6246,
      "زيادة": 6247,
      "ومه": 6248,
      "▁الحجاج": 6249,
      "▁وَالثَّانِي": 6250,
      "▁قِي": 6251,
      "َائِهِ": 6252,
      "▁البلا": 6253,
      "▁قُلْنَا": 6254,
      "َارًا": 6255,
      "▁بِأَنَّهُ": 6256,
      "▁الحس": 6257,
      "ابِع": 6258,
      "▁تقول:": 6259,
      "▁مالك،": 6260,
      "َرِ،": 6261,
      "▁وجمع": 6262,
      "▁تذكر": 6263,
      "▁صَدَق": 6264,
      "نوب": 6265,
      "ثِ": 6266,
      "▁فَيَقُول": 6267,
      "▁عباس:": 6268,
      "▁حَف": 6269,
      "٣١": 6270,
      "▁ط.": 6271,
      "▁إِسْحَاقَ": 6272,
      "▁يُط": 6273,
      "▁«ي": 6274,
      "▁أولا": 6275,
      "▁معاني": 6276,
      "▁الْهِ": 6277,
      "ضية": 6278,
      "▁نَا": 6279,
      "َالٍ": 6280,
      "▁اليد": 6281,
      "هارة": 6282,
      "▁A": 6283,
      "▁ويحتمل": 6284,
      "▁موضوع": 6285,
      "صلح": 6286,
      "▁أَوْل": 6287,
      "▁الزيادة": 6288,
      "▁جميعا": 6289,
      "▁سُلَيْمَانَ": 6290,
      "َهُود": 6291,
      "▁الطَّب": 6292,
      "▁بمنزلة": 6293,
      "▁مَذْه": 6294,
      "ْتَس": 6295,
      "▁ظن": 6296,
      "▁خوف": 6297,
      "▁ثَلاَث": 6298,
      "نا.": 6299,
      "▁وَقَعَ": 6300,
      "▁أَنَّهُمْ": 6301,
      "َرْضَ": 6302,
      "▁وأخبر": 6303,
      "▁رَبِّهِ": 6304,
      "▁كُنَّا": 6305,
      "▁بأمر": 6306,
      "▁فالأ": 6307,
      "▁فقيل": 6308,
      "▁فط": 6309,
      "نث": 6310,
      "امن": 6311,
      "▁متى": 6312,
      "▁أُح": 6313,
      "َقُّ": 6314,
      "▁الرَّس": 6315,
      "كمال": 6316,
      "▁بعيد": 6317,
      "▁طويل": 6318,
      "▁مز": 6319,
      "▁لأجل": 6320,
      "▁ونحن": 6321,
      "▁يمين": 6322,
      "َائِز": 6323,
      "▁الأشياء": 6324,
      "يغة": 6325,
      "▁حام": 6326,
      "َتِهَا": 6327,
      "َّعَى": 6328,
      "▁عمر:": 6329,
      "▁وَسَلَّم": 6330,
      "▁ويؤ": 6331,
      "▁وأب": 6332,
      "▁التَّف": 6333,
      "▁وعدم": 6334,
      "▁يكتب": 6335,
      "▁حصل": 6336,
      "▁(قال": 6337,
      "▁الربيع": 6338,
      "▁لأَ": 6339,
      "▁أور": 6340,
      "صال": 6341,
      "▁سُور": 6342,
      "▁المبارك": 6343,
      "▁نَافِع": 6344,
      "▁\"شرح": 6345,
      "حكم": 6346,
      "َحْر": 6347,
      "▁المأم": 6348,
      "٩٦": 6349,
      "▁اخْتَلَفَ": 6350,
      "▁إِنَّا": 6351,
      "▁عُمَر": 6352,
      "ام،": 6353,
      "▁كَيْفَ": 6354,
      "▁ظلم": 6355,
      "خار": 6356,
      "▁مُو": 6357,
      "زاء": 6358,
      "▁هما": 6359,
      "▁«٤": 6360,
      "▁النَّارِ": 6361,
      "▁الجليل": 6362,
      "وا.": 6363,
      "لي:": 6364,
      "▁أظهر": 6365,
      "▁وخرج": 6366,
      "▁وَيَج": 6367,
      "س.": 6368,
      "ِلَةِ": 6369,
      "▁دخلت": 6370,
      "▁صل": 6371,
      "▁الإسلام،": 6372,
      "▁التَّق": 6373,
      "▁يتح": 6374,
      "فيه": 6375,
      "طه": 6376,
      "▁آب": 6377,
      "َتْحِ": 6378,
      "ِرِينَ": 6379,
      "▁والمثبت": 6380,
      "▁موت": 6381,
      "وسي": 6382,
      "▁الضَّر": 6383,
      "▁قوة": 6384,
      "تفع": 6385,
      "ظهار": 6386,
      "▁والطبراني": 6387,
      "▁الفاء": 6388,
      "خفيف": 6389,
      "ل.": 6390,
      "َتِهِ،": 6391,
      "▁فَاسْت": 6392,
      "ة\"": 6393,
      "سكر": 6394,
      "▁واعت": 6395,
      "▁الليث": 6396,
      "▁كالم": 6397,
      "▁سِن": 6398,
      "٥٦": 6399,
      "▁شعيب": 6400,
      "ُّع": 6401,
      "▁بيده": 6402,
      "▁أَط": 6403,
      "نائع": 6404,
      "َلَب": 6405,
      "▁وقوع": 6406,
      "خشري": 6407,
      "▁الْمَذْه": 6408,
      "َسَ": 6409,
      "▁عائش": 6410,
      "ِبُّ": 6411,
      "▁عا": 6412,
      "▁الرَّز": 6413,
      "▁شخص": 6414,
      "▁وبر": 6415,
      "▁جَز": 6416,
      "▁عليهما": 6417,
      "▁الثق": 6418,
      "▁يسأل": 6419,
      "ْلَمَ": 6420,
      "َانٌ": 6421,
      "▁طبع": 6422,
      "▁إنَّمَا": 6423,
      "هم:": 6424,
      "صره": 6425,
      "▁رسوله": 6426,
      "▁تكلم": 6427,
      "▁السيد": 6428,
      "▁المقت": 6429,
      "▁أقرب": 6430,
      "▁يوجب": 6431,
      "▁جَازَ": 6432,
      "▁ذُك": 6433,
      "عيان": 6434,
      "▁الْقُرْآنِ": 6435,
      "▁\".": 6436,
      "▁[٩]": 6437,
      "َةَ:": 6438,
      "▁نجد": 6439,
      "▁حينئذ": 6440,
      "▁مكر": 6441,
      "َانًا": 6442,
      "َحِق": 6443,
      "بيّ": 6444,
      "فراد": 6445,
      "▁صِف": 6446,
      "▁الْكِتَابِ": 6447,
      "▁عَلَي": 6448,
      "▁الإِْم": 6449,
      "▁الْمُؤ": 6450,
      "▁بهَا": 6451,
      "▁لَكِنْ": 6452,
      "▁الكاف": 6453,
      "▁اللَّهُمَّ": 6454,
      "▁مُف": 6455,
      "▁ذِي": 6456,
      "▁يَأْخُذ": 6457,
      "فال": 6458,
      "▁;": 6459,
      "▁إِذ": 6460,
      "▁سَبِيلِ": 6461,
      "مسك": 6462,
      "ْلِهِ": 6463,
      "▁قيام": 6464,
      "▁حَاج": 6465,
      "▁فأع": 6466,
      "َلَّق": 6467,
      "▁الحجة": 6468,
      "▁بآ": 6469,
      "▁يَفْع": 6470,
      "ْعَةِ": 6471,
      "روج": 6472,
      "▁فعله": 6473,
      "ضرة": 6474,
      "▁بلد": 6475,
      "▁بَأْس": 6476,
      "▁وَان": 6477,
      "▁السُّل": 6478,
      "▁الْكُف": 6479,
      "▁الأئمة": 6480,
      "▁وَالأَ": 6481,
      "▁يُقَالُ": 6482,
      "▁يُغ": 6483,
      "▁قُلُوب": 6484,
      "َلْنَا": 6485,
      "طبقات": 6486,
      "▁تخريجه": 6487,
      "عي،": 6488,
      "▁بز": 6489,
      "▁بري": 6490,
      "▁يأمر": 6491,
      "▁أيدي": 6492,
      "▁بِهِ.": 6493,
      "▁فَقَط": 6494,
      "▁أَخْبَرَنِي": 6495,
      "تهما": 6496,
      "كُ": 6497,
      "▁سَه": 6498,
      "▁واله": 6499,
      "▁للد": 6500,
      "▁منكر": 6501,
      "قاق": 6502,
      "▁سليم": 6503,
      "▁النع": 6504,
      "فاظ": 6505,
      "لائل": 6506,
      "▁الْمَالِكِيَّةُ": 6507,
      "▁الواق": 6508,
      "ْيُ": 6509,
      "▁وَلِل": 6510,
      "▁صَحَّ": 6511,
      "▁الدِّي": 6512,
      "▁الوهاب": 6513,
      "▁حسين": 6514,
      "▁ذَكَرَهُ": 6515,
      "▁مُط": 6516,
      "َدَّم": 6517,
      "ْرَم": 6518,
      "▁ومات": 6519,
      "▁الصاد": 6520,
      "▁التوحيد": 6521,
      "▁الطيب": 6522,
      "ِّرْمِ": 6523,
      "سائ": 6524,
      "▁الشَّيْط": 6525,
      "▁وقر": 6526,
      "▁اجتمع": 6527,
      "▁مشر": 6528,
      "▁(لا": 6529,
      "راهم": 6530,
      "▁شيئًا": 6531,
      "▁كلامه": 6532,
      "▁قولهم": 6533,
      "▁أَيُّوب": 6534,
      "▁مجاز": 6535,
      "▁كَم": 6536,
      "▁ذَا": 6537,
      "يّ،": 6538,
      "▁المرو": 6539,
      "▁الراء": 6540,
      "ُوهُمْ": 6541,
      "▁بَر": 6542,
      "▁أحمد:": 6543,
      "َيْتَ": 6544,
      "▁آمنوا": 6545,
      "َرْو": 6546,
      "▁تعالى.": 6547,
      "َين": 6548,
      "▁ش:": 6549,
      "▁خَيْرٌ": 6550,
      "▁كُنْتُمْ": 6551,
      "اهم": 6552,
      "▁(م)": 6553,
      "َقْب": 6554,
      "َة:": 6555,
      "َارِج": 6556,
      "▁شَهَاد": 6557,
      "▁أبواب": 6558,
      "ها\"": 6559,
      "َمُهُ": 6560,
      "ية\"": 6561,
      "▁كر": 6562,
      "▁دِر": 6563,
      "▁السفر": 6564,
      "▁كَق": 6565,
      "▁التيم": 6566,
      "▁عبيدة": 6567,
      "▁الفار": 6568,
      "▁أهله": 6569,
      "▁عروة": 6570,
      "▁يأكل": 6571,
      "▁علا": 6572,
      "▁ذلك:": 6573,
      "شْتَرَطُ": 6574,
      "▁بالط": 6575,
      "▁الخاص": 6576,
      "▁فقالوا:": 6577,
      "▁قومه": 6578,
      "▁الثالث:": 6579,
      "َائِك": 6580,
      "▁الدني": 6581,
      "٩٩": 6582,
      "--------": 6583,
      "▁حَص": 6584,
      "▁الروح": 6585,
      "يال": 6586,
      "▁مُتَّ": 6587,
      "▁(٢٠": 6588,
      "٥٧": 6589,
      "ِيرًا": 6590,
      "▁بِط": 6591,
      "مَانُ": 6592,
      "▁القلوب": 6593,
      "▁ترد": 6594,
      "▁عاق": 6595,
      "▁الشَّافِعِيَّةُ": 6596,
      "ِّرْمِذ": 6597,
      "▁صَف": 6598,
      "▁حالة": 6599,
      "جرور": 6600,
      "▁وعل": 6601,
      "اكن": 6602,
      "▁اض": 6603,
      "َعَتْ": 6604,
      "▁لِلن": 6605,
      "▁مهم": 6606,
      "َانِيُّ": 6607,
      "ُلَاءِ": 6608,
      "▁الأثر": 6609,
      "صر،": 6610,
      "خلف": 6611,
      "▁م.": 6612,
      "▁كقول": 6613,
      "▁بابن": 6614,
      "▁وَمُح": 6615,
      "▁ميم": 6616,
      "▁الرؤ": 6617,
      "٥٨": 6618,
      "▁الْمَسْجِدِ": 6619,
      "ئِذٍ": 6620,
      "▁[٧": 6621,
      "قاب": 6622,
      "▁بالنسبة": 6623,
      "▁الحرم": 6624,
      "▁معد": 6625,
      "▁قَوْلِهِ:": 6626,
      "▁أمام": 6627,
      "▁ويل": 6628,
      "▁رَضِي": 6629,
      "حُ": 6630,
      "ته:": 6631,
      "وطأ": 6632,
      "▁حُج": 6633,
      "▁وهى": 6634,
      "▁كشف": 6635,
      "▁شاه": 6636,
      "َعْص": 6637,
      "▁وتأ": 6638,
      "▁يومئذ": 6639,
      "▁ولعل": 6640,
      "▁حزم": 6641,
      "▁الساعة": 6642,
      "▁(في": 6643,
      "الفة": 6644,
      "▁ويس": 6645,
      "▁سيف": 6646,
      "▁الْوَاحِد": 6647,
      "▁دائ": 6648,
      "١-": 6649,
      "▁أذ": 6650,
      "▁وبد": 6651,
      "ديدة": 6652,
      "صاب": 6653,
      "▁فغ": 6654,
      "َرَّد": 6655,
      "▁بِالص": 6656,
      "▁المختار": 6657,
      "▁وَاجِب": 6658,
      "▁شمس": 6659,
      "▁وحسن": 6660,
      "▁بِالر": 6661,
      "▁يُض": 6662,
      "▁طعام": 6663,
      "▁\"الت": 6664,
      "▁لكنه": 6665,
      "▁أجد": 6666,
      "▁عَاص": 6667,
      "فسد": 6668,
      "▁الْقَض": 6669,
      "▁حَقِّ": 6670,
      "▁طَع": 6671,
      "▁وأق": 6672,
      "▁يَنْب": 6673,
      "▁إلاَّ": 6674,
      "▁بَابُ": 6675,
      "▁زين": 6676,
      "▁المسلمون": 6677,
      "▁قدامة": 6678,
      "ناها": 6679,
      "ُونَ،": 6680,
      "فك": 6681,
      "▁خارج": 6682,
      "اني.": 6683,
      "عة،": 6684,
      "▁مِمَّنْ": 6685,
      "ذار": 6686,
      "▁نهى": 6687,
      "َافُ": 6688,
      "▁الصنائع": 6689,
      "▁أحدكم": 6690,
      "٩٨": 6691,
      "▁الإله": 6692,
      "▁إلَخْ)": 6693,
      "حى": 6694,
      "▁مِائ": 6695,
      "روس": 6696,
      "▁سوا": 6697,
      "▁نشر": 6698,
      "▁المعجم": 6699,
      "▁بان": 6700,
      "طاب": 6701,
      "▁الطَّل": 6702,
      "وهو": 6703,
      "▁مَعْم": 6704,
      "▁خِلا": 6705,
      "▁العلمية": 6706,
      "▁أَوْلَى": 6707,
      "▁مِنْهُ،": 6708,
      "ْرَك": 6709,
      "▁[الم": 6710,
      "عير": 6711,
      "▁يَط": 6712,
      "▁مُض": 6713,
      "عادة": 6714,
      "▁مريم": 6715,
      "▁إنا": 6716,
      "صرة": 6717,
      "▁نَذ": 6718,
      "▁دَخَلَ": 6719,
      "اهما": 6720,
      "▁المصري": 6721,
      "ْلٍ": 6722,
      "ْهُر": 6723,
      "▁العلاء": 6724,
      "يين": 6725,
      "ِّنَ": 6726,
      "▁ضمن": 6727,
      "▁ينفع": 6728,
      "▁مسلم،": 6729,
      "مي،": 6730,
      "ّة،": 6731,
      "▁الوار": 6732,
      "▁أست": 6733,
      "▁الإسلامية": 6734,
      "er": 6735,
      "▁خاصة": 6736,
      "َوَاب": 6737,
      "ايا": 6738,
      "▁الْأَخ": 6739,
      "▁أحمد،": 6740,
      "▁مِثْلَ": 6741,
      "ُودَ": 6742,
      "▁بِض": 6743,
      "▁الأسود": 6744,
      "▁إِبْرَاهِيمُ": 6745,
      "َبْد": 6746,
      "▁بَيْع": 6747,
      "ختلاف": 6748,
      "▁النَّص": 6749,
      "▁الأند": 6750,
      "▁ألم": 6751,
      "▁بَكْرِ": 6752,
      "▁الْعَال": 6753,
      "▁\"مع": 6754,
      "▁الرِّج": 6755,
      "جلد": 6756,
      "ًّا،": 6757,
      "رسل": 6758,
      "ِّئ": 6759,
      "▁سَر": 6760,
      "رأيت": 6761,
      "▁نفسه،": 6762,
      "لِكَ": 6763,
      "▁الإي": 6764,
      "ْتَج": 6765,
      "▁الْعِلْمِ": 6766,
      "▁ورأ": 6767,
      "▁محلّ": 6768,
      "▁رحمة": 6769,
      "▁نت": 6770,
      "٩٠": 6771,
      "▁البلاد": 6772,
      "▁عَمَّا": 6773,
      "▁معمر": 6774,
      "▁عَلَيْكَ": 6775,
      "▁الرَّجُلُ": 6776,
      "▁السَّلَامُ": 6777,
      "وَز": 6778,
      "▁انْتَهَى": 6779,
      "▁الاب": 6780,
      "تِهِ": 6781,
      "▁فِعْل": 6782,
      "▁والدار": 6783,
      "▁الأخرى": 6784,
      "را،": 6785,
      "ثور": 6786,
      "▁عَف": 6787,
      "▁مُخْت": 6788,
      "ْمَعُ": 6789,
      "▁التورا": 6790,
      "▁صَب": 6791,
      "▁صلة": 6792,
      "▁[الأ": 6793,
      "▁النور": 6794,
      "تهي": 6795,
      "▁ابت": 6796,
      "▁كمال": 6797,
      "▁عقب": 6798,
      "َاعِد": 6799,
      "▁فأخبر": 6800,
      "▁بطن": 6801,
      "▁٧٠": 6802,
      "▁او": 6803,
      "▁[٣]،": 6804,
      "▁الْمُشْتَرِي": 6805,
      "▁أصله": 6806,
      "▁الْخَطَّاب": 6807,
      "▁رجلاً": 6808,
      "▁أُخْرَى": 6809,
      "▁يَتَو": 6810,
      "▁الحجر": 6811,
      "▁كثر": 6812,
      "▁أني": 6813,
      "▁الْبُخَار": 6814,
      "حاوي": 6815,
      "▁تدل": 6816,
      "َمَّى": 6817,
      "ِعْ": 6818,
      "▁را": 6819,
      "ِيّ،": 6820,
      "▁عكرمة": 6821,
      "ِسْم": 6822,
      "▁أَفْض": 6823,
      "▁[الأن": 6824,
      "▁الظهر": 6825,
      "▁صحيح،": 6826,
      "▁دلالة": 6827,
      "▁شئت": 6828,
      "▁[٥].": 6829,
      "▁وَلم": 6830,
      "▁\"ن": 6831,
      "َاتَ": 6832,
      "▁عُرْو": 6833,
      "َهْ": 6834,
      "ةِ،": 6835,
      "▁الجه": 6836,
      "▁سَعِيدِ": 6837,
      "▁قيم": 6838,
      "▁السماوات": 6839,
      "▁أَحْس": 6840,
      "كُم": 6841,
      "▁يطلب": 6842,
      "ُوذ": 6843,
      "▁هَذِه": 6844,
      "؟\"": 6845,
      "▁خزيمة": 6846,
      "▁العلوم": 6847,
      "▁از": 6848,
      "▁ثلث": 6849,
      "▁الصَّب": 6850,
      "▁أَكْثَرَ": 6851,
      "▁القياس": 6852,
      "ْكُل": 6853,
      "ِيَار": 6854,
      "▁الدَّر": 6855,
      "▁الْحَاك": 6856,
      "▁وغيرهم.": 6857,
      "▁إليه.": 6858,
      "َلَّمَ": 6859,
      "ت.": 6860,
      "▁المصر": 6861,
      "▁للناس": 6862,
      "▁وسلم.": 6863,
      "شرة": 6864,
      "صى": 6865,
      "▁بالفتح": 6866,
      "مة،": 6867,
      "▁منذ": 6868,
      "ِرُوا": 6869,
      "▁يلت": 6870,
      "▁الكلمة": 6871,
      "فصيل": 6872,
      "▁تحريم": 6873,
      "ْسِ": 6874,
      "▁وأش": 6875,
      "كمل": 6876,
      "▁والصواب": 6877,
      "▁\"ه": 6878,
      "ْتُل": 6879,
      "▁الْحَنَفِيَّةِ": 6880,
      "▁أنك": 6881,
      "▁بِهِمْ": 6882,
      "▁١٤٠": 6883,
      "▁غلب": 6884,
      "▁الجمل": 6885,
      "▁وَابْن": 6886,
      "يساب": 6887,
      "▁ويق": 6888,
      "ين)": 6889,
      "ُرُونَ": 6890,
      "▁الْمَب": 6891,
      "فاع": 6892,
      "ْلَمُونَ": 6893,
      "▁المكان": 6894,
      "▁النَّا": 6895,
      "▁كسر": 6896,
      "▁وَلَهُ": 6897,
      "٢-": 6898,
      "▁بَش": 6899,
      "▁الحيوان": 6900,
      "▁الرسالة": 6901,
      "قية": 6902,
      "▁أصح": 6903,
      "▁وكتاب": 6904,
      "▁بِلَا": 6905,
      "قطاع": 6906,
      "ط،": 6907,
      "▁التَّك": 6908,
      "▁تَكُونَ": 6909,
      "▁وسلم)": 6910,
      "٤/": 6911,
      "دلال": 6912,
      "نَع": 6913,
      "وّل": 6914,
      "في،": 6915,
      "▁عبارة": 6916,
      "َّلَ": 6917,
      "ُوبَ": 6918,
      "▁ته": 6919,
      "يرا": 6920,
      "▁عَمَل": 6921,
      "▁الثمن": 6922,
      "▁رَجُلًا": 6923,
      "▁فَفِي": 6924,
      "▁لِقَوْلِهِ": 6925,
      "▁السل": 6926,
      "▁وَأَص": 6927,
      "سي،": 6928,
      "▁سيبو": 6929,
      "▁قاضي": 6930,
      "▁عَرَف": 6931,
      "▁وتاريخ": 6932,
      "▁الجم": 6933,
      "▁سَبِيل": 6934,
      "٦٠": 6935,
      "مييز": 6936,
      "غِير": 6937,
      "▁الأو": 6938,
      "خصوص": 6939,
      "٣-": 6940,
      "ُلُث": 6941,
      "▁عبدِ": 6942,
      "▁كَلَام": 6943,
      "ِفِ": 6944,
      "▁بقية": 6945,
      "▁وأكثر": 6946,
      "ِلٌ": 6947,
      "ُّك": 6948,
      "ِمِينَ": 6949,
      "▁النهار": 6950,
      "▁بذكر": 6951,
      "ْعَ": 6952,
      "▁المُ": 6953,
      "ْرِيف": 6954,
      "▁الدين،": 6955,
      "ه؛": 6956,
      "ِلْ": 6957,
      "▁وتوفي": 6958,
      "▁الحنف": 6959,
      "َغْر": 6960,
      "َوْز": 6961,
      "٥٥": 6962,
      "▁يُؤْمِن": 6963,
      "▁رآ": 6964,
      "▁اليمين": 6965,
      "▁شرب": 6966,
      "انيف": 6967,
      "▁فَهِيَ": 6968,
      "اً}": 6969,
      "▁عدا": 6970,
      "▁متفق": 6971,
      "▁بُدَّ": 6972,
      "َقِ": 6973,
      "▁\"إذا": 6974,
      "▁جنا": 6975,
      "َاظ": 6976,
      "ِبٍ": 6977,
      "اتهم": 6978,
      "▁سَق": 6979,
      "▁الجاهلية": 6980,
      "▁الْفَض": 6981,
      "ذة": 6982,
      "▁الخمر": 6983,
      "▁عظ": 6984,
      "▁سَلَمَةَ": 6985,
      "▁وكيف": 6986,
      "▁التأويل": 6987,
      "▁سَف": 6988,
      "ُ)": 6989,
      "ضعفاء": 6990,
      "▁حَل": 6991,
      "▁حَات": 6992,
      "▁الشَّرْط": 6993,
      "▁إح": 6994,
      "▁وعلم": 6995,
      "َافَ": 6996,
      "▁الْمُج": 6997,
      "▁جعله": 6998,
      "▁صفحة": 6999,
      "▁سئل": 7000,
      "▁الرِّوَاي": 7001,
      "▁الضَّ": 7002,
      "▁مروان": 7003,
      "▁المفرد": 7004,
      "▁جِه": 7005,
      "▁الباقي": 7006,
      "▁علمه": 7007,
      "مة.": 7008,
      "▁والتح": 7009,
      "▁إم": 7010,
      "▁(ث": 7011,
      "an": 7012,
      "َنِّف": 7013,
      "لبس": 7014,
      "▁سَي": 7015,
      "▁أَخَذ": 7016,
      "▁جهن": 7017,
      "▁الْحَافِظ": 7018,
      "▁سلف": 7019,
      "▁آن": 7020,
      "جرد": 7021,
      "قوا": 7022,
      "▁البغدادي": 7023,
      "مين": 7024,
      "▁لِص": 7025,
      "▁-ص": 7026,
      "▁الْمُض": 7027,
      "▁وَالز": 7028,
      "▁وَيَت": 7029,
      "▁بو": 7030,
      "َدِّي": 7031,
      "٦٧": 7032,
      "▁قلبه": 7033,
      "ُلا": 7034,
      "▁(صلى": 7035,
      "▁نصيب": 7036,
      "▁١.": 7037,
      "▁الأَْم": 7038,
      "زيل": 7039,
      "تني": 7040,
      "فهم": 7041,
      "▁فَلَيْسَ": 7042,
      "▁«٤»": 7043,
      "ان\"": 7044,
      "▁وكانوا": 7045,
      "كما": 7046,
      "▁التقدير": 7047,
      "▁الفض": 7048,
      "▁محمّد": 7049,
      "هاج": 7050,
      "▁إلاّ": 7051,
      "▁أريد": 7052,
      "▁معهم": 7053,
      "▁ومما": 7054,
      "▁حَدث": 7055,
      "▁الصَّالِح": 7056,
      "▁المفسر": 7057,
      "▁خَلَق": 7058,
      "▁للط": 7059,
      "▁القيم": 7060,
      "▁المهملة": 7061,
      "▁السَّف": 7062,
      "▁النبلاء": 7063,
      "▁أولاد": 7064,
      "▁يَمِين": 7065,
      "▁الكف": 7066,
      "▁عندنا": 7067,
      "▁«من": 7068,
      "ِّرُ": 7069,
      "▁ولفظ": 7070,
      "▁فائدة": 7071,
      "َاغ": 7072,
      "ربية": 7073,
      "َاحُ": 7074,
      "▁تسم": 7075,
      "▁الْعِب": 7076,
      "ُمْهُورُ": 7077,
      "َاقَ": 7078,
      "▁طَرِيق": 7079,
      "َاهِل": 7080,
      "▁الحرام": 7081,
      "▁{يَا": 7082,
      "فرة": 7083,
      "▁أُج": 7084,
      "▁تَن": 7085,
      "فة،": 7086,
      "▁والمص": 7087,
      "▁يُرِيدُ": 7088,
      "َمِّ": 7089,
      "▁طائفة": 7090,
      "▁صاحبه": 7091,
      "▁الشريعة": 7092,
      "▁أَتَى": 7093,
      "▁مولا": 7094,
      "َذِّب": 7095,
      "▁الشَّع": 7096,
      "طى": 7097,
      "▁(أ)": 7098,
      "▁نفسي": 7099,
      "▁المي": 7100,
      "▁ببعض": 7101,
      "▁أولئك": 7102,
      "▁أنبأنا": 7103,
      "▁\"،": 7104,
      "ُصُول": 7105,
      "اسة": 7106,
      "▁لَعَلَّ": 7107,
      "غداد": 7108,
      "▁النخ": 7109,
      "▁عَو": 7110,
      "ئه": 7111,
      "▁يخل": 7112,
      "▁خلقه": 7113,
      "▁(ح)": 7114,
      "▁أرى": 7115,
      "▁الْقِيَامَةِ": 7116,
      "▁يشهد": 7117,
      "▁بلفظ:": 7118,
      "▁المعاني": 7119,
      "▁تَط": 7120,
      "▁جَب": 7121,
      "ُولَى": 7122,
      "▁بَابِ": 7123,
      "▁لَز": 7124,
      "▁َ": 7125,
      "▁وَتَع": 7126,
      "▁حياة": 7127,
      "▁بها.": 7128,
      "▁الأَْر": 7129,
      "▁وَلَكِنَّ": 7130,
      "▁عِنْدَهُمْ": 7131,
      "▁[الن": 7132,
      "▁العهد": 7133,
      "ُوهَا": 7134,
      "▁الطالبين": 7135,
      "▁الشريف": 7136,
      "▁عَشَرَ": 7137,
      "▁أَهْلُ": 7138,
      "شيد": 7139,
      "▁الْوُضُو": 7140,
      "▁مواضع": 7141,
      "▁طرف": 7142,
      "ِرٌ": 7143,
      "٤١": 7144,
      "▁تَكُونُ": 7145,
      "ِبْ": 7146,
      "▁النَّظ": 7147,
      "َأْتِي": 7148,
      "الد": 7149,
      "▁الْقُرْآن": 7150,
      "▁صنع": 7151,
      "▁ولأ": 7152,
      "ٍّ،": 7153,
      "انظر": 7154,
      "▁الْبَائ": 7155,
      "▁(١١)": 7156,
      "▁وَات": 7157,
      "فهوم": 7158,
      "▁شهادة": 7159,
      "▁يصلح": 7160,
      "▁يَزِيدَ": 7161,
      "▁الباء": 7162,
      "▁إِحْد": 7163,
      "▁عمار": 7164,
      "▁الترك": 7165,
      "▁(ما": 7166,
      "▁أنتم": 7167,
      "▁«ع": 7168,
      "▁١١/": 7169,
      "▁مِثْلُ": 7170,
      "ُورٌ": 7171,
      "▁تأويل": 7172,
      "▁شَك": 7173,
      "ضَ": 7174,
      "▁الوقف": 7175,
      "▁البل": 7176,
      "اخْت": 7177,
      "ز،": 7178,
      "▁تزوج": 7179,
      "▁ستة": 7180,
      "تفاع": 7181,
      "َثْبُتُ": 7182,
      "▁وَجَبَ": 7183,
      "ائهم": 7184,
      "؟!": 7185,
      "▁شا": 7186,
      "▁رجاله": 7187,
      "▁كت": 7188,
      "▁داود،": 7189,
      "▁الدم": 7190,
      "▁الآية.": 7191,
      "▁[من": 7192,
      "▁الفقيه": 7193,
      "▁بَاط": 7194,
      "▁النبيّ": 7195,
      "▁فرس": 7196,
      "▁الإعراب": 7197,
      "▁الاعت": 7198,
      "▁(ز)": 7199,
      "٧٧": 7200,
      "▁القرن": 7201,
      "▁بِمَعْنَى": 7202,
      "▁هلال": 7203,
      "ِيقُ": 7204,
      "▁فَيَكُونُ": 7205,
      "▁الأَْوَّل": 7206,
      "▁نكاح": 7207,
      "▁يُل": 7208,
      "▁{ت": 7209,
      "▁مَص": 7210,
      "▁***": 7211,
      "▁وَالْحَنَابِلَةُ": 7212,
      "▁التوبة": 7213,
      "ور.": 7214,
      "لون": 7215,
      "▁بحسب": 7216,
      "٤-": 7217,
      "َتَانِ": 7218,
      "ّار": 7219,
      "▁بحر": 7220,
      "▁أَنْز": 7221,
      "▁عُي": 7222,
      "▁فرد": 7223,
      "▁العرا": 7224,
      "▁الفكر": 7225,
      "ُّلُث": 7226,
      "▁شَيْب": 7227,
      "▁رسولُ": 7228,
      "▁والحسن": 7229,
      "▁بِالْف": 7230,
      "▁القاهرة": 7231,
      "▁نك": 7232,
      "َلَّم": 7233,
      "▁مُك": 7234,
      "امعة": 7235,
      "▁النَّه": 7236,
      "▁عُمَرَ،": 7237,
      "▁يخفى": 7238,
      "▁حرام": 7239,
      "▁خليفة": 7240,
      "طأ": 7241,
      "بُ": 7242,
      "▁فِى": 7243,
      "▁صفات": 7244,
      "▁رَبِّكَ": 7245,
      "َتِي": 7246,
      "▁فذلك": 7247,
      "َمِنَ": 7248,
      "تكم": 7249,
      "مائة.": 7250,
      "َوْت": 7251,
      "ْقَ": 7252,
      "▁عقبة": 7253,
      "▁غيرها": 7254,
      "▁إِبْرَاهِيم": 7255,
      "▁أَخْذ": 7256,
      "▁تُس": 7257,
      "كُمُ": 7258,
      "▁النهاية": 7259,
      "▁يض": 7260,
      "▁...\"": 7261,
      "▁يَوْمِ": 7262,
      "َرْش": 7263,
      "٦٨": 7264,
      "▁عَاد": 7265,
      "ْتِف": 7266,
      "▁وَجْهِ": 7267,
      "ُهَا،": 7268,
      "▁الْحَال": 7269,
      "▁شَهِد": 7270,
      "▁مَعْنَاهُ": 7271,
      "مشقي": 7272,
      "▁فذكره.": 7273,
      "▁هَد": 7274,
      "صن": 7275,
      "▁يضر": 7276,
      "▁تَقْد": 7277,
      "▁بنفس": 7278,
      "▁سعيد،": 7279,
      "▁النوع": 7280,
      "▁الْمَيِّ": 7281,
      "▁واد": 7282,
      "▁شيء،": 7283,
      "فاد": 7284,
      "ِرًا": 7285,
      "َلْب": 7286,
      "ُرُّ": 7287,
      "وضأ": 7288,
      "▁الزمخشري": 7289,
      "صلاح": 7290,
      "َاهُمَا": 7291,
      "▁والمت": 7292,
      "▁الشَّا": 7293,
      "▁رض": 7294,
      "▁أَرْس": 7295,
      "▁عِبَاد": 7296,
      "َبَتْ": 7297,
      "جرح": 7298,
      "▁الْأَعْم": 7299,
      "▁ظل": 7300,
      "▁لبعض": 7301,
      "زاب": 7302,
      "▁عِ": 7303,
      "▁ثواب": 7304,
      "▁جرى": 7305,
      "▁المفعول": 7306,
      "نساء:": 7307,
      "▁كه": 7308,
      "▁هو:": 7309,
      "فْسِهِ": 7310,
      "▁آلاف": 7311,
      "▁يَمْلِك": 7312,
      "▁لين": 7313,
      "٧٠": 7314,
      "ْعُو": 7315,
      "▁الأنعام": 7316,
      "َابِع": 7317,
      "▁وَذَكَرَ": 7318,
      "ضاح": 7319,
      "حمه": 7320,
      "▁يَدَيْهِ": 7321,
      "▁مسائل": 7322,
      "▁الثَّم": 7323,
      "▁لِأَنَّهَا": 7324,
      "َرُونَ": 7325,
      "▁أهم": 7326,
      "٤٢": 7327,
      "▁الْجِن": 7328,
      "▁بَيْنَهُمْ": 7329,
      "▁وَحَدَّث": 7330,
      "▁سنة،": 7331,
      "▁المعارف": 7332,
      "▁أُر": 7333,
      "▁والثالث": 7334,
      "▁النحو": 7335,
      "▁عباس،": 7336,
      "▁النبى": 7337,
      "ونهم": 7338,
      "عوا": 7339,
      "▁انْق": 7340,
      "▁ء": 7341,
      "ْئ": 7342,
      "▁القتل": 7343,
      "▁لِأَن": 7344,
      "▁سبعة": 7345,
      "▁الْعُلَم": 7346,
      "▁الرَّب": 7347,
      "▁عُثْمَانَ": 7348,
      "ُبُ": 7349,
      "on": 7350,
      "َاقُ": 7351,
      "▁الْمَذْكُور": 7352,
      "▁شَرِي": 7353,
      "جيب": 7354,
      "▁الْعَل": 7355,
      "اموس": 7356,
      "▁فإنّ": 7357,
      "َةٌ.": 7358,
      "َّس": 7359,
      "خبار": 7360,
      "ري:": 7361,
      "▁بِث": 7362,
      "▁السير": 7363,
      "▁«الم": 7364,
      "▁وَالط": 7365,
      "▁مغني": 7366,
      "راً،": 7367,
      "َامِ،": 7368,
      "َيْرٍ": 7369,
      "▁الضحا": 7370,
      "▁وَعَم": 7371,
      "▁(أن": 7372,
      "دار": 7373,
      "▁أَنْب": 7374,
      "▁دِرْهَم": 7375,
      "▁نار": 7376,
      "جوز": 7377,
      "▁القط": 7378,
      "همَا": 7379,
      "▁الْمُك": 7380,
      "ْحُ": 7381,
      "▁٢.": 7382,
      "ْقُط": 7383,
      "▁جُم": 7384,
      "▁حمد": 7385,
      "▁الْقَاسِمِ": 7386,
      "▁أَخَذَ": 7387,
      "▁جده": 7388,
      "٤٣": 7389,
      "ثْب": 7390,
      "اءَ": 7391,
      "طال": 7392,
      "▁ثَبَتَ": 7393,
      "٦٦": 7394,
      "▁استئ": 7395,
      "رز": 7396,
      "▁الهاء": 7397,
      "▁مقاتل": 7398,
      "▁أنكر": 7399,
      "ْظُرْ": 7400,
      "▁الأول،": 7401,
      "▁الهداية": 7402,
      "▁أشبه": 7403,
      "▁الاِسْت": 7404,
      "▁الآثار": 7405,
      "▁وربما": 7406,
      "ف:": 7407,
      "▁لَأ": 7408,
      "ْرَب": 7409,
      "▁كَو": 7410,
      "▁فَأَت": 7411,
      "▁أُمِّ": 7412,
      "▁لأهل": 7413,
      "▁عَدَمِ": 7414,
      "ْتَضِي": 7415,
      "▁لولا": 7416,
      "▁مَسْأَل": 7417,
      "▁كنتم": 7418,
      "٩٥": 7419,
      "▁بالحق": 7420,
      "▁والجمع": 7421,
      "▁مول": 7422,
      "▁وصار": 7423,
      "رة.": 7424,
      "َدَل": 7425,
      "▁الْحَك": 7426,
      "▁وسلم-:": 7427,
      "▁الْخَب": 7428,
      "▁العامة": 7429,
      "▁يكره": 7430,
      "▁فكل": 7431,
      "▁يراد": 7432,
      "▁الإجماع": 7433,
      "▁ومج": 7434,
      "تهاد": 7435,
      "▁\"الإ": 7436,
      "▁حما": 7437,
      "▁المغيرة": 7438,
      "▁التقريب": 7439,
      "املة": 7440,
      "▁كثيرا": 7441,
      "▁السف": 7442,
      "اعْت": 7443,
      "▁الْحَاج": 7444,
      "▁دخول": 7445,
      "▁المجموع": 7446,
      "▁اختيار": 7447,
      "▁المشتري": 7448,
      "▁الرد": 7449,
      "▁المعل": 7450,
      "▁بالا": 7451,
      "تَيْنِ": 7452,
      "▁يَذْك": 7453,
      "َفَعَ": 7454,
      "▁\"في": 7455,
      "▁تُب": 7456,
      "▁مكتبة": 7457,
      "▁الفس": 7458,
      "▁بَن": 7459,
      "▁السَّمَاو": 7460,
      "▁مُجَاهِد": 7461,
      "ِيمٍ": 7462,
      "▁(٩/": 7463,
      "▁وَظ": 7464,
      "▁مَثَل": 7465,
      "َارَةُ": 7466,
      "▁الأرض،": 7467,
      "تابع": 7468,
      "▁عَبد": 7469,
      "▁قالا:": 7470,
      "َالِم": 7471,
      "٧٨": 7472,
      "▁وَأَنَا": 7473,
      "▁اللهَ": 7474,
      "▁إش": 7475,
      "▁صوت": 7476,
      "ِبًا": 7477,
      "▁ركعت": 7478,
      "واق": 7479,
      "▁فهذه": 7480,
      "▁الزجاج": 7481,
      "▁قرية": 7482,
      "▁ووجه": 7483,
      "▁الطَّع": 7484,
      "▁نقله": 7485,
      "▁سوء": 7486,
      "ُدْر": 7487,
      "▁شَيْخ": 7488,
      "َرْي": 7489,
      "ُوتِ": 7490,
      "▁وانت": 7491,
      "▁جَعَلَ": 7492,
      "واهد": 7493,
      "▁ثعل": 7494,
      "▁قائل": 7495,
      "▁هذ": 7496,
      "▁الخل": 7497,
      "▁بنا": 7498,
      "▁سؤال": 7499,
      "طفى": 7500,
      "▁الْكَب": 7501,
      "▁يشاء": 7502,
      "▁بِذ": 7503,
      "▁لعدم": 7504,
      "هج": 7505,
      "▁بِسَب": 7506,
      "▁قائم": 7507,
      "ّف": 7508,
      "▁يسير": 7509,
      "▁سُفْيَان": 7510,
      "▁تعلق": 7511,
      "▁ذَلِكَ.": 7512,
      "توب": 7513,
      "آت": 7514,
      "▁لُغ": 7515,
      "▁السبب": 7516,
      "▁الْإِي": 7517,
      "▁{ب": 7518,
      "▁مرسل": 7519,
      "آي": 7520,
      "▁(*": 7521,
      "▁إسلام": 7522,
      "▁لا،": 7523,
      "والي": 7524,
      "َاطِ": 7525,
      "▁الثالثة": 7526,
      "▁فَأَمَّا": 7527,
      "زول": 7528,
      "▁أَرْض": 7529,
      "▁جهل": 7530,
      "▁يقطع": 7531,
      "▁قلوبهم": 7532,
      "▁\"تفسير": 7533,
      "▁أخيه": 7534,
      "▁خد": 7535,
      "▁«لا": 7536,
      "▁عَلِيِّ": 7537,
      "▁الْمَاءِ": 7538,
      "َارَك": 7539,
      "▁يحرم": 7540,
      "ِيهِمْ": 7541,
      "اوز": 7542,
      "ُوز": 7543,
      "▁محا": 7544,
      "▁سفر": 7545,
      "▁[أ": 7546,
      "▁بِالْج": 7547,
      "َالِي": 7548,
      "▁\"كان": 7549,
      "▁مَه": 7550,
      "لاَّ": 7551,
      "َّاد": 7552,
      "▁أَض": 7553,
      "▁إنك": 7554,
      "▁المم": 7555,
      "▁باعتبار": 7556,
      "▁التَّم": 7557,
      "▁أذن": 7558,
      "▁التف": 7559,
      "▁العراق": 7560,
      "▁حسان": 7561,
      "▁المحت": 7562,
      "▁إِلَيْكَ": 7563,
      "▁تُن": 7564,
      "▁\"وال": 7565,
      "ذرات": 7566,
      "▁ومنها:": 7567,
      "▁فيقول:": 7568,
      "▁أسباب": 7569,
      "▁اللَّفْظ": 7570,
      "▁ومثله": 7571,
      "▁يَأْت": 7572,
      "▁دَيْن": 7573,
      "َرًا": 7574,
      "▁وأد": 7575,
      "▁يتب": 7576,
      "َهِ": 7577,
      "غرب": 7578,
      "▁اللهِ،": 7579,
      "٨٠": 7580,
      "ْلٌ": 7581,
      "▁الأعراب": 7582,
      "▁عليهم،": 7583,
      "دي.": 7584,
      "▁عطية": 7585,
      "▁الْحَسَنُ": 7586,
      "▁اف": 7587,
      "▁خَاص": 7588,
      "▁ذكرت": 7589,
      "▁ظهور": 7590,
      "▁ابنِ": 7591,
      "َاحَ": 7592,
      "طا": 7593,
      "▁طول": 7594,
      "طلوب": 7595,
      "ِسْع": 7596,
      "▁الدعوة": 7597,
      "▁الجميع": 7598,
      "▁ونقل": 7599,
      "▁وتهذيب": 7600,
      "▁فَاع": 7601,
      "▁المحر": 7602,
      "▁تَض": 7603,
      "▁الظَّاهِر": 7604,
      "ْعَث": 7605,
      "▁لها،": 7606,
      "لية،": 7607,
      "▁عَمْرٍو": 7608,
      "▁جَائِز": 7609,
      "▁القض": 7610,
      "▁غَس": 7611,
      "▁كُنْتُ": 7612,
      "خلوق": 7613,
      "▁السَّر": 7614,
      "َرْط": 7615,
      "▁المظ": 7616,
      "َابٌ": 7617,
      "ِّينَ": 7618,
      "▁يوما": 7619,
      "▁مشت": 7620,
      "▁كذ": 7621,
      "▁اللَّيْث": 7622,
      "▁الأست": 7623,
      "▁ويك": 7624,
      "▁زكريا": 7625,
      "▁أخبرَنا": 7626,
      "▁عياض": 7627,
      "▁ثَوْب": 7628,
      "َّص": 7629,
      "٩-": 7630,
      "▁يَنْق": 7631,
      "▁الخروج": 7632,
      "روق": 7633,
      "▁أهلها": 7634,
      "الية": 7635,
      "▁قِب": 7636,
      "وافق": 7637,
      "▁رافع": 7638,
      "▁مَنْصُور": 7639,
      "ور:": 7640,
      "▁السلط": 7641,
      "▁وَعَلَيْهِ": 7642,
      "▁واب": 7643,
      "ِلُونَ": 7644,
      "▁فقالت": 7645,
      "▁صدقة": 7646,
      "▁الأخبار": 7647,
      "ئر": 7648,
      "قوله:": 7649,
      "▁النح": 7650,
      "▁أربعين": 7651,
      "▁الرَّأ": 7652,
      "▁الثلث": 7653,
      "▁يفت": 7654,
      "▁قَامَ": 7655,
      "لة،": 7656,
      "▁فإنهم": 7657,
      "ورة،": 7658,
      "▁[و": 7659,
      "▁سار": 7660,
      "▁يرفع": 7661,
      "▁رسالة": 7662,
      "َسْرِ": 7663,
      "▁فَهَذَا": 7664,
      "▁لئلا": 7665,
      "▁سبي": 7666,
      "▁نِك": 7667,
      "▁وغيره.": 7668,
      "▁ط/": 7669,
      "▁قُرَيْ": 7670,
      "▁نُس": 7671,
      "ْفِي": 7672,
      "▁يدعو": 7673,
      "▁هاشم": 7674,
      "▁الغز": 7675,
      "▁فَلَهُ": 7676,
      "▁وَالإِ": 7677,
      "▁وَمِنْهُ": 7678,
      "▁الْعَرَب": 7679,
      "▁مجموع": 7680,
      "▁علمت": 7681,
      "سبه": 7682,
      "ْيَةِ": 7683,
      "▁أتي": 7684,
      "نَعُ": 7685,
      "▁خب": 7686,
      "الا": 7687,
      "▁أَيْضا": 7688,
      "▁قَوْله:": 7689,
      "▁للخ": 7690,
      "▁ضَعِيف": 7691,
      "أنيث": 7692,
      "▁عَلَيْنَا": 7693,
      "▁\"ر": 7694,
      "واري": 7695,
      "▁تجد": 7696,
      "َافِق": 7697,
      "▁التاء": 7698,
      "▁الْمُشْرِك": 7699,
      "▁رَأَى": 7700,
      "▁المطلق": 7701,
      "▁يستحق": 7702,
      "▁الصفة": 7703,
      "▁رجب": 7704,
      "ْدٍ": 7705,
      "▁ومائ": 7706,
      "▁٣-": 7707,
      "▁بمكة": 7708,
      "▁اعتبار": 7709,
      "▁الْكَر": 7710,
      "▁ثمن": 7711,
      "ج،": 7712,
      "▁يسلم": 7713,
      "▁وحدث": 7714,
      "▁يبقى": 7715,
      "▁(وَل": 7716,
      "▁الشَّه": 7717,
      "▁واللفظ": 7718,
      "▁العرب،": 7719,
      "َّتِهِ": 7720,
      "▁حُس": 7721,
      "▁سُو": 7722,
      "رخ": 7723,
      "▁درهم": 7724,
      "َلَّف": 7725,
      "▁الوجود": 7726,
      "كمة": 7727,
      "ثى": 7728,
      "▁الراب": 7729,
      "▁فقام": 7730,
      "▁الأمم": 7731,
      "▁بدائع": 7732,
      "▁تكر": 7733,
      "َرْق": 7734,
      "▁التَّأ": 7735,
      "▁ذَر": 7736,
      "▁أمية": 7737,
      "▁الجنس": 7738,
      "▁وقعت": 7739,
      "ّان": 7740,
      "▁كِتَابِ": 7741,
      "▁وذهب": 7742,
      "▁[النساء:": 7743,
      "ْلَمْ": 7744,
      "▁الْوُج": 7745,
      "▁الْمُط": 7746,
      "▁حَدِيثٌ": 7747,
      "ُّ:": 7748,
      "صا": 7749,
      "هر،": 7750,
      "طبعة": 7751,
      "افعي": 7752,
      "▁انق": 7753,
      "▁ماجة": 7754,
      "ورِ": 7755,
      "▁الإشارة": 7756,
      "▁أعم": 7757,
      "ِّه": 7758,
      "تمام": 7759,
      "▁الفرج": 7760,
      "راسة": 7761,
      "▁الثَّانِي:": 7762,
      "▁بُر": 7763,
      "▁الإك": 7764,
      "▁بِالد": 7765,
      "ويد": 7766,
      "بَ": 7767,
      "▁للز": 7768,
      "▁فارس": 7769,
      "َّارِ": 7770,
      "َرَى": 7771,
      "يراث": 7772,
      "▁نح": 7773,
      "لزم": 7774,
      "▁البائع": 7775,
      "▁اغ": 7776,
      "▁مَوْضِع": 7777,
      "▁بالف": 7778,
      "٦٥": 7779,
      "▁أمه": 7780,
      "▁يَقُولُونَ": 7781,
      "▁الإح": 7782,
      "▁-ع": 7783,
      "▁فاح": 7784,
      "▁الْمَلِك": 7785,
      "▁العبادة": 7786,
      "▁بِشَيْ": 7787,
      "َكِّل": 7788,
      "▁متعل": 7789,
      "▁لقي": 7790,
      "▁لعبد": 7791,
      "دد": 7792,
      "▁لاب": 7793,
      "▁يزل": 7794,
      "َيْنِ:": 7795,
      "ل\"": 7796,
      "▁قبي": 7797,
      "▁بنفسه": 7798,
      "غار": 7799,
      "َاسِ": 7800,
      "▁وغيرها": 7801,
      "▁وغيره،": 7802,
      "▁صغير": 7803,
      "٨٨": 7804,
      "نو": 7805,
      "َنْصَار": 7806,
      "▁رَبِّي": 7807,
      "▁وأبا": 7808,
      "▁وانظر:": 7809,
      "▁عني": 7810,
      "▁العدل": 7811,
      "وسى": 7812,
      "▁حتّى": 7813,
      "▁حض": 7814,
      "▁يسمى": 7815,
      "▁الوحي": 7816,
      "▁ظرف": 7817,
      "▁نُع": 7818,
      "ْلُوم": 7819,
      "▁نعم،": 7820,
      "▁الذِّم": 7821,
      "▁تعرف": 7822,
      "▁الثوري": 7823,
      "▁أَعْط": 7824,
      "▁العامل": 7825,
      "▁فأنزل": 7826,
      "▁التوراة": 7827,
      "▁تقت": 7828,
      "▁قَيْس": 7829,
      "َرْح": 7830,
      "▁النصر": 7831,
      "له:": 7832,
      "َدِيثِ": 7833,
      "▁تقوم": 7834,
      "▁ميت": 7835,
      "▁النَّق": 7836,
      "▁المتقدم": 7837,
      "▁وكيع": 7838,
      "▁جزاء": 7839,
      "▁عِد": 7840,
      "َدَّر": 7841,
      "▁بدليل": 7842,
      "▁وأنشد": 7843,
      "ذِينَ": 7844,
      "▁يأت": 7845,
      "▁مَلَك": 7846,
      "▁فَاس": 7847,
      "َائِف": 7848,
      "▁ليل": 7849,
      "▁غَف": 7850,
      "▁المعرفة": 7851,
      "▁ونحوه": 7852,
      "▁سُم": 7853,
      "▁الطّ": 7854,
      "▁قصر": 7855,
      "▁شِئ": 7856,
      "▁رَق": 7857,
      "▁فَار": 7858,
      "▁بات": 7859,
      "▁أقام": 7860,
      "▁هَؤُلَاءِ": 7861,
      "▁الفي": 7862,
      "ِحُ": 7863,
      "▁حَقِيق": 7864,
      "▁الشهادة": 7865,
      "▁وَالله": 7866,
      "▁فأت": 7867,
      "▁عامة": 7868,
      "فوظ": 7869,
      "كملة": 7870,
      "▁١٢/": 7871,
      "▁اكت": 7872,
      "وكل": 7873,
      "فذ": 7874,
      "▁بمح": 7875,
      "تة": 7876,
      "▁الحلبي)": 7877,
      "▁الْعَقْدِ": 7878,
      "▁مجلس": 7879,
      "وَط": 7880,
      "▁طاعة": 7881,
      "▁الوصف": 7882,
      "▁قَلِيل": 7883,
      "▁مهر": 7884,
      "ذاهب": 7885,
      "▁الموضوع": 7886,
      "▁يشترط": 7887,
      "▁ثِق": 7888,
      "▁وسم": 7889,
      "▁تصانيف": 7890,
      "▁وثلاثين": 7891,
      "▁لنفسه": 7892,
      "▁يطلق": 7893,
      "▁عَلَيْهِ.": 7894,
      "▁الأغ": 7895,
      "▁الترا": 7896,
      "هدى": 7897,
      "َةَ.": 7898,
      "▁كَقَوْل": 7899,
      "ِدِينَ": 7900,
      "ْرَائ": 7901,
      "▁ربي": 7902,
      "َيَّد": 7903,
      "ُوه": 7904,
      "مَنْ": 7905,
      "همْ": 7906,
      "▁\"ص": 7907,
      "▁دَاوُدَ": 7908,
      "▁وَاع": 7909,
      "راش": 7910,
      "▁الأثير": 7911,
      "▁{ع": 7912,
      "▁ببغداد": 7913,
      "▁٢)": 7914,
      "▁وَلِهَذَا": 7915,
      "▁١)": 7916,
      "ودي": 7917,
      "▁يَعْلَمُ": 7918,
      "َّلَاث": 7919,
      "▁وَعِنْدَ": 7920,
      "ُنَ": 7921,
      "َلِّم": 7922,
      "▁كلم": 7923,
      "▁وام": 7924,
      "▁لِلْق": 7925,
      "▁وَالِ": 7926,
      "▁الْجَنَّةِ": 7927,
      "فاعة": 7928,
      "▁مُسْلِمٍ": 7929,
      "▁التَّن": 7930,
      "تيان": 7931,
      "▁وَيُقَال": 7932,
      "▁الدنيا،": 7933,
      "▁تدع": 7934,
      "▁الصَّف": 7935,
      "بيين": 7936,
      "▁أصب": 7937,
      "▁صَاحِبُ": 7938,
      "ُولَ": 7939,
      "▁صـ": 7940,
      "▁ففيه": 7941,
      "▁الصحاب": 7942,
      "▁اك": 7943,
      "▁مقال": 7944,
      "ْتَبَرُ": 7945,
      "▁الكذب": 7946,
      "▁زهير": 7947,
      "تها،": 7948,
      "▁يَنْبَغِي": 7949,
      "▁نزول": 7950,
      "▁حاز": 7951,
      "▁يعبد": 7952,
      "▁كثرة": 7953,
      "نار": 7954,
      "▁إِلَيَّ": 7955,
      "▁أحدا": 7956,
      "سلمين": 7957,
      "▁بطل": 7958,
      "▁تَفْس": 7959,
      "َانَا": 7960,
      "▁أَحْك": 7961,
      "َجُل": 7962,
      "▁حافظ": 7963,
      "▁إِسْمَاعِيل": 7964,
      "٧٥": 7965,
      "▁قيمة": 7966,
      "▁الأصل،": 7967,
      "▁الخوف": 7968,
      "▁٨٠": 7969,
      "روط": 7970,
      "اصي": 7971,
      "▁الْحُسَيْن": 7972,
      "▁(*)": 7973,
      "َنَّا": 7974,
      "▁الْحَرْب": 7975,
      "ماً،": 7976,
      "▁وأه": 7977,
      "حاب": 7978,
      "▁برد": 7979,
      "▁فَات": 7980,
      "▁قضى": 7981,
      "▁الْحُر": 7982,
      "َرَّحَ": 7983,
      "▁الصوم": 7984,
      "غيب": 7985,
      "ُرَيْج": 7986,
      "▁الْعَام": 7987,
      "ون}": 7988,
      "▁ضد": 7989,
      "▁الْبَح": 7990,
      "▁تجب": 7991,
      "▁يشبه": 7992,
      "▁طَو": 7993,
      "▁البعث": 7994,
      "▁إِلَيْهَا": 7995,
      "ذم": 7996,
      "▁أَمْر": 7997,
      "درسة": 7998,
      "▁والفر": 7999,
      "▁ثقة،": 8000,
      "▁عاش": 8001,
      "ون)": 8002,
      "صلحة": 8003,
      "ْتَه": 8004,
      "▁وَرَوَاهُ": 8005,
      "َيْث": 8006,
      "▁السادس": 8007,
      "ِيَةُ": 8008,
      "▁سيأتي": 8009,
      "▁واح": 8010,
      "▁إلينا": 8011,
      "▁يَوْمٍ": 8012,
      "▁الأعمش": 8013,
      "َا:": 8014,
      "ُونَهُ": 8015,
      "▁أحق": 8016,
      "▁يُشْتَرَطُ": 8017,
      "▁فرو": 8018,
      "بض": 8019,
      "جموعة": 8020,
      "▁والان": 8021,
      "ْرَةُ": 8022,
      "ئِلَ": 8023,
      "فعله": 8024,
      "تا": 8025,
      "▁بَعْدَهُ": 8026,
      "▁السِّ": 8027,
      "▁لمع": 8028,
      "▁المنت": 8029,
      "٧٦": 8030,
      "▁ومس": 8031,
      "▁عصر": 8032,
      "احة": 8033,
      "▁يدفع": 8034,
      "▁جَل": 8035,
      "▁خلال": 8036,
      "▁الفتاوى": 8037,
      "َةٍ.": 8038,
      "٩٤": 8039,
      "زِل": 8040,
      "▁إياه": 8041,
      "َدْرِ": 8042,
      "▁زائدة": 8043,
      "َابٍ": 8044,
      "▁تبارك": 8045,
      "▁شيوخ": 8046,
      "▁وَحْد": 8047,
      "▁وَالْغ": 8048,
      "▁يحكم": 8049,
      "▁فسر": 8050,
      "َبَةِ": 8051,
      "▁عَلِم": 8052,
      "▁وَلِأَنَّ": 8053,
      "▁ذكرها": 8054,
      "▁الأموال": 8055,
      "▁السَّمَاءِ": 8056,
      "ثي": 8057,
      "▁عُل": 8058,
      "ُبَّ": 8059,
      "▁النَّفْس": 8060,
      "▁وَأَق": 8061,
      "▁السمع": 8062,
      "فقة": 8063,
      "َاجِ": 8064,
      "▁مراد": 8065,
      "▁يترك": 8066,
      "▁شرك": 8067,
      "َرْس": 8068,
      "▁وَقَوْلُهُ": 8069,
      "وة،": 8070,
      "▁لِلْو": 8071,
      "▁السَّاع": 8072,
      "▁عَص": 8073,
      "▁الْمَالِ": 8074,
      "▁مشهور": 8075,
      "...": 8076,
      "▁قالَ:": 8077,
      "▁يختلف": 8078,
      "▁الْحَقِّ": 8079,
      "▁قتله": 8080,
      "▁الإسلامي": 8081,
      "▁وجل:": 8082,
      "▁بار": 8083,
      "▁بتح": 8084,
      "▁القرشي": 8085,
      "▁الحفاظ": 8086,
      "▁يَنْف": 8087,
      "▁البصر": 8088,
      "▁الْأَوَّلِ": 8089,
      "▁يَوْمًا": 8090,
      "َّاهُ": 8091,
      "▁المتوفى": 8092,
      "▁أحي": 8093,
      "es": 8094,
      "▁واشت": 8095,
      "▁سَع": 8096,
      "▁وَالَّذِينَ": 8097,
      "▁النق": 8098,
      "َاتِ،": 8099,
      "َامًا": 8100,
      "▁خُل": 8101,
      "▁(وَال": 8102,
      "ْلُغ": 8103,
      "▁ويحيى": 8104,
      "ِينٍ": 8105,
      "▁الصَّلَاةُ": 8106,
      "en": 8107,
      "وع،": 8108,
      "▁بَص": 8109,
      "▁وفيه:": 8110,
      "ولاً": 8111,
      "▁استع": 8112,
      "▁مَكَّةَ": 8113,
      "▁يدرك": 8114,
      "▁وجماعة": 8115,
      "▁رَأَيْت": 8116,
      "▁حظ": 8117,
      "حمر": 8118,
      "زد": 8119,
      "داب": 8120,
      "▁يضرب": 8121,
      "▁لهم،": 8122,
      "ِمْر": 8123,
      "هاً": 8124,
      "ْجَم": 8125,
      "كتور": 8126,
      "َمْرِ": 8127,
      "ْطِلا": 8128,
      "ْكَ": 8129,
      "▁الزوائد": 8130,
      "▁{قُلْ": 8131,
      "▁قِرَاء": 8132,
      "▁جَمَاع": 8133,
      "▁الروايات": 8134,
      "طاع": 8135,
      "▁لاست": 8136,
      "▁ريح": 8137,
      "▁الشَّار": 8138,
      "▁لهذه": 8139,
      "▁عوض": 8140,
      "▁وأربع": 8141,
      "▁واضح": 8142,
      "َارِهِ": 8143,
      "▁الألفاظ": 8144,
      "▁مثال": 8145,
      "َّةَ،": 8146,
      "▁القاف": 8147,
      "ِهَا.": 8148,
      "▁(س)": 8149,
      "▁المدني": 8150,
      "جال": 8151,
      "ُونِي": 8152,
      "▁نعت": 8153,
      "▁ياء": 8154,
      "▁سكن": 8155,
      "▁نعلم": 8156,
      "▁وَالسَّل": 8157,
      "َعْط": 8158,
      "▁الْإِمَامُ": 8159,
      "▁تخرج": 8160,
      "يمان،": 8161,
      "▁صرف": 8162,
      "▁حذي": 8163,
      "▁ومثل": 8164,
      "▁يَخْرُجُ": 8165,
      "ليك": 8166,
      "ِيمَةِ": 8167,
      "ّت": 8168,
      "▁وَبِال": 8169,
      "٩١": 8170,
      "▁فرج": 8171,
      "▁شرف": 8172,
      "يك": 8173,
      "▁تصح": 8174,
      "ِعْم": 8175,
      "▁العلم،": 8176,
      "▁الحميد": 8177,
      "ُدُ": 8178,
      "▁نوا": 8179,
      "َرَّم": 8180,
      "▁زوجها": 8181,
      "ْزِئ": 8182,
      "▁-صَلَّى": 8183,
      "▁القطع": 8184,
      "▁كشاف": 8185,
      "▁لِلش": 8186,
      "فاة": 8187,
      "▁حلب": 8188,
      "▁المحدث": 8189,
      "غض": 8190,
      "ُدُّ": 8191,
      "▁إسحاق،": 8192,
      "▁قبر": 8193,
      "بته": 8194,
      "▁المحرم": 8195,
      "َرْتُ": 8196,
      "▁يصير": 8197,
      "ِتْنَ": 8198,
      "▁[ف": 8199,
      "▁سه": 8200,
      "▁نفع": 8201,
      "▁يعتبر": 8202,
      "▁البغوي": 8203,
      "▁فيها.": 8204,
      "▁قولهم:": 8205,
      "▁كُف": 8206,
      "▁يقصد": 8207,
      "▁\"(": 8208,
      "▁أَي:": 8209,
      "▁بعضهم:": 8210,
      "▁أَمَرَ": 8211,
      "▁العن": 8212,
      "ِتاب": 8213,
      "ِيَّةٌ": 8214,
      "ِيحُ": 8215,
      "▁ضعيف.": 8216,
      "▁فإنما": 8217,
      "آية": 8218,
      "▁قَائِم": 8219,
      "▁يعنى": 8220,
      "▁الأيام": 8221,
      "هِ،": 8222,
      "▁ابتداء": 8223,
      "▁وَبِهِ": 8224,
      "▁فقالت:": 8225,
      "▁لَكِنَّ": 8226,
      "لاع": 8227,
      "▁هلك": 8228,
      "▁تُص": 8229,
      "▁الدمشقي": 8230,
      "جاع": 8231,
      "قوط": 8232,
      "▁معطوف": 8233,
      "▁الجبل": 8234,
      "ْرَبُ": 8235,
      "ْعًا": 8236,
      "هـ)": 8237,
      "▁[١٠]": 8238,
      "▁المذكورة": 8239,
      "ُرُوا": 8240,
      "▁أَخْرَجَهُ": 8241,
      "▁أض": 8242,
      "▁مجهول": 8243,
      "▁الطبعة": 8244,
      "▁فاج": 8245,
      "َته": 8246,
      "▁عمران:": 8247,
      "▁المنكر": 8248,
      "▁بف": 8249,
      "▁الثُّلُث": 8250,
      "▁الصَّلاة": 8251,
      "َما": 8252,
      "▁لِلتَّ": 8253,
      "▁لَم": 8254,
      "▁الحكمة": 8255,
      "▁الصفات": 8256,
      "▁واعلم": 8257,
      "▁إِلَيْهِمْ": 8258,
      "ةَ،": 8259,
      "▁المشت": 8260,
      "تبه": 8261,
      "▁الزِّي": 8262,
      "َافِي": 8263,
      "الله": 8264,
      "▁معلوم": 8265,
      "انية،": 8266,
      "▁الأه": 8267,
      "▁التب": 8268,
      "َيْش": 8269,
      "▁يلزمه": 8270,
      "▁الطَّي": 8271,
      "▁حكيم": 8272,
      "▁بِالْخ": 8273,
      "▁العا": 8274,
      "ْنى": 8275,
      "▁مناف": 8276,
      "▁المحق": 8277,
      "▁سُبْحَانَهُ": 8278,
      "▁فَوَج": 8279,
      "ب.": 8280,
      "َالِهِ": 8281,
      "▁يذهب": 8282,
      "▁أعرف": 8283,
      "▁إِخ": 8284,
      "▁هُمُ": 8285,
      "▁التِّرْمِذ": 8286,
      "▁المقام": 8287,
      "▁مظ": 8288,
      "ِلاَفِ": 8289,
      "▁التر": 8290,
      "▁فَيَج": 8291,
      "▁الرِّب": 8292,
      "▁واس": 8293,
      "▁شعبان": 8294,
      "▁يقتل": 8295,
      "▁بِالْو": 8296,
      "▁والشر": 8297,
      "قبول": 8298,
      "▁من:": 8299,
      "▁يمت": 8300,
      "ْتَهُ": 8301,
      "▁الْعَزِيزِ": 8302,
      "٨٦": 8303,
      "▁يفيد": 8304,
      "▁فَلا": 8305,
      "▁أخت": 8306,
      "▁حَدِيثُ": 8307,
      "▁الاختلاف": 8308,
      "نوا": 8309,
      "ِفْظ": 8310,
      "▁مَف": 8311,
      "▁الْعَذ": 8312,
      "▁بِإِذ": 8313,
      "▁صرح": 8314,
      "▁مَسْعُودٍ": 8315,
      "▁إِج": 8316,
      "ثق": 8317,
      "▁الريح": 8318,
      "▁مضارع": 8319,
      "َغْد": 8320,
      "▁حَفْص": 8321,
      "إنسان": 8322,
      "٨٥": 8323,
      "▁كَوْن": 8324,
      "▁رَأَيْتُ": 8325,
      "ِيَارِ": 8326,
      "▁وَعَب": 8327,
      "▁الْإِنْس": 8328,
      "▁التوفي": 8329,
      "▁وَهْب": 8330,
      "▁ولذا": 8331,
      "▁هريرة،": 8332,
      "▁إبراهيم،": 8333,
      "عاة": 8334,
      "▁العز": 8335,
      "واص": 8336,
      "▁نقول": 8337,
      "َفِي": 8338,
      "ذير": 8339,
      "ثه": 8340,
      "▁فَقُلْتُ:": 8341,
      "▁أصبح": 8342,
      "ُوعُ": 8343,
      "با،": 8344,
      "ركات": 8345,
      "▁يموت": 8346,
      "▁موص": 8347,
      "حدّ": 8348,
      "▁والمش": 8349,
      "▁الشَّافِعِيَّةِ": 8350,
      "▁السُّلْط": 8351,
      "صوص": 8352,
      "▁قياس": 8353,
      "▁«٥": 8354,
      "ضاً": 8355,
      "▁عمرو،": 8356,
      "طعام": 8357,
      "▁جُز": 8358,
      "▁تقديم": 8359,
      "▁الجوه": 8360,
      "▁وَمُحَمَّد": 8361,
      "▁صلاح": 8362,
      "▁حقه": 8363,
      "▁الْأُولَى": 8364,
      "▁عباده": 8365,
      "جارة": 8366,
      "ْحَاب": 8367,
      "دريس": 8368,
      "▁بقدر": 8369,
      "نُ": 8370,
      "▁احمد": 8371,
      "▁بمثل": 8372,
      "▁مقدم": 8373,
      "▁كره": 8374,
      "▁١،": 8375,
      "▁الثوب": 8376,
      "▁وغيرهما": 8377,
      "▁قُلْتُ": 8378,
      "▁مادة": 8379,
      "▁النسب": 8380,
      "▁عُبَيْدِ": 8381,
      "٨٧": 8382,
      "ئم": 8383,
      "سبح": 8384,
      "▁الْأَنْ": 8385,
      "ُمَا": 8386,
      "َمِ،": 8387,
      "▁فَش": 8388,
      "ها؛": 8389,
      "▁تُؤ": 8390,
      "▁وسط": 8391,
      "▁النوا": 8392,
      "▁منهم،": 8393,
      "▁موقوف": 8394,
      "▁أُب": 8395,
      "َرْد": 8396,
      "عداد": 8397,
      "َرْضُ": 8398,
      "ناهم": 8399,
      "▁وَرَدَ": 8400,
      "▁سِو": 8401,
      "▁وَتَف": 8402,
      "َلَفُوا": 8403,
      "▁الْأَج": 8404,
      "▁بقول": 8405,
      "▁الرُّك": 8406,
      "▁وَيَقُول": 8407,
      "in": 8408,
      "َهُمُ": 8409,
      "▁بَيِّنَ": 8410,
      "َسْأَل": 8411,
      "▁شدة": 8412,
      "▁استعمال": 8413,
      "▁لزم": 8414,
      "▁علي،": 8415,
      "▁[٤]،": 8416,
      "▁العدو": 8417,
      "▁مُش": 8418,
      "▁محرم": 8419,
      "▁غسل": 8420,
      "صاص": 8421,
      "▁بذلك،": 8422,
      "▁يُعْط": 8423,
      "):": 8424,
      "▁التخ": 8425,
      "▁والمس": 8426,
      "َهَب": 8427,
      "فية": 8428,
      "▁المسيب": 8429,
      "▁حكى": 8430,
      "لة:": 8431,
      "▁وَأَبِي": 8432,
      "▁اثْن": 8433,
      "افت": 8434,
      "▁الغيب": 8435,
      "▁المسلمين،": 8436,
      "▁فيت": 8437,
      "▁الشه": 8438,
      "فساد": 8439,
      "▁مقر": 8440,
      "▁أورد": 8441,
      "اتٍ": 8442,
      "▁\"تاريخ": 8443,
      "▁فز": 8444,
      "▁مالك:": 8445,
      "▁الْقَت": 8446,
      "▁حُكْمُ": 8447,
      "▁كتاب:": 8448,
      "▁النفي": 8449,
      "ارئ": 8450,
      "رسال": 8451,
      "▁رُك": 8452,
      "▁الأعراف": 8453,
      "يل.": 8454,
      "▁وَأَح": 8455,
      "▁أطلق": 8456,
      "▁القتال": 8457,
      "▁السَّمَاوَاتِ": 8458,
      "▁فقالوا": 8459,
      "ضت": 8460,
      "▁يضع": 8461,
      "▁اي": 8462,
      "ينة،": 8463,
      "▁الدال": 8464,
      "▁لِلر": 8465,
      "▁وَالْإِ": 8466,
      "▁مَالِكٌ": 8467,
      "َمَرَ": 8468,
      "▁طَلْح": 8469,
      "▁ثقة.": 8470,
      "▁صلاته": 8471,
      "ُّج": 8472,
      "وية،": 8473,
      "▁المطر": 8474,
      "غا": 8475,
      "َلَمْ": 8476,
      "▁جَهَنَّ": 8477,
      "▁المعجمة": 8478,
      "َدًا": 8479,
      "▁خالف": 8480,
      "▁زال": 8481,
      "▁الجوزي": 8482,
      "▁السبع": 8483,
      "ْفَاظ": 8484,
      "▁اللَّه،": 8485,
      "▁علوم": 8486,
      "▁عمله": 8487,
      "▁مفر": 8488,
      "نا)": 8489,
      "ّع": 8490,
      "▁فإني": 8491,
      "ذِي": 8492,
      "▁قَول": 8493,
      "▁القصة": 8494,
      "رشاد": 8495,
      "▁هاهنا": 8496,
      "ُلِ": 8497,
      "واضع": 8498,
      "▁الزه": 8499,
      "َرَأَ": 8500,
      "▁تميم": 8501,
      "▁قُب": 8502,
      "فَقَ": 8503,
      "▁داخل": 8504,
      "▁لام": 8505,
      "طلب": 8506,
      "▁بالكسر": 8507,
      "▁أُع": 8508,
      "▁وَهِي": 8509,
      "ضيف": 8510,
      "▁الْمُخ": 8511,
      "▁الْحسن": 8512,
      "▁السَّلَام": 8513,
      "▁البحث": 8514,
      "َعِ": 8515,
      "▁لِلَّ": 8516,
      "▁عشرين": 8517,
      "▁ومالك": 8518,
      "▁إِلَهَ": 8519,
      "شا": 8520,
      "باحة": 8521,
      "ُوتُ": 8522,
      "بدل": 8523,
      "▁يبق": 8524,
      "ِمَار": 8525,
      "َئِذٍ": 8526,
      "▁الْإِس": 8527,
      "▁المخطوط": 8528,
      "زله": 8529,
      "ْكِ": 8530,
      "ؤمنين": 8531,
      "َوَى": 8532,
      "▁السلم": 8533,
      "ذاء": 8534,
      "▁جَمِيعًا": 8535,
      "▁لِلْأ": 8536,
      "َّتْ": 8537,
      "▁يفر": 8538,
      "▁فَقَالَتْ": 8539,
      "▁ذِم": 8540,
      "▁باطل": 8541,
      "▁كلما": 8542,
      "▁جهنم": 8543,
      "َالَف": 8544,
      "▁آخر،": 8545,
      "▁وسيأتي": 8546,
      "▁حَرْب": 8547,
      "▁حُمَيْد": 8548,
      "ئن": 8549,
      "▁\"خ": 8550,
      "كبر": 8551,
      "َلَم": 8552,
      "▁ماض": 8553,
      "▁يَتَع": 8554,
      "▁وإسناده": 8555,
      "قيب": 8556,
      "▁الشافعية": 8557,
      "اقة": 8558,
      "▁رَجَعَ": 8559,
      "سلوب": 8560,
      "َأْج": 8561,
      "▁بحق": 8562,
      "▁الصدقة": 8563,
      "▁لحم": 8564,
      "▁أرج": 8565,
      "▁رح": 8566,
      "دة.": 8567,
      "▁زيد،": 8568,
      "راز": 8569,
      "▁وجدت": 8570,
      "▁عَنْهُ:": 8571,
      "بحث": 8572,
      "▁السموات": 8573,
      "▁قُرَيْش": 8574,
      "▁والأم": 8575,
      "لى،": 8576,
      "٩٢": 8577,
      "▁حاتم:": 8578,
      "٩٣": 8579,
      "َةً.": 8580,
      "َادَةُ": 8581,
      "▁الشَّهَاد": 8582,
      "▁أَيْد": 8583,
      "تُمْ": 8584,
      "▁[ي": 8585,
      "▁زرعة": 8586,
      "▁يُمْكِنُ": 8587,
      "▁فَإِنَّهَا": 8588,
      "َأُ": 8589,
      "▁طيب": 8590,
      "▁عَبْدَ": 8591,
      "▁كبار": 8592,
      "َاعَةِ": 8593,
      "ثَ": 8594,
      "▁بَعْدِ": 8595,
      "ْخَذ": 8596,
      "▁الْبَيْعِ": 8597,
      "َيِّب": 8598,
      "▁نَحْنُ": 8599,
      "ِدٍ": 8600,
      "حْر": 8601,
      "▁وكما": 8602,
      "▁مَسْج": 8603,
      "َوَاتِ": 8604,
      "▁هَار": 8605,
      "▁النَّف": 8606,
      "▁الصبح": 8607,
      "▁البزار": 8608,
      "▁وَاللَّ": 8609,
      "ختيار": 8610,
      "▁فلمّا": 8611,
      "▁سف": 8612,
      "▁٦٤": 8613,
      "▁بحديث": 8614,
      "▁العرش": 8615,
      "▁كذلك،": 8616,
      "▁الحروف": 8617,
      "▁حدود": 8618,
      "▁ولده": 8619,
      "▁وَاللَّهِ": 8620,
      "▁وعم": 8621,
      "َلِف": 8622,
      "▁أ.": 8623,
      "▁هُرَيْرَةَ،": 8624,
      "َانِهِ": 8625,
      "▁العدد": 8626,
      "▁مَعْلُوم": 8627,
      "▁نَفَق": 8628,
      "▁الولي": 8629,
      "▁صحيحه": 8630,
      "▁الكه": 8631,
      "▁اللَّيْل": 8632,
      "▁المجاز": 8633,
      "لا.": 8634,
      "▁هَكَذَا": 8635,
      "▁نش": 8636,
      "كم.": 8637,
      "▁وَالْي": 8638,
      "ْنٍ": 8639,
      "▁فو": 8640,
      "▁مَم": 8641,
      "▁امرأته": 8642,
      "▁٣:": 8643,
      "▁أقول": 8644,
      "▁الْمُصَنِّف": 8645,
      "ِيبَ": 8646,
      "▁إنهم": 8647,
      "▁الأي": 8648,
      "▁وَجَد": 8649,
      "▁فكأن": 8650,
      "▁لِج": 8651,
      "▁بعضه": 8652,
      "ْبَ": 8653,
      "َرَك": 8654,
      "ون\"": 8655,
      "▁الخطأ": 8656,
      "َرَ،": 8657,
      "▁يفهم": 8658,
      "▁وقل": 8659,
      "ٌ\"": 8660,
      "ُتُب": 8661,
      "ْضِي": 8662,
      "▁الصَّلاَةِ": 8663,
      "٥٢": 8664,
      "▁وحين": 8665,
      "▁الشهر": 8666,
      "▁وأربعين": 8667,
      "▁اتخذ": 8668,
      "▁يجري": 8669,
      "▁الشاهد": 8670,
      "▁أَلا": 8671,
      "▁الصَّي": 8672,
      "▁أسامة": 8673,
      "▁لَقَدْ": 8674,
      "٥١": 8675,
      "▁وَاَل": 8676,
      "▁جَمِيعِ": 8677,
      "▁إف": 8678,
      "▁وَإِس": 8679,
      "▁تُوُف": 8680,
      "▁وَمِنْهَا": 8681,
      "▁خليل": 8682,
      "▁وزن": 8683,
      "ِيل:": 8684,
      "▁بَقِيَ": 8685,
      "▁يرج": 8686,
      "▁وَالأ": 8687,
      "▁اتفق": 8688,
      "ستان": 8689,
      "▁بالث": 8690,
      "صحف": 8691,
      "لخيص": 8692,
      "ْبَةَ": 8693,
      "▁الحنفي": 8694,
      "▁خروج": 8695,
      "▁الام": 8696,
      "▁الشاعر:": 8697,
      "▁لعل": 8698,
      "▁تقي": 8699,
      "▁تَرَك": 8700,
      "▁فكذلك": 8701,
      "اخ": 8702,
      "لاط": 8703,
      "▁سنة.": 8704,
      "▁يَدُلُّ": 8705,
      "▁الشُّر": 8706,
      "▁علة": 8707,
      "▁البناء": 8708,
      "▁عجز": 8709,
      "▁النِّي": 8710,
      "شع": 8711,
      "َيْرٍ،": 8712,
      "▁الْحَجِّ": 8713,
      "▁\"قال": 8714,
      "▁مترو": 8715,
      "▁الصَّدَق": 8716,
      "▁مَب": 8717,
      "َيْسَتْ": 8718,
      "▁ويب": 8719,
      "▁غلام": 8720,
      "▁رق": 8721,
      "▁٧٧": 8722,
      "▁فكانت": 8723,
      "▁مُؤْمِن": 8724,
      "▁بخط": 8725,
      "▁السَّم": 8726,
      "▁٦٢": 8727,
      "▁نَك": 8728,
      "▁أَنا": 8729,
      "▁عزّ": 8730,
      "▁وحكم": 8731,
      "▁نعمة": 8732,
      "ِكْرِم": 8733,
      "▁الماضي": 8734,
      "وجيه": 8735,
      "قسم": 8736,
      "ْرَأُ": 8737,
      "▁وتقدم": 8738,
      "َالَةُ": 8739,
      "▁وسعيد": 8740,
      "ليت": 8741,
      "▁أصحابنا": 8742,
      "خرى": 8743,
      "▁ساعة": 8744,
      "▁الله\"": 8745,
      "▁هذين": 8746,
      "وجوب": 8747,
      "َرَتْ": 8748,
      "▁الكلبي": 8749,
      "س:": 8750,
      "▁سفيان،": 8751,
      "▁باست": 8752,
      "تعليق": 8753,
      "▁الوك": 8754,
      "▁ذُو": 8755,
      "امي": 8756,
      "لبة": 8757,
      "قبال": 8758,
      "ُنِي": 8759,
      "▁بالز": 8760,
      "▁رزق": 8761,
      "ذبح": 8762,
      "▁السياق": 8763,
      "حج": 8764,
      "▁عتق": 8765,
      "ئات": 8766,
      "▁الْوَاق": 8767,
      "▁النِّكَاحِ": 8768,
      "َّ،": 8769,
      "▁المحا": 8770,
      "دخل": 8771,
      "فلة": 8772,
      "▁شِهَا": 8773,
      "▁الْبَل": 8774,
      "▁النفوس": 8775,
      "▁لَه": 8776,
      "▁العلامة": 8777,
      "ِيَّةِ:": 8778,
      "▁السلام،": 8779,
      "▁وَرَوَى": 8780,
      "▁ذُكِرَ": 8781,
      "▁جاه": 8782,
      "َرْع": 8783,
      "▁وَرُوِيَ": 8784,
      "▁٦١": 8785,
      "▁حَدثنَا": 8786,
      "▁والو": 8787,
      "رضى": 8788,
      "▁نحوه": 8789,
      "▁(١٢)": 8790,
      "▁مضم": 8791,
      "▁التاب": 8792,
      "ملوك": 8793,
      "▁ساقطة": 8794,
      "▁والعمل": 8795,
      "▁أَمْوَال": 8796,
      "▁واللام": 8797,
      "٥/": 8798,
      "▁كَالْم": 8799,
      "▁جيد": 8800,
      "▁داود:": 8801,
      "إس": 8802,
      "▁«ب": 8803,
      "▁غيرهم": 8804,
      "▁حَدَّثَنا": 8805,
      "صم": 8806,
      "▁بكر،": 8807,
      "▁والذين": 8808,
      "ع.": 8809,
      "▁ونَ": 8810,
      "▁خرجت": 8811,
      "وحة": 8812,
      "▁رَمَضَانَ": 8813,
      "▁عَس": 8814,
      "٥٤": 8815,
      "▁غر": 8816,
      "ق:": 8817,
      "▁خَلَقَ": 8818,
      "▁أنهما": 8819,
      "▁كُ": 8820,
      "٥٣": 8821,
      "▁أخو": 8822,
      "▁فاطمة": 8823,
      "▁المدينة،": 8824,
      "▁الآية،": 8825,
      "▁فدخل": 8826,
      "▁واللَّه": 8827,
      "▁الغني": 8828,
      "▁حبي": 8829,
      "▁فَط": 8830,
      "▁رِوَايَةِ": 8831,
      "▁قِيلَ:": 8832,
      "▁قتيبة": 8833,
      "▁إِمَّا": 8834,
      "▁الصورة": 8835,
      "٥-": 8836,
      "▁التَّي": 8837,
      "فف": 8838,
      "حمن": 8839,
      "▁سُفْيَانَ": 8840,
      "▁العيد": 8841,
      "ناول": 8842,
      "▁بِيَدِهِ": 8843,
      "▁دُخ": 8844,
      "▁بمصر": 8845,
      "لَّى": 8846,
      "راسان": 8847,
      "درس": 8848,
      "▁غيره.": 8849,
      "▁رَحْم": 8850,
      "▁الفرس": 8851,
      "▁دينه": 8852,
      "باد": 8853,
      "▁ربنا": 8854,
      "▁١٣/": 8855,
      "▁دَلِيل": 8856,
      "َعْج": 8857,
      "ري.": 8858,
      "ِي:": 8859,
      "▁مخالف": 8860,
      "ُونُوا": 8861,
      "ْنَب": 8862,
      "▁الّذي": 8863,
      "▁أيّ": 8864,
      "▁لِلْ": 8865,
      "▁الطَّبَر": 8866,
      "▁جُرَيْج": 8867,
      "▁قَرِيب": 8868,
      "رام،": 8869,
      "▁سلطان": 8870,
      "▁بإسناد": 8871,
      "سف": 8872,
      "▁عيينة": 8873,
      "ْهَدُ": 8874,
      "سَ": 8875,
      "▁البعض": 8876,
      "▁[١]:": 8877,
      "▁الترمذي:": 8878,
      "ليلة": 8879,
      "َاهُمْ": 8880,
      "▁فإنَّ": 8881,
      "▁صن": 8882,
      "▁قوي": 8883,
      "ِيئ": 8884,
      "ِمْ": 8885,
      "▁كافر": 8886,
      "٩/": 8887,
      "▁٦٣": 8888,
      "ِيعَ": 8889,
      "ْتِر": 8890,
      "▁وَأَنَّهُ": 8891,
      "ِيحِ": 8892,
      "▁رسولَ": 8893,
      "▁يَزِيدُ": 8894,
      "صفه": 8895,
      "▁آخر:": 8896,
      "▁النصف": 8897,
      "▁الْعُم": 8898,
      "▁تفسيره": 8899,
      "صَّ": 8900,
      "▁سيبويه": 8901,
      "▁الأبي": 8902,
      "▁فين": 8903,
      "▁فرغ": 8904,
      "▁الواقع": 8905,
      "ضعيف": 8906,
      "▁يسار": 8907,
      "▁رَ": 8908,
      "▁الظن": 8909,
      "▁جَوَازِ": 8910,
      "جزاء": 8911,
      "ِهِ)": 8912,
      "▁للنبي": 8913,
      "ٍ\"": 8914,
      "ليغ": 8915,
      "▁الدهر": 8916,
      "▁الحاجة": 8917,
      "▁إِسْرَائ": 8918,
      "▁الرجوع": 8919,
      "ِعٌ": 8920,
      "▁يعطي": 8921,
      "ْمَلُ": 8922,
      "ْسَل": 8923,
      "▁يقر": 8924,
      "وى،": 8925,
      "خال": 8926,
      "ْبَل": 8927,
      "َيْبِ": 8928,
      "ان)": 8929,
      "▁اثنتين": 8930,
      "▁الأحوال": 8931,
      "▁الحص": 8932,
      "▁وَأَج": 8933,
      "▁الْقَاسِم": 8934,
      "▁ابتد": 8935,
      "▁رُو": 8936,
      "▁\"إِنَّ": 8937,
      "▁كفروا": 8938,
      "▁اللَّيْلِ": 8939,
      "▁الثَّلَاث": 8940,
      "▁واق": 8941,
      "بسوط": 8942,
      "▁غزوة": 8943,
      "▁بالمدينة": 8944,
      "▁عاط": 8945,
      "▁الأشع": 8946,
      "▁والظاهر": 8947,
      "▁الْيَهُود": 8948,
      "▁الاحت": 8949,
      "▁هد": 8950,
      "▁(١٠/": 8951,
      "▁التاس": 8952,
      "▁سجد": 8953,
      "اصد": 8954,
      "▁تدخل": 8955,
      "▁وَالشَّافِعِيَّةُ": 8956,
      "▁(و)": 8957,
      "شب": 8958,
      "▁خطاب": 8959,
      "َامَةَ": 8960,
      "▁يزال": 8961,
      "▁الأولي": 8962,
      "مائة،": 8963,
      "▁العارف": 8964,
      "ِقٌ": 8965,
      "▁المهاجر": 8966,
      "▁معها": 8967,
      "▁الفاس": 8968,
      "▁ثُلُث": 8969,
      "▁ماذا": 8970,
      "َّنَ": 8971,
      "ِيَّةٍ": 8972,
      "▁العلي": 8973,
      "▁الأل": 8974,
      "▁يَلْزَمُ": 8975,
      "َقْد": 8976,
      "▁لآ": 8977,
      "▁يحسن": 8978,
      "ِمٍ،": 8979,
      "▁رو": 8980,
      "ِيِّ.": 8981,
      "رب،": 8982,
      "▁قراء": 8983,
      "غْنِي": 8984,
      "ِها": 8985,
      "▁وحكى": 8986,
      "▁كامل": 8987,
      "▁تَجِبُ": 8988,
      "ْقُطُ": 8989,
      "٦-": 8990,
      "▁مؤلف": 8991,
      "▁تيمية": 8992,
      "وره": 8993,
      "▁كُر": 8994,
      "▁المرا": 8995,
      "▁الصحيحة": 8996,
      "▁دعاء": 8997,
      "▁الْخَل": 8998,
      "▁ركب": 8999,
      "▁الرحمن،": 9000,
      "▁القاموس": 9001,
      "▁أرس": 9002,
      "▁تُج": 9003,
      "▁ناصر": 9004,
      "▁بَيْت": 9005,
      "▁شَدِيد": 9006,
      "▁فقل": 9007,
      "ا)": 9008,
      "ضمير": 9009,
      "▁وخمسين": 9010,
      "▁مأ": 9011,
      "▁النبوة": 9012,
      "مادى": 9013,
      "ٌّ،": 9014,
      "▁الْعَر": 9015,
      "▁قَرَأَ": 9016,
      "▁كراه": 9017,
      "افية": 9018,
      "▁أبلغ": 9019,
      "▁هذا.": 9020,
      "ِيمٌ}": 9021,
      "▁تفرد": 9022,
      "▁الظالم": 9023,
      "▁يَدْخُل": 9024,
      "▁السَّاب": 9025,
      "▁تُك": 9026,
      "لت:": 9027,
      "▁عموم": 9028,
      "▁الله)": 9029,
      "▁وصلى": 9030,
      "▁بض": 9031,
      "▁سياق": 9032,
      "▁خَرَج": 9033,
      "▁أولاً": 9034,
      "َيْهَا": 9035,
      "وانين": 9036,
      "▁فَذَهَبَ": 9037,
      "ُوا،": 9038,
      "▁الجماع": 9039,
      "▁مصنف": 9040,
      "▁الإِْس": 9041,
      "▁جِنْس": 9042,
      "▁ينظر:": 9043,
      "▁طريقه": 9044,
      "▁الجد": 9045,
      "َعْنَ": 9046,
      "▁خر": 9047,
      "▁الهدى": 9048,
      "▁الأف": 9049,
      "▁الرفع": 9050,
      "▁طاع": 9051,
      "▁الأَْح": 9052,
      "▁منت": 9053,
      "▁مبا": 9054,
      "▁أعلى": 9055,
      "َبْ": 9056,
      "▁الملوك": 9057,
      "ْمَلُونَ": 9058,
      "▁الأفعال": 9059,
      "▁حَض": 9060,
      "▁تَسْت": 9061,
      "▁٩٠": 9062,
      "َارٌ": 9063,
      "▁ليت": 9064,
      "▁الإع": 9065,
      "▁الواس": 9066,
      "▁القدرة": 9067,
      "▁فَوْ": 9068,
      "▁البخاري:": 9069,
      "ِيَّةً": 9070,
      "▁بِهَا،": 9071,
      "قها": 9072,
      "▁جمال": 9073,
      "▁كَانَت": 9074,
      "▁وبا": 9075,
      "▁أَهْلَ": 9076,
      "▁والبخاري": 9077,
      "َرَث": 9078,
      "َالٌ": 9079,
      "▁ربما": 9080,
      "▁شب": 9081,
      "سوب": 9082,
      "▁منها:": 9083,
      "لائك": 9084,
      "▁تقبل": 9085,
      "ِيُّ.": 9086,
      "وري،": 9087,
      "لبه": 9088,
      "َّاف": 9089,
      "▁أَيْض": 9090,
      "َامِس": 9091,
      "▁التعريف": 9092,
      "▁عوان": 9093,
      "َحِّ": 9094,
      "▁خَلْق": 9095,
      "▁ذلِكَ": 9096,
      "▁ليكون": 9097,
      "ِعُونَ": 9098,
      "▁شد": 9099,
      "▁ألفاظ": 9100,
      "▁الرُّج": 9101,
      "▁يَأْم": 9102,
      "▁\"ز": 9103,
      "▁يلي": 9104,
      "تهن": 9105,
      "▁طريقة": 9106,
      "▁وَسَلَّمَ-": 9107,
      "▁هـ،": 9108,
      "▁سنين": 9109,
      "▁بالض": 9110,
      "َظْهَرُ": 9111,
      "▁(أو": 9112,
      "▁الأخير": 9113,
      "▁فكأنه": 9114,
      "▁الْفُر": 9115,
      "َرِيض": 9116,
      "▁متع": 9117,
      "▁الظَّال": 9118,
      "▁تَحْتَ": 9119,
      "▁الأوز": 9120,
      "▁قَلْب": 9121,
      "▁دُونِ": 9122,
      "▁الْقَط": 9123,
      "▁الْمَرْأَةِ": 9124,
      "▁الصحاح": 9125,
      "▁العاق": 9126,
      "▁ترتيب": 9127,
      "▁الْحُكْمُ": 9128,
      "▁الرِّي": 9129,
      "▁أَلَا": 9130,
      "▁لكونه": 9131,
      "َدَّى": 9132,
      "▁سلمة،": 9133,
      "ِّرَ": 9134,
      "▁وجملة:": 9135,
      "▁الميزان": 9136,
      "▁الْفَس": 9137,
      "▁الرَّزَّاق": 9138,
      "▁وأقام": 9139,
      "َنْد": 9140,
      "ِ؛": 9141,
      "▁والتق": 9142,
      "▁(ت)": 9143,
      "▁وسائر": 9144,
      "٨-": 9145,
      "٥٩": 9146,
      "▁الاشت": 9147,
      "▁الدرد": 9148,
      "َجْهُ": 9149,
      "▁السك": 9150,
      "▁شِهَاب": 9151,
      "▁الخلف": 9152,
      "▁البخاري،": 9153,
      "يتين": 9154,
      "▁تلا": 9155,
      "▁أوله": 9156,
      "▁أمثال": 9157,
      "▁مرس": 9158,
      "▁الأقوال": 9159,
      "َعَلَّقُ": 9160,
      "▁النصب": 9161,
      "▁الْمُل": 9162,
      "▁ينكر": 9163,
      "▁وَالت": 9164,
      "▁يُقَال:": 9165,
      "▁أَصَاب": 9166,
      "▁دَم": 9167,
      "اتها": 9168,
      "ذاك": 9169,
      "▁الجر": 9170,
      "▁وُجُوبِ": 9171,
      "▁الْإِج": 9172,
      "▁فَقَال:": 9173,
      "▁قال،": 9174,
      "▁(ط)": 9175,
      "▁ضم": 9176,
      "▁الكعبة": 9177,
      "▁الْجَو": 9178,
      "▁زَادَ": 9179,
      "قياس": 9180,
      "▁أمرهم": 9181,
      "▁خطب": 9182,
      "▁عِل": 9183,
      "▁المعنى:": 9184,
      "▁جدا": 9185,
      "▁وتك": 9186,
      "بدو": 9187,
      "▁يقولون:": 9188,
      "▁جلال": 9189,
      "َاكَ": 9190,
      "▁{فَ": 9191,
      "▁سَج": 9192,
      "ائص": 9193,
      "▁إقامة": 9194,
      "▁والمعنى:": 9195,
      "▁عظم": 9196,
      "▁حذيفة": 9197,
      "▁مقدمة": 9198,
      "▁مختص": 9199,
      "▁رسم": 9200,
      "َةُ.": 9201,
      "▁الكريمة": 9202,
      "▁{إِ": 9203,
      "▁ذكرناه": 9204,
      "يحة": 9205,
      "▁أَغ": 9206,
      "▁وقالوا": 9207,
      "▁الخليل": 9208,
      "▁والجواب": 9209,
      "▁سيما": 9210,
      "ليمان": 9211,
      "▁[آل": 9212,
      "▁قُو": 9213,
      "▁للاست": 9214,
      "▁قي": 9215,
      "▁الوط": 9216,
      "▁عنها،": 9217,
      "٦١": 9218,
      "علها": 9219,
      "▁والمح": 9220,
      "▁الْأَب": 9221,
      "فاف": 9222,
      "َتُهَا": 9223,
      "▁تَرَكَ": 9224,
      "▁أَنَسٍ": 9225,
      "فْصِيل": 9226,
      "▁بعين": 9227,
      "▁مَد": 9228,
      "٦٩": 9229,
      "رائض": 9230,
      "▁الْإِب": 9231,
      "▁دَل": 9232,
      "▁{وَي": 9233,
      "▁الثَّوْر": 9234,
      "▁الرَّد": 9235,
      "▁بالل": 9236,
      "ادية": 9237,
      "الهم": 9238,
      "َمْر": 9239,
      "▁يَرَى": 9240,
      "▁المسائل": 9241,
      "▁تصانيفه:": 9242,
      "▁فِيهِمَا": 9243,
      "▁يَقَعُ": 9244,
      "▁بذ": 9245,
      "▁إنكار": 9246,
      "▁الطَّو": 9247,
      "وْ": 9248,
      "▁يكونوا": 9249,
      "َحْي": 9250,
      "▁حُكْمِ": 9251,
      "ْنِهِ": 9252,
      "▁وَابْنِ": 9253,
      "▁الكون": 9254,
      "▁أَز": 9255,
      "ائط": 9256,
      "▁لِلنَّاسِ": 9257,
      "قاع": 9258,
      "▁وَعَد": 9259,
      "▁المرجع": 9260,
      "▁ونهاية": 9261,
      "▁الآْخ": 9262,
      "ْبَرُ": 9263,
      "٦٣": 9264,
      "▁وردت": 9265,
      "؟»": 9266,
      "▁نَصَّ": 9267,
      "▁«٥»": 9268,
      "▁كا": 9269,
      "▁توف": 9270,
      "▁لهم:": 9271,
      "▁عندما": 9272,
      "صيل": 9273,
      "▁رَدَّ": 9274,
      "▁بشير": 9275,
      "▁وسبعين": 9276,
      "▁الشِّر": 9277,
      "▁لف": 9278,
      "قي،": 9279,
      "▁روايته": 9280,
      "▁الشَّرْع": 9281,
      "▁عَبَّاسٍ،": 9282,
      "▁لازم": 9283,
      "▁الخليفة": 9284,
      "▁نفسها": 9285,
      "ْقِي": 9286,
      "▁تقع": 9287,
      "▁الهجرة": 9288,
      "▁جب": 9289,
      "ِلاَي": 9290,
      "ُوطِ": 9291,
      "▁وكأن": 9292,
      "▁مصعب": 9293,
      "َتْ،": 9294,
      "ْتِق": 9295,
      "==": 9296,
      "ْتِم": 9297,
      "يمي": 9298,
      "َوِي": 9299,
      "خذه": 9300,
      "▁أَصْحَابِ": 9301,
      "▁الحسن،": 9302,
      "▁الأعلام": 9303,
      "٦٤": 9304,
      "▁٣.": 9305,
      "▁عيا": 9306,
      "▁الشَّيْء": 9307,
      "▁حذ": 9308,
      "٧-": 9309,
      "تين،": 9310,
      "▁واض": 9311,
      "▁واحدة،": 9312,
      "▁لَهُمَا": 9313,
      "ربه": 9314,
      "َحَبُّ": 9315,
      "قاط": 9316,
      "▁سبحانه:": 9317,
      "▁ملكه": 9318,
      "َا،": 9319,
      "دَى": 9320,
      "▁الْخَطَّابِ": 9321,
      "▁مف": 9322,
      "▁عَلِمَ": 9323,
      "ْبَلُ": 9324,
      "وهر": 9325,
      "▁\"د": 9326,
      "▁الهي": 9327,
      "▁وَأَش": 9328,
      "زة،": 9329,
      "َيْض": 9330,
      "٧٩": 9331,
      "٦٢": 9332,
      "ْتِن": 9333,
      "▁يبين": 9334,
      "ِدًا": 9335,
      "ُطْل": 9336,
      "▁القادر": 9337,
      "▁بِالْإِ": 9338,
      "دعاء": 9339,
      "▁عُيَيْنَ": 9340,
      "س)": 9341,
      "ُوهُنَّ": 9342,
      "▁وأصل": 9343,
      "▁لرسول": 9344,
      "▁(رقم": 9345,
      "ح.": 9346,
      "▁تُف": 9347,
      "▁والسنة": 9348,
      "▁المطبوع": 9349,
      "َائِط": 9350,
      "▁القراءات": 9351,
      "▁سهم": 9352,
      "َائِع": 9353,
      "▁الثواب": 9354,
      "▁الْحُكْمِ": 9355,
      "▁النَّخ": 9356,
      "واني": 9357,
      "ة)": 9358,
      "▁الرأي": 9359,
      "▁الْعُق": 9360,
      "▁لنفس": 9361,
      "▁مُطْلَقًا": 9362,
      "▁فِيهِمْ": 9363,
      "ِبَارِ": 9364,
      "يعني": 9365,
      "▁مذك": 9366,
      "حديث": 9367,
      "▁صَارَ": 9368,
      "▁اط": 9369,
      "▁الذَّه": 9370,
      "▁تَرَى": 9371,
      "ْعَلْ": 9372,
      "▁يخالف": 9373,
      "▁تحمل": 9374,
      "▁فُر": 9375,
      "▁الخلا": 9376,
      "▁أقبل": 9377,
      "▁ووقع": 9378,
      "▁وليست": 9379,
      "▁يُز": 9380,
      "ما.": 9381,
      "▁لقول": 9382,
      "ِيِّ:": 9383,
      "▁تُخ": 9384,
      "َائِر": 9385,
      "▁كَعْب": 9386,
      "▁الغالب": 9387,
      "حط": 9388,
      "▁القصاص": 9389,
      "▁يسقط": 9390,
      "صدر": 9391,
      "▁مَنَا": 9392,
      "▁كثير،": 9393,
      "▁الْمَالِكِيَّةِ": 9394,
      "▁مُعَاذ": 9395,
      "▁بالفعل": 9396,
      "▁وحي": 9397,
      "ti": 9398,
      "ْمٍ": 9399,
      "▁سَعِيدٍ،": 9400,
      "▁النِّسَاءِ": 9401,
      "▁الصديق": 9402,
      "▁ذِكْرُ": 9403,
      "▁الْمُز": 9404,
      "▁الدخول": 9405,
      "▁الورقة": 9406,
      "▁وقرئ": 9407,
      "هَق": 9408,
      "ايخ": 9409,
      "▁موسى،": 9410,
      "ثُمَّ": 9411,
      "▁لأمر": 9412,
      "▁المجتمع": 9413,
      "▁قبول": 9414,
      "تقى": 9415,
      "▁المؤمنون": 9416,
      "▁النّاس": 9417,
      "▁تفعل": 9418,
      "خلت": 9419,
      "أخوذ": 9420,
      "َهْدِ": 9421,
      "▁(ص)": 9422,
      "▁يَقْتَضِي": 9423,
      "زب": 9424,
      "▁بالاست": 9425,
      "▁عمير": 9426,
      "▁الإِمام": 9427,
      "▁يقدم": 9428,
      "تي،": 9429,
      "▁\"ش": 9430,
      "َّام": 9431,
      "▁أهلك": 9432,
      "▁النعمان": 9433,
      "▁الشَّافِعِيُّ": 9434,
      "▁أئمة": 9435,
      "▁وَلَو": 9436,
      "▁شيخنا": 9437,
      "١:": 9438,
      "ْبِر": 9439,
      "▁الموطأ": 9440,
      "▁إِسْحَاقَ،": 9441,
      "مني": 9442,
      "َئِم": 9443,
      "▁عدل": 9444,
      "فاوت": 9445,
      "▁الْفَج": 9446,
      "▁الْمُه": 9447,
      "▁فَقَطْ": 9448,
      "▁كَانَتِ": 9449,
      "▁وأصحابه": 9450,
      "▁الأكثر": 9451,
      "▁خيرا": 9452,
      "▁الاستثناء": 9453,
      "ذْك": 9454,
      "▁مرات": 9455,
      "▁فَإِذا": 9456,
      "َبَهُ": 9457,
      "▁مأم": 9458,
      "▁لأم": 9459,
      "▁رز": 9460,
      "▁والظ": 9461,
      "▁الحقائق": 9462,
      "وادث": 9463,
      "▁يُم": 9464,
      "▁بَيْنَهُ": 9465,
      "داة": 9466,
      "▁يَوْمَئِذٍ": 9467,
      "▁الْإِسْلَامِ": 9468,
      "▁معرف": 9469,
      "فسر": 9470,
      "▁{إِن": 9471,
      "▁القبر": 9472,
      "ِيمًا": 9473,
      "ناق": 9474,
      "٨٩": 9475,
      "▁وَالْمَالِك": 9476,
      "لَ": 9477,
      "▁الْعَبَّاس": 9478,
      "سطة": 9479,
      "▁بالمعروف": 9480,
      "▁قض": 9481,
      "▁طلاق": 9482,
      "▁الْوَجْهِ": 9483,
      "▁زكاة": 9484,
      "ِنَاي": 9485,
      "يعاب": 9486,
      "▁الأولى،": 9487,
      "▁[٦].": 9488,
      "▁والأول": 9489,
      "▁الْقُرْآنَ": 9490,
      "▁وتم": 9491,
      "▁القاعدة": 9492,
      "عان": 9493,
      "▁الأربعة": 9494,
      "▁فَيُق": 9495,
      "▁«ما": 9496,
      "داً": 9497,
      "▁حَوْل": 9498,
      "▁منتهى": 9499,
      "▁المتكلم": 9500,
      "▁كب": 9501,
      "▁الاعتد": 9502,
      "▁حلق": 9503,
      "▁١٣٠": 9504,
      "▁الْمَشْهُور": 9505,
      "▁بيته": 9506,
      "ين}": 9507,
      "▁القرآن\"": 9508,
      "▁لَع": 9509,
      "يّة": 9510,
      "▁العمر": 9511,
      "▁المقرئ": 9512,
      "٦/": 9513,
      "▁يخاف": 9514,
      "▁النحا": 9515,
      "▁الصَّحِيحِ": 9516,
      "▁مسلم.": 9517,
      "▁دِي": 9518,
      "وده": 9519,
      "َأْذ": 9520,
      "▁مقدار": 9521,
      "َدُوا": 9522,
      "▁الصَّلَاةَ": 9523,
      "▁ثَو": 9524,
      "حوا": 9525,
      "▁الرياض": 9526,
      "َّخِذ": 9527,
      "ُومَ": 9528,
      "َابِ،": 9529,
      "مَار": 9530,
      "▁السور": 9531,
      "َرٍ،": 9532,
      "▁الأوسط": 9533,
      "▁يتكلم": 9534,
      "▁تَرْك": 9535,
      "▁اسْتِح": 9536,
      "قة.": 9537,
      "▁الانت": 9538,
      "َصْلَح": 9539,
      "▁(ص:": 9540,
      "▁السجود": 9541,
      "▁والذ": 9542,
      "▁الأستاذ": 9543,
      "إِي": 9544,
      "▁الدَّو": 9545,
      "▁سعد،": 9546,
      "▁تقديره": 9547,
      "▁وتفسير": 9548,
      "هَذَا": 9549,
      "▁الأخلاق": 9550,
      "▁العلة": 9551,
      "▁تحفة": 9552,
      "▁ناحية": 9553,
      "▁فكتب": 9554,
      "ماه": 9555,
      "َتِهِمْ": 9556,
      "▁أوجه": 9557,
      "هَاج": 9558,
      "▁التَّعْرِيف": 9559,
      "▁تمر": 9560,
      "▁وحا": 9561,
      "جاد": 9562,
      "ديب": 9563,
      "▁كقوله:": 9564,
      "ِيلاً": 9565,
      "▁يمس": 9566,
      "ْوِ": 9567,
      "▁مَعْر": 9568,
      "▁تَكُنْ": 9569,
      "ف.": 9570,
      "▁الْمُخْت": 9571,
      "▁وَأما": 9572,
      "▁السابع": 9573,
      "٧٣": 9574,
      "▁برأ": 9575,
      "▁بكم": 9576,
      "▁كَفَّار": 9577,
      "قْد": 9578,
      "َخْص": 9579,
      "▁الخيل": 9580,
      "▁محمد:": 9581,
      "▁وإسحاق": 9582,
      "▁تبين": 9583,
      "▁أفعال": 9584,
      "ِشْرِينَ": 9585,
      "ى)": 9586,
      "▁الأوق": 9587,
      "َوْص": 9588,
      "▁ذه": 9589,
      "ْظَرُ": 9590,
      "▁ترا": 9591,
      "حدثنا": 9592,
      "▁طَاهِر": 9593,
      "▁للف": 9594,
      "َائِب": 9595,
      "▁سَأَل": 9596,
      "▁السين": 9597,
      "▁{وَق": 9598,
      "ّاً": 9599,
      "قاً": 9600,
      "▁أقوى": 9601,
      "▁غَال": 9602,
      "▁هِشَام": 9603,
      "َرِه": 9604,
      "▁وقالوا:": 9605,
      "عراف": 9606,
      "َاتِل": 9607,
      "▁يث": 9608,
      "▁البو": 9609,
      "▁تلق": 9610,
      "▁ابي": 9611,
      "▁{إن": 9612,
      "▁نُق": 9613,
      "حاد": 9614,
      "▁الرأس": 9615,
      "ar": 9616,
      "٨/": 9617,
      "▁المنافقين": 9618,
      "▁إطلاق": 9619,
      "ْتَز": 9620,
      "▁الضحاك": 9621,
      "▁فوجد": 9622,
      "▁رِوَايَةٍ": 9623,
      "▁(انظر": 9624,
      "▁الوجوب": 9625,
      "▁(غ": 9626,
      "برد": 9627,
      "▁مُصْطَلَحِ": 9628,
      "▁نها": 9629,
      "بوب": 9630,
      "▁ويش": 9631,
      "▁نساء": 9632,
      "▁وبهذا": 9633,
      "▁أورده": 9634,
      "-،": 9635,
      "▁شَرْحِ": 9636,
      "طرة": 9637,
      "▁الجيش": 9638,
      "▁الأربع": 9639,
      "▁أوا": 9640,
      "▁والتقدير": 9641,
      "ْتَرِ": 9642,
[...]
